{
  "version": "1.0",
  "truncation": null,
  "padding": null,
  "added_tokens": [
    {
      "id": 0,
      "content": "[PAD]",
      "single_word": false,
      "lstrip": false,
      "rstrip": false,
      "normalized": false,
      "special": true
    },
    {
      "id": 1,
      "content": "[UNK]",
      "single_word": false,
      "lstrip": false,
      "rstrip": false,
      "normalized": false,
      "special": true
    },
    {
      "id": 2,
      "content": "[SOS]",
      "single_word": false,
      "lstrip": false,
      "rstrip": false,
      "normalized": false,
      "special": true
    },
    {
      "id": 3,
      "content": "[EOS]",
      "single_word": false,
      "lstrip": false,
      "rstrip": false,
      "normalized": false,
      "special": true
    },
    {
      "id": 4,
      "content": "[SEP]",
      "single_word": false,
      "lstrip": false,
      "rstrip": false,
      "normalized": false,
      "special": true
    },
    {
      "id": 5,
      "content": "{",
      "single_word": false,
      "lstrip": false,
      "rstrip": false,
      "normalized": false,
      "special": true
    },
    {
      "id": 6,
      "content": "}",
      "single_word": false,
      "lstrip": false,
      "rstrip": false,
      "normalized": false,
      "special": true
    },
    {
      "id": 7,
      "content": "[",
      "single_word": false,
      "lstrip": false,
      "rstrip": false,
      "normalized": false,
      "special": true
    },
    {
      "id": 8,
      "content": "]",
      "single_word": false,
      "lstrip": false,
      "rstrip": false,
      "normalized": false,
      "special": true
    },
    {
      "id": 9,
      "content": ":",
      "single_word": false,
      "lstrip": false,
      "rstrip": false,
      "normalized": false,
      "special": true
    },
    {
      "id": 10,
      "content": ",",
      "single_word": false,
      "lstrip": false,
      "rstrip": false,
      "normalized": false,
      "special": true
    },
    {
      "id": 11,
      "content": "\"commandLanguage\"",
      "single_word": false,
      "lstrip": false,
      "rstrip": false,
      "normalized": false,
      "special": true
    },
    {
      "id": 12,
      "content": "\"errors\"",
      "single_word": false,
      "lstrip": false,
      "rstrip": false,
      "normalized": false,
      "special": true
    },
    {
      "id": 13,
      "content": "\"commands\"",
      "single_word": false,
      "lstrip": false,
      "rstrip": false,
      "normalized": false,
      "special": true
    },
    {
      "id": 14,
      "content": "\"parameters\"",
      "single_word": false,
      "lstrip": false,
      "rstrip": false,
      "normalized": false,
      "special": true
    },
    {
      "id": 15,
      "content": "\"name\"",
      "single_word": false,
      "lstrip": false,
      "rstrip": false,
      "normalized": false,
      "special": true
    },
    {
      "id": 16,
      "content": "\"description\"",
      "single_word": false,
      "lstrip": false,
      "rstrip": false,
      "normalized": false,
      "special": true
    },
    {
      "id": 17,
      "content": "\"distance\"",
      "single_word": false,
      "lstrip": false,
      "rstrip": false,
      "normalized": false,
      "special": true
    },
    {
      "id": 18,
      "content": "\"acceleration\"",
      "single_word": false,
      "lstrip": false,
      "rstrip": false,
      "normalized": false,
      "special": true
    },
    {
      "id": 19,
      "content": "\"angle\"",
      "single_word": false,
      "lstrip": false,
      "rstrip": false,
      "normalized": false,
      "special": true
    },
    {
      "id": 20,
      "content": "\"direction\"",
      "single_word": false,
      "lstrip": false,
      "rstrip": false,
      "normalized": false,
      "special": true
    },
    {
      "id": 21,
      "content": "\"INVALID_COMMAND\"",
      "single_word": false,
      "lstrip": false,
      "rstrip": false,
      "normalized": false,
      "special": true
    },
    {
      "id": 22,
      "content": "\"MISSING_PARAMETER\"",
      "single_word": false,
      "lstrip": false,
      "rstrip": false,
      "normalized": false,
      "special": true
    },
    {
      "id": 23,
      "content": "\"INVALID_PARAMETER_TYPE\"",
      "single_word": false,
      "lstrip": false,
      "rstrip": false,
      "normalized": false,
      "special": true
    },
    {
      "id": 24,
      "content": "\"OUT_OF_RANGE\"",
      "single_word": false,
      "lstrip": false,
      "rstrip": false,
      "normalized": false,
      "special": true
    },
    {
      "id": 25,
      "content": "\"SYNTAX_ERROR\"",
      "single_word": false,
      "lstrip": false,
      "rstrip": false,
      "normalized": false,
      "special": true
    },
    {
      "id": 26,
      "content": "\"UNSUPPORTED_UNIT\"",
      "single_word": false,
      "lstrip": false,
      "rstrip": false,
      "normalized": false,
      "special": true
    }
  ],
  "normalizer": null,
  "pre_tokenizer": {
    "type": "ByteLevel",
    "add_prefix_space": true,
    "trim_offsets": true,
    "use_regex": true
  },
  "post_processor": {
    "type": "TemplateProcessing",
    "single": [
      {
        "SpecialToken": {
          "id": "[SOS]",
          "type_id": 0
        }
      },
      {
        "Sequence": {
          "id": "A",
          "type_id": 0
        }
      },
      {
        "SpecialToken": {
          "id": "[EOS]",
          "type_id": 0
        }
      }
    ],
    "pair": [
      {
        "SpecialToken": {
          "id": "[SOS]",
          "type_id": 0
        }
      },
      {
        "Sequence": {
          "id": "A",
          "type_id": 0
        }
      },
      {
        "SpecialToken": {
          "id": "[EOS]",
          "type_id": 0
        }
      },
      {
        "SpecialToken": {
          "id": "[SEP]",
          "type_id": 0
        }
      },
      {
        "Sequence": {
          "id": "B",
          "type_id": 0
        }
      },
      {
        "SpecialToken": {
          "id": "[EOS]",
          "type_id": 0
        }
      }
    ],
    "special_tokens": {
      "[EOS]": {
        "id": "[EOS]",
        "ids": [
          3
        ],
        "tokens": [
          "[EOS]"
        ]
      },
      "[SEP]": {
        "id": "[SEP]",
        "ids": [
          4
        ],
        "tokens": [
          "[SEP]"
        ]
      },
      "[SOS]": {
        "id": "[SOS]",
        "ids": [
          2
        ],
        "tokens": [
          "[SOS]"
        ]
      }
    }
  },
  "decoder": {
    "type": "ByteLevel",
    "add_prefix_space": true,
    "trim_offsets": true,
    "use_regex": true
  },
  "model": {
    "type": "BPE",
    "dropout": null,
    "unk_token": null,
    "continuing_subword_prefix": null,
    "end_of_word_suffix": null,
    "fuse_unk": false,
    "byte_fallback": false,
    "vocab": {
      "[PAD]": 0,
      "[UNK]": 1,
      "[SOS]": 2,
      "[EOS]": 3,
      "[SEP]": 4,
      "{": 5,
      "}": 6,
      "[": 7,
      "]": 8,
      ":": 9,
      ",": 10,
      "\"commandLanguage\"": 11,
      "\"errors\"": 12,
      "\"commands\"": 13,
      "\"parameters\"": 14,
      "\"name\"": 15,
      "\"description\"": 16,
      "\"distance\"": 17,
      "\"acceleration\"": 18,
      "\"angle\"": 19,
      "\"direction\"": 20,
      "\"INVALID_COMMAND\"": 21,
      "\"MISSING_PARAMETER\"": 22,
      "\"INVALID_PARAMETER_TYPE\"": 23,
      "\"OUT_OF_RANGE\"": 24,
      "\"SYNTAX_ERROR\"": 25,
      "\"UNSUPPORTED_UNIT\"": 26,
      "\"": 27,
      "-": 28,
      ".": 29,
      "/": 30,
      "0": 31,
      "1": 32,
      "2": 33,
      "3": 34,
      "4": 35,
      "5": 36,
      "6": 37,
      "7": 38,
      "8": 39,
      "9": 40,
      "^": 41,
      "a": 42,
      "b": 43,
      "c": 44,
      "d": 45,
      "e": 46,
      "f": 47,
      "g": 48,
      "h": 49,
      "i": 50,
      "j": 51,
      "k": 52,
      "l": 53,
      "m": 54,
      "n": 55,
      "o": 56,
      "p": 57,
      "q": 58,
      "r": 59,
      "s": 60,
      "t": 61,
      "u": 62,
      "v": 63,
      "w": 64,
      "x": 65,
      "y": 66,
      "z": 67,
      "Ċ": 68,
      "č": 69,
      "Ġ": 70,
      "čĊ": 71,
      "Ġc": 72,
      "Ġs": 73,
      "Ġcm": 74,
      "le": 75,
      "Ġr": 76,
      "Ġa": 77,
      "ly": 78,
      "te": 79,
      "ar": 80,
      "\":": 81,
      "ce": 82,
      "an": 83,
      "Ġp": 84,
      "ft": 85,
      "Ġ\"": 86,
      "ad": 87,
      "Ġt": 88,
      "Ġ1": 89,
      "Ġm": 90,
      "on": 91,
      "Ġ{": 92,
      "ck": 93,
      "Ġ2": 94,
      "Ġ4": 95,
      "Ġ3": 96,
      "ve": 97,
      "Ġ{\"": 98,
      "se": 99,
      "Ġst": 100,
      "ig": 101,
      "igh": 102,
      "he": 103,
      "left": 104,
      "ight": 105,
      "in": 106,
      "or": 107,
      "ra": 108,
      "qu": 109,
      "ick": 110,
      "Ġqu": 111,
      "Ġleft": 112,
      "Ġmo": 113,
      "Ġquick": 114,
      "Ġquickly": 115,
      "Ġright": 116,
      "ase": 117,
      "Ġmove": 118,
      "st": 119,
      "me": 120,
      "ti": 121,
      "tion": 122,
      "Ġf": 123,
      "wi": 124,
      "lease": 125,
      "Ġplease": 126,
      "ard": 127,
      "Ġb": 128,
      "Ġre": 129,
      "di": 130,
      "Ġste": 131,
      "de": 132,
      "om": 133,
      "ter": 134,
      "ance": 135,
      "ro": 136,
      "Ġthe": 137,
      "and": 138,
      "\",": 139,
      "ame": 140,
      "ters": 141,
      "omm": 142,
      "par": 143,
      "comm": 144,
      "ameters": 145,
      "}}": 146,
      "parameters": 147,
      "command": 148,
      "Ġrad": 149,
      "Ġstead": 150,
      "Ġto": 151,
      "er": 152,
      "raf": 153,
      "al": 154,
      "Ġfor": 155,
      "re": 156,
      "Ġin": 157,
      "Ġcon": 158,
      "Ġstraf": 159,
      "90": 160,
      "60": 161,
      "70": 162,
      "nt": 163,
      "ily": 164,
      "80": 165,
      "Ġsteadily": 166,
      "50": 167,
      "ward": 168,
      "40": 169,
      "dist": 170,
      "30": 171,
      "Ġsl": 172,
      "20": 173,
      "distance": 174,
      "10": 175,
      "Ġ5": 176,
      "Ġ6": 177,
      "Ġ9": 178,
      "Ġ7": 179,
      "Ġ8": 180,
      "op": 181,
      "ner": 182,
      "Ġman": 183,
      "Ġmanner": 184,
      "Ġat": 185,
      "ef": 186,
      "Ġswi": 187,
      "ration": 188,
      "Ġswift": 189,
      "cce": 190,
      "leration": 191,
      "cceleration": 192,
      "th": 193,
      "ate": 194,
      "Ġwi": 195,
      "Ġ0": 196,
      "Ġwith": 197,
      "Ġg": 198,
      "ed": 199,
      "hi": 200,
      "00": 201,
      "head": 202,
      "ide": 203,
      "ack": 204,
      "Ġshi": 205,
      "Ġpro": 206,
      "Ġshift": 207,
      "Ġslide": 208,
      "Ġstrafe": 209,
      "Ġproce": 210,
      "Ġproceed": 211,
      "Ġgo": 212,
      "is": 213,
      "Ġpa": 214,
      "Ġpace": 215,
      "Ġstop": 216,
      "gle": 217,
      "ort": 218,
      "Ġcons": 219,
      "bo": 220,
      "iste": 221,
      "Ġconsiste": 222,
      "Ġconsistent": 223,
      "board": 224,
      "arboard": 225,
      "tate": 226,
      "Ġport": 227,
      "Ġacceleration": 228,
      "Ġan": 229,
      "ing": 230,
      "Ġstarboard": 231,
      "ul": 232,
      "at": 233,
      "ri": 234,
      "Ġahead": 235,
      "Ġback": 236,
      "ver": 237,
      "ction": 238,
      "Ġad": 239,
      "dire": 240,
      "direction": 241,
      "Ġret": 242,
      "reat": 243,
      "Ġretreat": 244,
      "Ġrece": 245,
      "verse": 246,
      "Ġadv": 247,
      "Ġreverse": 248,
      "Ġrecede": 249,
      "Ġadvance": 250,
      "lle": 251,
      "Ġcont": 252,
      "ur": 253,
      "Ġbri": 254,
      "Ġcal": 255,
      "Ġcontro": 256,
      "lled": 257,
      "Ġbrief": 258,
      "Ġbriefly": 259,
      "Ġcontrolled": 260,
      "Ġby": 261,
      "Ġcalm": 262,
      "Ġcalmly": 263,
      "Ġangle": 264,
      "Ġfa": 265,
      "Ġh": 266,
      "Ġsp": 267,
      "Ġcar": 268,
      "Ġro": 269,
      "ully": 270,
      "Ġswiftly": 271,
      "Ġfast": 272,
      "efully": 273,
      "Ġcarefully": 274,
      "urn": 275,
      "Ġturn": 276,
      "Ġspin": 277,
      "Ġrotate": 278,
      "Ġstrafing": 279,
      "ment": 280,
      "Ġce": 281,
      "alt": 282,
      "Ġhalt": 283,
      "Ġmovement": 284,
      "Ġcease": 285,
      "right": 286,
      "29": 287,
      "Ġl": 288,
      "19": 289,
      "37": 290,
      "26": 291,
      "34": 292,
      "25": 293,
      "17": 294,
      "35": 295,
      "14": 296,
      "38": 297,
      "16": 298,
      "27": 299,
      "39": 300,
      "28": 301,
      "15": 302,
      "18": 303,
      "36": 304,
      "24": 305,
      "\"}}": 306,
      "Ġo": 307,
      "45": 308,
      "47": 309,
      "46": 310,
      "Ġforward": 311,
      "48": 312,
      "99": 313,
      "acceleration": 314,
      "Ġbackward": 315,
      "ow": 316,
      "Ġ46": 317,
      "56": 318,
      "78": 319,
      "58": 320,
      "49": 321,
      "Ġ16": 322,
      "Ġ28": 323,
      "Ġ26": 324,
      "Ġ30": 325,
      "Ġca": 326,
      "Ġ38": 327,
      "Ġ36": 328,
      "Ġ10": 329,
      "Ġ40": 330,
      "Ġ20": 331,
      "76": 332,
      "Ġ18": 333,
      "Ġ48": 334,
      "59": 335,
      "79": 336,
      "ger": 337,
      "for": 338,
      "all": 339,
      "Ġof": 340,
      "Ġhead": 341,
      "ution": 342,
      "Ġtoward": 343,
      "Ġsteady": 344,
      "Ġslow": 345,
      "Ġslowly": 346,
      "Ġlar": 347,
      "Ġ39": 348,
      "Ġsm": 349,
      "Ġ19": 350,
      "Ġstep": 351,
      "Ġlarger": 352,
      "Ġcaution": 353,
      "Ġ49": 354,
      "forward": 355,
      "21": 356,
      "33": 357,
      "angle": 358,
      "Ġsmall": 359,
      "rotate": 360,
      "back": 361,
      "stop": 362,
      "Ġ{}}": 363,
      "Ġ29": 364,
      "75": 365,
      "11": 366,
      "22": 367,
      "55": 368,
      "ot": 369,
      "23": 370,
      "77": 371,
      "44": 372,
      "Ġde": 373,
      "13": 374,
      "Ġrate": 375,
      "Ġdirection": 376,
      "Ġpi": 377,
      "74": 378,
      "vot": 379,
      "Ġpivot": 380,
      "12": 381,
      "54": 382,
      "57": 383,
      "32": 384,
      "31": 385,
      "Ġe": 386,
      "53": 387,
      "43": 388,
      "51": 389,
      "42": 390,
      "52": 391,
      "41": 392,
      "71": 393,
      "72": 394,
      "73": 395,
      "66": 396,
      "88": 397,
      "ular": 398,
      "Ġang": 399,
      "Ġdeg": 400,
      "Ġangular": 401,
      "89": 402,
      "86": 403,
      "Ġ-": 404,
      "69": 405,
      "Ġ60": 406,
      "Ġ90": 407,
      "straf": 408,
      "strafe": 409,
      "Ġ70": 410,
      "Ġ50": 411,
      "Ġ80": 412,
      "es": 413,
      "68": 414,
      "96": 415,
      "Ġw": 416,
      "98": 417,
      "en": 418,
      "it": 419,
      "ic": 420,
      "Ġn": 421,
      "Ġ56": 422,
      "ation": 423,
      "Ġd": 424,
      "Ġ69": 425,
      "Ġ99": 426,
      "Ġ58": 427,
      "Ġ78": 428,
      "Ġ79": 429,
      "Ġ89": 430,
      "Ġ59": 431,
      "Ġ66": 432,
      "Ġ96": 433,
      "Ġ86": 434,
      "un": 435,
      "Ġ68": 436,
      "Ġ98": 437,
      "Ġ88": 438,
      "Ġ76": 439,
      "ol": 440,
      "Ġ37": 441,
      "Ġ27": 442,
      "Ġ25": 443,
      "Ġ17": 444,
      "Ġ35": 445,
      "Ġ15": 446,
      "Ġ45": 447,
      "Ġ47": 448,
      "Ġ14": 449,
      "Ġ44": 450,
      "il": 451,
      "Ġ24": 452,
      "Ġ34": 453,
      "port": 454,
      "Ġ11": 455,
      "Ġ42": 456,
      "Ġ33": 457,
      "Ġ43": 458,
      "Ġ31": 459,
      "65": 460,
      "Ġ23": 461,
      "Ġ13": 462,
      "Ġ32": 463,
      "Ġ21": 464,
      "Ġ41": 465,
      "67": 466,
      "Ġ65": 467,
      "84": 468,
      "87": 469,
      "ct": 470,
      "Ġ22": 471,
      "Ġ55": 472,
      "Ġ87": 473,
      "Ġ57": 474,
      "ss": 475,
      "85": 476,
      "Ġv": 477,
      "starboard": 478,
      "Ġ12": 479,
      "Ġ75": 480,
      "Ġ95": 481,
      "Ġ85": 482,
      "82": 483,
      "Ġ77": 484,
      "63": 485,
      "Ġ67": 486,
      "Ġ97": 487,
      "61": 488,
      "64": 489,
      "83": 490,
      "97": 491,
      "81": 492,
      "62": 493,
      "us": 494,
      "Ġ94": 495,
      "94": 496,
      "Ġ74": 497,
      "Ġ54": 498,
      "93": 499,
      "et": 500,
      "Ġj": 501,
      "Ġex": 502,
      "95": 503,
      "Ġ84": 504,
      "Ġ64": 505,
      "92": 506,
      "91": 507,
      "as": 508,
      "Ġ53": 509,
      "Ġ93": 510,
      "Ġdi": 511,
      "Ġ91": 512,
      "Ġ52": 513,
      "Ġ61": 514,
      "ge": 515,
      "Ġ71": 516,
      "Ġ82": 517,
      "Ġ92": 518,
      "Ġ83": 519,
      "Ġ63": 520,
      "Ġ51": 521,
      "Ġ73": 522,
      "Ġ62": 523,
      "Ġ81": 524,
      "im": 525,
      "ion": 526,
      "ted": 527,
      "ch": 528,
      "Ġ72": 529,
      "am": 530,
      "el": 531,
      "Ġco": 532,
      "ut": 533,
      "Ġk": 534,
      "Ġch": 535,
      "Ġsu": 536,
      "la": 537,
      "ci": 538,
      "ab": 539,
      "ure": 540,
      "Ġse": 541,
      "08": 542,
      "Ġcom": 543,
      "ir": 544,
      "Ġ478": 545,
      "um": 546,
      "Ġen": 547,
      "lo": 548,
      "li": 549,
      "Ġ420": 550,
      "Ġ270": 551,
      "09": 552,
      "05": 553,
      "Ġ460": 554,
      "Ġ158": 555,
      "07": 556,
      "Ġle": 557,
      "Ġ137": 558,
      "Ġ160": 559,
      "Ġ258": 560,
      "04": 561,
      "06": 562,
      "Ġ129": 563,
      "Ġ138": 564,
      "pp": 565,
      "Ġ234": 566,
      "Ġte": 567,
      "Ġ216": 568,
      "ers": 569,
      "Ġ350": 570,
      "Ġ190": 571,
      "Ġ100": 572,
      "Ġ425": 573,
      "Ġ435": 574,
      "Ġ110": 575,
      "Ġ250": 576,
      "Ġ227": 577,
      "Ġ280": 578,
      "Ġ434": 579,
      "Ġ329": 580,
      "Ġ314": 581,
      "Ġ145": 582,
      "Ġ148": 583,
      "Ġ176": 584,
      "Ġ236": 585,
      "Ġ150": 586,
      "Ġ299": 587,
      "Ġ400": 588,
      "Ġ126": 589,
      "Ġ146": 590,
      "Ġ178": 591,
      "Ġ229": 592,
      "Ġ330": 593,
      "Ġ140": 594,
      "Ġ259": 595,
      "Ġ490": 596,
      "ity": 597,
      "Ġ139": 598,
      "Ġ260": 599,
      "Ġ319": 600,
      "Ġ390": 601,
      "Ġ358": 602,
      "Ġ180": 603,
      "Ġ125": 604,
      "Ġ345": 605,
      "Ġ120": 606,
      "Ġ440": 607,
      "Ġma": 608,
      "Ġ437": 609,
      "Ġ327": 610,
      "Ġ130": 611,
      "Ġ119": 612,
      "Ġ210": 613,
      "Ġ470": 614,
      "Ġ340": 615,
      "Ġ290": 616,
      "Ġ247": 617,
      "Ġ279": 618,
      "Ġ426": 619,
      "Ġ419": 620,
      "Ġ370": 621,
      "Ġ300": 622,
      "Ġ147": 623,
      "Ġ218": 624,
      "Ġ356": 625,
      "Ġ430": 626,
      "Ġ320": 627,
      "Ġ318": 628,
      "Ġ124": 629,
      "Ġ424": 630,
      "Ġ447": 631,
      "Ġ479": 632,
      "Ġ337": 633,
      "Ġ170": 634,
      "Ġ135": 635,
      "Ġ136": 636,
      "Ġ217": 637,
      "Ġ429": 638,
      "Ġ439": 639,
      "Ġ128": 640,
      "Ġ347": 641,
      "Ġ378": 642,
      "os": 643,
      "Ġ415": 644,
      "Ġ499": 645,
      "Ġ310": 646,
      "Ġ225": 647,
      "Ġ456": 648,
      "Ġ237": 649,
      "Ġ245": 650,
      "Ġ480": 651,
      "Ġ427": 652,
      "Ġ359": 653,
      "Ġ289": 654,
      "Ġ436": 655,
      "Ġ445": 656,
      "Ġ316": 657,
      "Ġ376": 658,
      "Ġ156": 659,
      "Ġ219": 660,
      "Ġ239": 661,
      "Ġ224": 662,
      "Ġ248": 663,
      "Ġ114": 664,
      "Ġ118": 665,
      "Ġ360": 666,
      "Ġ240": 667,
      "Ġ458": 668,
      "Ġ380": 669,
      "Ġ339": 670,
      "Ġ399": 671,
      "Ġ209": 672,
      "Ġ450": 673,
      "Ġ326": 674,
      "01": 675,
      "Ġ238": 676,
      "Ġ438": 677,
      "Ġ428": 678,
      "Ġ317": 679,
      "Ġ328": 680,
      "Ġ228": 681,
      "Ġ459": 682,
      "Ġ230": 683,
      "Ġ214": 684,
      "Ġ215": 685,
      "Ġ117": 686,
      "Ġ149": 687,
      "Ġ220": 688,
      "Ġ410": 689,
      "Ġ476": 690,
      "Ġ348": 691,
      "Ġ235": 692,
      "og": 693,
      "Ġ134": 694,
      "Ġ334": 695,
      "der": 696,
      "Ġ468": 697,
      "Ġ200": 698,
      "Ġ226": 699,
      "Ġ256": 700,
      "Ġ324": 701,
      "Ġ127": 702,
      "Ġ417": 703,
      "Ġ455": 704,
      "Ġ315": 705,
      "Ġ179": 706,
      "Ġ277": 707,
      "Ġ414": 708,
      "Ġ346": 709,
      "Ġ369": 710,
      "id": 711,
      "ant": 712,
      "Ġme": 713,
      "Ġ278": 714,
      "Ġ446": 715,
      "Ġ325": 716,
      "Ġ349": 717,
      "ine": 718,
      "Ġ116": 719,
      "Ġ199": 720,
      "Ġ379": 721,
      "Ġ175": 722,
      "Ġ246": 723,
      "Ġ449": 724,
      "Ġ448": 725,
      "Ġ336": 726,
      "ou": 727,
      "Ġ106": 728,
      "Ġ189": 729,
      "Ġ335": 730,
      "02": 731,
      "Ġ288": 732,
      "Ġ475": 733,
      "Ġ115": 734,
      "ay": 735,
      "Ġsh": 736,
      "Ġth": 737,
      "Ġ418": 738,
      "Ġ474": 739,
      "Ġ268": 740,
      "03": 741,
      "Ġ276": 742,
      "Ġ409": 743,
      "Ġ159": 744,
      "Ġ266": 745,
      "Ġ386": 746,
      "Ġ398": 747,
      "Ġ296": 748,
      "Ġ375": 749,
      "les": 750,
      "Ġ338": 751,
      "Ġ166": 752,
      "ations": 753,
      "Ġ196": 754,
      "Ġ177": 755,
      "Ġ275": 756,
      "Ġ186": 757,
      "Ġ489": 758,
      "Ġ366": 759,
      "Ġ155": 760,
      "Ġ416": 761,
      "pe": 762,
      "Ġpre": 763,
      "tive": 764,
      "Ġ249": 765,
      "Ġ469": 766,
      "Ġ306": 767,
      "Ġ181": 768,
      "Ġ157": 769,
      "Ġ168": 770,
      "Ġ165": 771,
      "Ġ496": 772,
      "Ġar": 773,
      "Ġtr": 774,
      "Ġ385": 775,
      "Ġ365": 776,
      "Ġ498": 777,
      "Ġ169": 778,
      "Ġ269": 779,
      "Ġ406": 780,
      "Ġ272": 781,
      "Ġ467": 782,
      "Ġ307": 783,
      "Ġ388": 784,
      "Ġ408": 785,
      "Ġ255": 786,
      "Ġ352": 787,
      "Ġ253": 788,
      "Ġ357": 789,
      "Ġ287": 790,
      "Ġ304": 791,
      "Ġ377": 792,
      "Ġ298": 793,
      "Ġ477": 794,
      "Ġ451": 795,
      "Ġ465": 796,
      "Ġ262": 797,
      "Ġ208": 798,
      "Ġ485": 799,
      "Ġ396": 800,
      "Ġ194": 801,
      "Ġ254": 802,
      "Ġ464": 803,
      "Ġ466": 804,
      "Ġ305": 805,
      "ist": 806,
      "Ġ113": 807,
      "Ġ174": 808,
      "Ġ374": 809,
      "Ġ295": 810,
      "Ġ121": 811,
      "Ġ423": 812,
      "Ġ483": 813,
      "Ġ471": 814,
      "Ġ309": 815,
      "Ġ395": 816,
      "Ġ192": 817,
      "Ġ221": 818,
      "Ġ244": 819,
      "Ġ355": 820,
      "Ġ161": 821,
      "Ġ405": 822,
      "Ġ206": 823,
      "Ġ484": 824,
      "Ġ195": 825,
      "ds": 826,
      "sc": 827,
      "Ġun": 828,
      "Ġal": 829,
      "Ġ223": 830,
      "Ġ413": 831,
      "tic": 832,
      "Ġ421": 833,
      "Ġ185": 834,
      "Ġ494": 835,
      "Ġ264": 836,
      "Ġ387": 837,
      "Ġ133": 838,
      "Ġ461": 839,
      "Ġ333": 840,
      "Ġ313": 841,
      "Ġ308": 842,
      "Ġ108": 843,
      "Ġhe": 844,
      "Ġac": 845,
      "Ġ222": 846,
      "Ġ442": 847,
      "Ġ302": 848,
      "Ġ363": 849,
      "Ġ107": 850,
      "Ġ486": 851,
      "Ġ397": 852,
      "Ġ495": 853,
      "Ġ122": 854,
      "Ġ141": 855,
      "Ġ372": 856,
      "Ġ172": 857,
      "Ġ242": 858,
      "Ġ311": 859,
      "Ġ202": 860,
      "Ġ111": 861,
      "Ġ143": 862,
      "Ġ211": 863,
      "Ġ274": 864,
      "Ġ404": 865,
      "Ġ153": 866,
      "Ġ433": 867,
      "Ġ454": 868,
      "Ġ351": 869,
      "Ġ105": 870,
      "Ġ182": 871,
      "Ġ487": 872,
      "Ġ392": 873,
      "Ġ198": 874,
      "ia": 875,
      "Ġ171": 876,
      "Ġ411": 877,
      "Ġ432": 878,
      "Ġ453": 879,
      "Ġbe": 880,
      "Ġ164": 881,
      "Ġ286": 882,
      "Ġ104": 883,
      "Ġ293": 884,
      "Ġ285": 885,
      "Ġ368": 886,
      "Ġ101": 887,
      "Ġ497": 888,
      "Ġ154": 889,
      "Ġ457": 890,
      "Ġ109": 891,
      "Ġ207": 892,
      "Ġ184": 893,
      "Ġ391": 894,
      "Ġ243": 895,
      "Ġ462": 896,
      "Ġ265": 897,
      "Ġ362": 898,
      "Ġ297": 899,
      "Ġ257": 900,
      "Ġ341": 901,
      "Ġ373": 902,
      "Ġ463": 903,
      "ie": 904,
      "ors": 905,
      "Ġ197": 906,
      "Ġne": 907,
      "Ġ152": 908,
      "Ġ452": 909,
      "Ġ343": 910,
      "Ġ167": 911,
      "Ġ367": 912,
      "Ġ444": 913,
      "Ġ123": 914,
      "Ġ412": 915,
      "Ġ389": 916,
      "Ġ103": 917,
      "Ġ488": 918,
      "Ġ371": 919,
      "Ġ281": 920,
      "ain": 921,
      "Ġ231": 922,
      "Ġ323": 923,
      "Ġ364": 924,
      "Ġ203": 925,
      "Ġ251": 926,
      "Ġ205": 927,
      "Ġ193": 928,
      "Ġ263": 929,
      "Ġ188": 930,
      "Ġ383": 931,
      "Ġ402": 932,
      "Ġ204": 933,
      "Ġ492": 934,
      "ts": 935,
      "ans": 936,
      "Ġ132": 937,
      "Ġ241": 938,
      "Ġ342": 939,
      "Ġ162": 940,
      "Ġ291": 941,
      "Ġ294": 942,
      "Ġcomp": 943,
      "Ġ443": 944,
      "Ġ401": 945,
      "Ġ144": 946,
      "Ġ422": 947,
      "Ġ322": 948,
      "Ġ284": 949,
      "Ġ394": 950,
      "Ġ472": 951,
      "Ġ353": 952,
      "Ġ382": 953,
      "Ġ271": 954,
      "Ġ331": 955,
      "Ġ283": 956,
      "ac": 957,
      "ary": 958,
      "Ġ233": 959,
      "Ġ321": 960,
      "Ġ384": 961,
      "Ġ407": 962,
      "Ġ173": 963,
      "Ġ273": 964,
      "Ġ187": 965,
      "Ġ131": 966,
      "Ġ282": 967,
      "Ġ303": 968,
      "Ġ142": 969,
      "Ġ332": 970,
      "Ġ361": 971,
      "Ġ393": 972,
      "Ġ212": 973,
      "Ġpo": 974,
      "Ġ473": 975,
      "Ġ354": 976,
      "Ġli": 977,
      "Ġ163": 978,
      "Ġ301": 979,
      "Ġ491": 980,
      "Ġ252": 981,
      "Ġ381": 982,
      "Ġ403": 983,
      "Ġ481": 984,
      "Ġ261": 985,
      "ag": 986,
      "ke": 987,
      "mp": 988,
      "ry": 989,
      "Ġ232": 990,
      "Ġ213": 991,
      "Ġ201": 992,
      "Ġ102": 993,
      "Ġ112": 994,
      "Ġ151": 995,
      "Ġ431": 996,
      "Ġ344": 997,
      "Ġ312": 998,
      "Ġ267": 999,
      "ap": 1000,
      "Ġpar": 1001,
      "her": 1002,
      "Ġ191": 1003,
      "Ġ441": 1004,
      "Ġ493": 1005,
      "Ġ292": 1006,
      "du": 1007,
      "Ġsc": 1008,
      "Ġ482": 1009,
      "Ġ183": 1010,
      "Ġlo": 1011,
      "Ġexp": 1012,
      "up": 1013,
      "Ġy": 1014,
      "ated": 1015,
      "ff": 1016,
      "Ġim": 1017,
      "Ġso": 1018,
      "age": 1019,
      "ll": 1020,
      "ok": 1021,
      "ub": 1022,
      "ug": 1023,
      "Ġmar": 1024,
      "ally": 1025,
      "Ġapp": 1026,
      "Ġbo": 1027,
      "sp": 1028,
      "iz": 1029,
      "ies": 1030,
      "ne": 1031,
      "ses": 1032,
      "ings": 1033,
      "ns": 1034,
      "Ġor": 1035,
      "Ġtra": 1036,
      "sed": 1037,
      "est": 1038,
      "ru": 1039,
      "Ġop": 1040,
      "ces": 1041,
      "ments": 1042,
      "ent": 1043,
      "ps": 1044,
      "Ġpr": 1045,
      "Ġrep": 1046,
      "als": 1047,
      "ions": 1048,
      "able": 1049,
      "Ġph": 1050,
      "Ġper": 1051,
      "ties": 1052,
      "und": 1053,
      "ous": 1054,
      "ust": 1055,
      "iss": 1056,
      "rib": 1057,
      "Ġspe": 1058,
      "ak": 1059,
      "fic": 1060,
      "ib": 1061,
      "vi": 1062,
      "ven": 1063,
      "ser": 1064,
      "ral": 1065,
      "Ġwe": 1066,
      "ian": 1067,
      "sh": 1068,
      "ty": 1069,
      "Ġsa": 1070,
      "Ġfe": 1071,
      "Ġsub": 1072,
      "ding": 1073,
      "ire": 1074,
      "lic": 1075,
      "Ġwor": 1076,
      "164": 1077,
      "pt": 1078,
      "ten": 1079,
      "are": 1080,
      "Ġla": 1081,
      "Ġno": 1082,
      "273": 1083,
      "606": 1084,
      "fi": 1085,
      "oc": 1086,
      "od": 1087,
      "ome": 1088,
      "ys": 1089,
      "tes": 1090,
      "Ġpl": 1091,
      "ign": 1092,
      "Ġrec": 1093,
      "Ġinter": 1094,
      "ens": 1095,
      "252": 1096,
      "106": 1097,
      "344": 1098,
      "172": 1099,
      "241": 1100,
      "903": 1101,
      "501": 1102,
      "359": 1103,
      "152": 1104,
      "cl": 1105,
      "ks": 1106,
      "ma": 1107,
      "ting": 1108,
      "Ġche": 1109,
      "Ġcomm": 1110,
      "one": 1111,
      "ons": 1112,
      "rap": 1113,
      "Ġres": 1114,
      "808": 1115,
      "505": 1116,
      "Ġgu": 1117,
      "264": 1118,
      "175": 1119,
      "146": 1120,
      "165": 1121,
      "391": 1122,
      "158": 1123,
      "213": 1124,
      "ill": 1125,
      "Ġjo": 1126,
      "901": 1127,
      "907": 1128,
      "707": 1129,
      "178": 1130,
      "357": 1131,
      "144": 1132,
      "388": 1133,
      "276": 1134,
      "283": 1135,
      "367": 1136,
      "503": 1137,
      "309": 1138,
      "201": 1139,
      "294": 1140,
      "192": 1141,
      "376": 1142,
      "253": 1143,
      "353": 1144,
      "389": 1145,
      "151": 1146,
      "185": 1147,
      "409": 1148,
      "301": 1149,
      "103": 1150,
      "292": 1151,
      "296": 1152,
      "191": 1153,
      "374": 1154,
      "261": 1155,
      "258": 1156,
      "173": 1157,
      "354": 1158,
      "147": 1159,
      "149": 1160,
      "386": 1161,
      "167": 1162,
      "399": 1163,
      "157": 1164,
      "211": 1165,
      "906": 1166,
      "702": 1167,
      "801": 1168,
      "803": 1169,
      "809": 1170,
      "506": 1171,
      "508": 1172,
      "107": 1173,
      "109": 1174,
      "297": 1175,
      "197": 1176,
      "142": 1177,
      "148": 1178,
      "384": 1179,
      "162": 1180,
      "168": 1181,
      "274": 1182,
      "396": 1183,
      "288": 1184,
      "ber": 1185,
      "che": 1186,
      "fer": 1187,
      "ile": 1188,
      "land": 1189,
      "ms": 1190,
      "Ġhi": 1191,
      "Ġcor": 1192,
      "Ġsur": 1193,
      "Ġas": 1194,
      "ves": 1195,
      "Ġbu": 1196,
      "900": 1197,
      "604": 1198,
      "302": 1199,
      "303": 1200,
      "108": 1201,
      "Ġgen": 1202,
      "ric": 1203,
      "291": 1204,
      "194": 1205,
      "196": 1206,
      "198": 1207,
      "199": 1208,
      "345": 1209,
      "171": 1210,
      "174": 1211,
      "381": 1212,
      "289": 1213,
      "153": 1214,
      "155": 1215,
      "362": 1216,
      "ess": 1217,
      "Ġchar": 1218,
      "603": 1219,
      "807": 1220,
      "402": 1221,
      "406": 1222,
      "259": 1223,
      "382": 1224,
      "387": 1225,
      "287": 1226,
      "182": 1227,
      "703": 1228,
      "400": 1229,
      "404": 1230,
      "408": 1231,
      "300": 1232,
      "306": 1233,
      "204": 1234,
      "208": 1235,
      "209": 1236,
      "102": 1237,
      "195": 1238,
      "372": 1239,
      "379": 1240,
      "342": 1241,
      "346": 1242,
      "176": 1243,
      "141": 1244,
      "143": 1245,
      "166": 1246,
      "395": 1247,
      "281": 1248,
      "154": 1249,
      "159": 1250,
      "188": 1251,
      "361": 1252,
      "904": 1253,
      "203": 1254,
      "101": 1255,
      "105": 1256,
      "298": 1257,
      "193": 1258,
      "343": 1259,
      "398": 1260,
      "282": 1261,
      "186": 1262,
      "364": 1263,
      "365": 1264,
      "246": 1265,
      "248": 1266,
      "700": 1267,
      "806": 1268,
      "500": 1269,
      "371": 1270,
      "268": 1271,
      "351": 1272,
      "356": 1273,
      "358": 1274,
      "385": 1275,
      "272": 1276,
      "279": 1277,
      "156": 1278,
      "242": 1279,
      "243": 1280,
      "Ġu": 1281,
      "Ġcol": 1282,
      "Ġass": 1283,
      "Ġmin": 1284,
      "608": 1285,
      "704": 1286,
      "706": 1287,
      "502": 1288,
      "507": 1289,
      "304": 1290,
      "100": 1291,
      "293": 1292,
      "299": 1293,
      "341": 1294,
      "257": 1295,
      "179": 1296,
      "277": 1297,
      "393": 1298,
      "284": 1299,
      "184": 1300,
      "708": 1301,
      "709": 1302,
      "805": 1303,
      "504": 1304,
      "509": 1305,
      "403": 1306,
      "373": 1307,
      "378": 1308,
      "265": 1309,
      "266": 1310,
      "269": 1311,
      "145": 1312,
      "392": 1313,
      "183": 1314,
      "189": 1315,
      "363": 1316,
      "905": 1317,
      "908": 1318,
      "909": 1319,
      "609": 1320,
      "701": 1321,
      "705": 1322,
      "206": 1323,
      "104": 1324,
      "347": 1325,
      "349": 1326,
      "383": 1327,
      "161": 1328,
      "163": 1329,
      "271": 1330,
      "366": 1331,
      "244": 1332,
      "247": 1333,
      "601": 1334,
      "605": 1335,
      "401": 1336,
      "405": 1337,
      "202": 1338,
      "207": 1339,
      "262": 1340,
      "348": 1341,
      "254": 1342,
      "255": 1343,
      "355": 1344,
      "169": 1345,
      "278": 1346,
      "407": 1347,
      "267": 1348,
      "256": 1349,
      "177": 1350,
      "286": 1351,
      "245": 1352,
      "212": 1353,
      "222": 1354,
      "ast": 1355,
      "min": 1356,
      "na": 1357,
      "tor": 1358,
      "ue": 1359,
      "Ġcl": 1360,
      "mer": 1361,
      "Ġfl": 1362,
      "Ġbro": 1363,
      "Ġreg": 1364,
      "Ġinst": 1365,
      "800": 1366,
      "305": 1367,
      "205": 1368,
      "vers": 1369,
      "295": 1370,
      "375": 1371,
      "377": 1372,
      "263": 1373,
      "251": 1374,
      "394": 1375,
      "397": 1376,
      "368": 1377,
      "Ġtrans": 1378,
      "Ġimp": 1379,
      "602": 1380,
      "804": 1381,
      "307": 1382,
      "200": 1383,
      "352": 1384,
      "275": 1385,
      "285": 1386,
      "369": 1387,
      "332": 1388,
      "802": 1389,
      "187": 1390,
      "249": 1391,
      "223": 1392,
      "902": 1393,
      "308": 1394,
      "600": 1395,
      "607": 1396,
      "181": 1397,
      "cy": 1398,
      "ec": 1399,
      "ved": 1400,
      "vel": 1401,
      "int": 1402,
      "Ġbr": 1403,
      "ress": 1404,
      "Ġ545": 1405,
      "Ġ547": 1406,
      "Ġ546": 1407,
      "Ġ548": 1408,
      "Ġ599": 1409,
      "Ġ556": 1410,
      "Ġ578": 1411,
      "Ġ558": 1412,
      "Ġ576": 1413,
      "Ġ566": 1414,
      "Ġ588": 1415,
      "Ġ645": 1416,
      "Ġ647": 1417,
      "Ġ646": 1418,
      "Ġ648": 1419,
      "Ġ699": 1420,
      "Ġ656": 1421,
      "Ġ678": 1422,
      "Ġ658": 1423,
      "Ġ676": 1424,
      "Ġ666": 1425,
      "Ġ688": 1426,
      "Ġ945": 1427,
      "Ġ947": 1428,
      "Ġ946": 1429,
      "Ġ948": 1430,
      "Ġ999": 1431,
      "Ġ956": 1432,
      "Ġ978": 1433,
      "Ġ958": 1434,
      "Ġ976": 1435,
      "Ġ966": 1436,
      "Ġ988": 1437,
      "Ġ745": 1438,
      "Ġ747": 1439,
      "Ġ746": 1440,
      "Ġ748": 1441,
      "Ġ799": 1442,
      "Ġ756": 1443,
      "Ġ778": 1444,
      "Ġ758": 1445,
      "Ġ776": 1446,
      "Ġ766": 1447,
      "Ġ788": 1448,
      "Ġ845": 1449,
      "Ġ847": 1450,
      "Ġ846": 1451,
      "Ġ848": 1452,
      "Ġ899": 1453,
      "Ġ856": 1454,
      "Ġ878": 1455,
      "Ġ858": 1456,
      "Ġ876": 1457,
      "Ġ866": 1458,
      "Ġ888": 1459,
      "ish": 1460,
      "ult": 1461,
      "333": 1462,
      "Ġdisc": 1463,
      "112": 1464,
      "231": 1465,
      "Ġi": 1466,
      "Ġz": 1467,
      "ore": 1468,
      "Ġfin": 1469,
      "red": 1470,
      "ctions": 1471,
      "111": 1472,
      "ence": 1473,
      "ical": 1474,
      "olog": 1475,
      "ctor": 1476,
      "131": 1477,
      "Ġ500": 1478,
      "Ġ590": 1479,
      "Ġ560": 1480,
      "Ġ570": 1481,
      "Ġ580": 1482,
      "Ġ550": 1483,
      "Ġ540": 1484,
      "Ġ530": 1485,
      "Ġ520": 1486,
      "Ġ510": 1487,
      "Ġ690": 1488,
      "Ġ660": 1489,
      "Ġ670": 1490,
      "Ġ680": 1491,
      "Ġ650": 1492,
      "Ġ640": 1493,
      "Ġ630": 1494,
      "Ġ620": 1495,
      "Ġ610": 1496,
      "Ġ990": 1497,
      "Ġ960": 1498,
      "Ġ970": 1499,
      "Ġ980": 1500,
      "Ġ950": 1501,
      "Ġ940": 1502,
      "Ġ930": 1503,
      "Ġ920": 1504,
      "Ġ910": 1505,
      "Ġ790": 1506,
      "Ġ760": 1507,
      "Ġ770": 1508,
      "Ġ780": 1509,
      "Ġ750": 1510,
      "Ġ740": 1511,
      "Ġ730": 1512,
      "Ġ720": 1513,
      "Ġ710": 1514,
      "Ġ890": 1515,
      "Ġ860": 1516,
      "Ġ870": 1517,
      "Ġ880": 1518,
      "Ġ850": 1519,
      "Ġ840": 1520,
      "Ġ830": 1521,
      "Ġ820": 1522,
      "Ġ810": 1523,
      "331": 1524,
      "232": 1525,
      "ale": 1526,
      "ition": 1527,
      "nce": 1528,
      "Ġve": 1529,
      "Ġab": 1530,
      "Ġpe": 1531,
      "Ġpla": 1532,
      "Ġmon": 1533,
      "Ġfo": 1534,
      "Ġbl": 1535,
      "dic": 1536,
      "ded": 1537,
      "Ġob": 1538,
      "ility": 1539,
      "cts": 1540,
      "ures": 1541,
      "Ġacc": 1542,
      "Ġ549": 1543,
      "Ġ559": 1544,
      "Ġ579": 1545,
      "Ġ589": 1546,
      "Ġ586": 1547,
      "Ġ569": 1548,
      "Ġ649": 1549,
      "Ġ659": 1550,
      "Ġ679": 1551,
      "Ġ689": 1552,
      "Ġ686": 1553,
      "Ġ669": 1554,
      "Ġ949": 1555,
      "Ġ959": 1556,
      "Ġ979": 1557,
      "Ġ989": 1558,
      "Ġ986": 1559,
      "Ġ969": 1560,
      "Ġ749": 1561,
      "Ġ759": 1562,
      "Ġ779": 1563,
      "Ġ789": 1564,
      "Ġ786": 1565,
      "Ġ769": 1566,
      "Ġ849": 1567,
      "Ġ859": 1568,
      "Ġ879": 1569,
      "Ġ889": 1570,
      "Ġ886": 1571,
      "Ġ869": 1572,
      "113": 1573,
      "ive": 1574,
      "per": 1575,
      "ran": 1576,
      "ual": 1577,
      "Ġag": 1578,
      "ong": 1579,
      "nts": 1580,
      "ates": 1581,
      "Ġha": 1582,
      "Ġho": 1583,
      "132": 1584,
      "Ġele": 1585,
      "its": 1586,
      "Ġ529": 1587,
      "Ġ519": 1588,
      "Ġ537": 1589,
      "Ġ526": 1590,
      "Ġ534": 1591,
      "Ġ525": 1592,
      "Ġ517": 1593,
      "Ġ535": 1594,
      "Ġ514": 1595,
      "Ġ538": 1596,
      "Ġ516": 1597,
      "Ġ527": 1598,
      "Ġ539": 1599,
      "Ġ528": 1600,
      "Ġ515": 1601,
      "Ġ518": 1602,
      "Ġ536": 1603,
      "Ġ524": 1604,
      "Ġ629": 1605,
      "Ġ619": 1606,
      "Ġ637": 1607,
      "Ġ626": 1608,
      "Ġ634": 1609,
      "Ġ625": 1610,
      "Ġ617": 1611,
      "Ġ635": 1612,
      "Ġ614": 1613,
      "Ġ638": 1614,
      "Ġ616": 1615,
      "Ġ627": 1616,
      "Ġ639": 1617,
      "Ġ628": 1618,
      "Ġ615": 1619,
      "Ġ618": 1620,
      "Ġ636": 1621,
      "Ġ624": 1622,
      "Ġ929": 1623,
      "Ġ919": 1624,
      "Ġ937": 1625,
      "Ġ926": 1626,
      "Ġ934": 1627,
      "Ġ925": 1628,
      "Ġ917": 1629,
      "Ġ935": 1630,
      "Ġ914": 1631,
      "Ġ938": 1632,
      "Ġ916": 1633,
      "Ġ927": 1634,
      "Ġ939": 1635,
      "Ġ928": 1636,
      "Ġ915": 1637,
      "Ġ918": 1638,
      "Ġ936": 1639,
      "Ġ924": 1640,
      "Ġ729": 1641,
      "Ġ719": 1642,
      "Ġ737": 1643,
      "Ġ726": 1644,
      "Ġ734": 1645,
      "Ġ725": 1646,
      "Ġ717": 1647,
      "Ġ735": 1648,
      "Ġ714": 1649,
      "Ġ738": 1650,
      "Ġ716": 1651,
      "Ġ727": 1652,
      "Ġ739": 1653,
      "Ġ728": 1654,
      "Ġ715": 1655,
      "Ġ718": 1656,
      "Ġ736": 1657,
      "Ġ724": 1658,
      "Ġ829": 1659,
      "Ġ819": 1660,
      "Ġ837": 1661,
      "Ġ826": 1662,
      "Ġ834": 1663,
      "Ġ825": 1664,
      "Ġ817": 1665,
      "Ġ835": 1666,
      "Ġ814": 1667,
      "Ġ838": 1668,
      "Ġ816": 1669,
      "Ġ827": 1670,
      "Ġ839": 1671,
      "Ġ828": 1672,
      "Ġ815": 1673,
      "Ġ818": 1674,
      "Ġ836": 1675,
      "Ġ824": 1676,
      "Ġ600": 1677,
      "Ġ900": 1678,
      "Ġ700": 1679,
      "Ġ800": 1680,
      "dy": 1681,
      "io": 1682,
      "king": 1683,
      "ls": 1684,
      "val": 1685,
      "vis": 1686,
      "Ġsy": 1687,
      "led": 1688,
      "ars": 1689,
      "ang": 1690,
      "ins": 1691,
      "Ġinte": 1692,
      "Ġconf": 1693,
      "ating": 1694,
      "ets": 1695,
      "Ġdis": 1696,
      "Ġspeci": 1697,
      "489": 1698,
      "475": 1699,
      "ach": 1700,
      "fe": 1701,
      "ld": 1702,
      "rs": 1703,
      "ton": 1704,
      "ute": 1705,
      "ving": 1706,
      "Ġpri": 1707,
      "ines": 1708,
      "ord": 1709,
      "men": 1710,
      "Ġbel": 1711,
      "Ġref": 1712,
      "Ġinc": 1713,
      "Ġhar": 1714,
      "Ġdes": 1715,
      "ics": 1716,
      "cip": 1717,
      "iew": 1718,
      "452": 1719,
      "487": 1720,
      "495": 1721,
      "455": 1722,
      "471": 1723,
      "Ġ596": 1724,
      "Ġ696": 1725,
      "Ġ996": 1726,
      "Ġ796": 1727,
      "Ġ896": 1728,
      "498": 1729,
      "441": 1730,
      "ble": 1731,
      "ip": 1732,
      "ite": 1733,
      "ities": 1734,
      "ling": 1735,
      "no": 1736,
      "ning": 1737,
      "ption": 1738,
      "Ġter": 1739,
      "Ġau": 1740,
      "ade": 1741,
      "ory": 1742,
      "Ġout": 1743,
      "453": 1744,
      "457": 1745,
      "464": 1746,
      "465": 1747,
      "481": 1748,
      "Ġnew": 1749,
      "Ġgene": 1750,
      "Ġ568": 1751,
      "Ġ598": 1752,
      "Ġ668": 1753,
      "Ġ698": 1754,
      "Ġ968": 1755,
      "Ġ998": 1756,
      "Ġ768": 1757,
      "Ġ798": 1758,
      "Ġ868": 1759,
      "Ġ898": 1760,
      "459": 1761,
      "477": 1762,
      "467": 1763,
      "488": 1764,
      "Ġ575": 1765,
      "Ġ555": 1766,
      "Ġ675": 1767,
      "Ġ655": 1768,
      "Ġ975": 1769,
      "Ġ955": 1770,
      "Ġ775": 1771,
      "Ġ755": 1772,
      "Ġ875": 1773,
      "Ġ855": 1774,
      "473": 1775,
      "484": 1776,
      "491": 1777,
      "451": 1778,
      "466": 1779,
      "468": 1780,
      "482": 1781,
      "486": 1782,
      "462": 1783,
      "493": 1784,
      "494": 1785,
      "442": 1786,
      "443": 1787,
      "ath": 1788,
      "ail": 1789,
      "cc": 1790,
      "cted": 1791,
      "gan": 1792,
      "ho": 1793,
      "ial": 1794,
      "low": 1795,
      "mar": 1796,
      "nti": 1797,
      "Ġed": 1798,
      "Ġis": 1799,
      "Ġup": 1800,
      "Ġclo": 1801,
      "Ġsk": 1802,
      "Ġser": 1803,
      "Ġmi": 1804,
      "Ġmat": 1805,
      "vest": 1806,
      "hed": 1807,
      "rate": 1808,
      "mes": 1809,
      "Ġfi": 1810,
      "Ġfre": 1811,
      "row": 1812,
      "Ġge": 1813,
      "Ġgre": 1814,
      "hip": 1815,
      "Ġhol": 1816,
      "472": 1817,
      "479": 1818,
      "485": 1819,
      "497": 1820,
      "Ġdo": 1821,
      "Ġcolle": 1822,
      "Ġprom": 1823,
      "ology": 1824,
      "456": 1825,
      "483": 1826,
      "997": 1827,
      "492": 1828,
      "454": 1829,
      "476": 1830,
      "463": 1831,
      "474": 1832,
      "478": 1833,
      "461": 1834,
      "469": 1835,
      "993": 1836,
      "568": 1837,
      "496": 1838,
      "564": 1839,
      "Ġ609": 1840,
      "Ġ909": 1841,
      "Ġ709": 1842,
      "Ġ509": 1843,
      "Ġ809": 1844,
      "ai": 1845,
      "ative": 1846,
      "ctive": 1847,
      "fa": 1848,
      "gh": 1849,
      "man": 1850,
      "Ġdist": 1851,
      "Ġcla": 1852,
      "Ġsen": 1853,
      "Ġsol": 1854,
      "Ġacce": 1855,
      "ari": 1856,
      "ced": 1857,
      "Ġpol": 1858,
      "Ġtri": 1859,
      "Ġinf": 1860,
      "Ġ577": 1861,
      "Ġ677": 1862,
      "Ġ977": 1863,
      "Ġ777": 1864,
      "Ġ877": 1865,
      "996": 1866,
      "587": 1867,
      "Ġdem": 1868,
      "Ġwar": 1869,
      "amp": 1870,
      "ograp": 1871,
      "ugh": 1872,
      "458": 1873,
      "994": 1874,
      "998": 1875,
      "786": 1876,
      "444": 1877,
      "Ġ606": 1878,
      "Ġ906": 1879,
      "Ġ706": 1880,
      "Ġ506": 1881,
      "Ġ806": 1882,
      "992": 1883,
      "999": 1884,
      "569": 1885,
      "798": 1886,
      "565": 1887,
      "785": 1888,
      "787": 1889,
      "598": 1890,
      "797": 1891,
      "Ġ608": 1892,
      "Ġ908": 1893,
      "Ġ708": 1894,
      "Ġ508": 1895,
      "Ġ808": 1896,
      "995": 1897,
      "592": 1898,
      "594": 1899,
      "596": 1900,
      "791": 1901,
      "av": 1902,
      "ges": 1903,
      "ice": 1904,
      "iti": 1905,
      "mb": 1906,
      "ni": 1907,
      "ph": 1908,
      "unt": 1909,
      "Ġus": 1910,
      "Ġcre": 1911,
      "Ġsim": 1912,
      "Ġpen": 1913,
      "Ġpub": 1914,
      "Ġtre": 1915,
      "sent": 1916,
      "Ġstu": 1917,
      "Ġbar": 1918,
      "Ġbre": 1919,
      "alle": 1920,
      "res": 1921,
      "Ġins": 1922,
      "ope": 1923,
      "ners": 1924,
      "Ġatt": 1925,
      "Ġgra": 1926,
      "urs": 1927,
      "Ġocc": 1928,
      "561": 1929,
      "566": 1930,
      "582": 1931,
      "761": 1932,
      "763": 1933,
      "768": 1934,
      "769": 1935,
      "591": 1936,
      "form": 1937,
      "752": 1938,
      "Ġdec": 1939,
      "Ġdef": 1940,
      "Ġdra": 1941,
      "Ġke": 1942,
      "Ġsec": 1943,
      "ders": 1944,
      "Ġorgan": 1945,
      "Ġweb": 1946,
      "784": 1947,
      "585": 1948,
      "588": 1949,
      "595": 1950,
      "792": 1951,
      "793": 1952,
      "794": 1953,
      "796": 1954,
      "751": 1955,
      "789": 1956,
      "586": 1957,
      "762": 1958,
      "765": 1959,
      "795": 1960,
      "754": 1961,
      "743": 1962,
      "991": 1963,
      "581": 1964,
      "753": 1965,
      "741": 1966,
      "562": 1967,
      "781": 1968,
      "788": 1969,
      "584": 1970,
      "766": 1971,
      "593": 1972,
      "co": 1973,
      "cing": 1974,
      "da": 1975,
      "ful": 1976,
      "ron": 1977,
      "to": 1978,
      "tle": 1979,
      "ther": 1980,
      "we": 1981,
      "ying": 1982,
      "Ġide": 1983,
      "Ġcle": 1984,
      "Ġaut": 1985,
      "Ġpers": 1986,
      "Ġmer": 1987,
      "Ġmet": 1988,
      "med": 1989,
      "Ġfun": 1990,
      "Ġbra": 1991,
      "Ġblo": 1992,
      "Ġrem": 1993,
      "Ġinvest": 1994,
      "Ġconce": 1995,
      "Ġconst": 1996,
      "Ġgr": 1997,
      "Ġprodu": 1998,
      "ats": 1999,
      "Ġhand": 2000,
      "Ġlog": 2001,
      "own": 2002,
      "563": 2003,
      "567": 2004,
      "589": 2005,
      "764": 2006,
      "767": 2007,
      "757": 2008,
      "Ġdep": 2009,
      "742": 2010,
      "Ġear": 2011,
      "Ġest": 2012,
      "Ġemp": 2013,
      "Ġwa": 2014,
      "Ġval": 2015,
      "Ġsupp": 2016,
      "Ġeng": 2017,
      "loy": 2018,
      "Ġleg": 2019,
      "ants": 2020,
      "tical": 2021,
      "fied": 2022,
      "ches": 2023,
      "782": 2024,
      "583": 2025,
      "755": 2026,
      "Ġ557": 2027,
      "Ġ657": 2028,
      "Ġ957": 2029,
      "Ġ757": 2030,
      "Ġ857": 2031,
      "597": 2032,
      "783": 2033,
      "772": 2034,
      "773": 2035,
      "ati": 2036,
      "day": 2037,
      "ek": 2038,
      "je": 2039,
      "line": 2040,
      "ring": 2041,
      "use": 2042,
      "vide": 2043,
      "Ġef": 2044,
      "Ġcan": 2045,
      "Ġshe": 2046,
      "Ġsign": 2047,
      "Ġap": 2048,
      "ana": 2049,
      "ank": 2050,
      "Ġpra": 2051,
      "Ġpos": 2052,
      "Ġti": 2053,
      "ond": 2054,
      "ony": 2055,
      "hes": 2056,
      "ined": 2057,
      "Ġmode": 2058,
      "Ġbi": 2059,
      "Ġben": 2060,
      "Ġrel": 2061,
      "Ġrest": 2062,
      "Ġresp": 2063,
      "Ġint": 2064,
      "hic": 2065,
      "ries": 2066,
      "Ġhigh": 2067,
      "Ġel": 2068,
      "Ġwin": 2069,
      "Ġvi": 2070,
      "Ġvo": 2071,
      "Ġvis": 2072,
      "Ġexce": 2073,
      "Ġdiff": 2074,
      "ured": 2075,
      "umb": 2076,
      "ough": 2077,
      "ays": 2078,
      "Ġuni": 2079,
      "Ġprin": 2080,
      "Ġwork": 2081,
      "543": 2082,
      "Ġ605": 2083,
      "Ġ905": 2084,
      "Ġ705": 2085,
      "Ġ505": 2086,
      "Ġ805": 2087,
      "Ġ565": 2088,
      "Ġ695": 2089,
      "Ġ995": 2090,
      "Ġ585": 2091,
      "Ġ785": 2092,
      "Ġ795": 2093,
      "Ġ895": 2094,
      "Ġ595": 2095,
      "Ġ665": 2096,
      "Ġ965": 2097,
      "Ġ865": 2098,
      "Ġ685": 2099,
      "Ġ985": 2100,
      "Ġ885": 2101,
      "Ġ765": 2102,
      "542": 2103,
      "541": 2104,
      "Ġ607": 2105,
      "Ġ907": 2106,
      "Ġ707": 2107,
      "Ġ507": 2108,
      "Ġ807": 2109,
      "Ġ567": 2110,
      "Ġ697": 2111,
      "Ġ997": 2112,
      "Ġ587": 2113,
      "Ġ787": 2114,
      "Ġ797": 2115,
      "Ġ897": 2116,
      "Ġ597": 2117,
      "Ġ667": 2118,
      "Ġ967": 2119,
      "Ġ867": 2120,
      "Ġ687": 2121,
      "Ġ987": 2122,
      "Ġ887": 2123,
      "Ġ767": 2124,
      "771": 2125,
      "ace": 2126,
      "chi": 2127,
      "gra": 2128,
      "ise": 2129,
      "mit": 2130,
      "ny": 2131,
      "ned": 2132,
      "ness": 2133,
      "ude": 2134,
      "ually": 2135,
      "view": 2136,
      "let": 2137,
      "Ġaf": 2138,
      "Ġam": 2139,
      "Ġaff": 2140,
      "cen": 2141,
      "ane": 2142,
      "Ġpack": 2143,
      "Ġta": 2144,
      "ones": 2145,
      "cks": 2146,
      "sel": 2147,
      "Ġstre": 2148,
      "here": 2149,
      "sts": 2150,
      "tions": 2151,
      "Ġfra": 2152,
      "Ġfol": 2153,
      "ards": 2154,
      "Ġrequ": 2155,
      "dia": 2156,
      "rodu": 2157,
      "ality": 2158,
      "ops": 2159,
      "very": 2160,
      "ller": 2161,
      "Ġlu": 2162,
      "ots": 2163,
      "Ġdevel": 2164,
      "Ġec": 2165,
      "Ġem": 2166,
      "Ġequ": 2167,
      "end": 2168,
      "ich": 2169,
      "Ġnor": 2170,
      "ational": 2171,
      "Ġdon": 2172,
      "ctors": 2173,
      "Ġvol": 2174,
      "Ġdisp": 2175,
      "Ġkn": 2176,
      "irc": 2177,
      "Ġtech": 2178,
      "ists": 2179,
      "Ġunder": 2180,
      "ages": 2181,
      "Ġexper": 2182,
      "Ġappro": 2183,
      "ized": 2184,
      "Ġope": 2185,
      "774": 2186,
      "Ġ544": 2187,
      "Ġ644": 2188,
      "Ġ944": 2189,
      "Ġ744": 2190,
      "Ġ844": 2191,
      "777": 2192,
      "571": 2193,
      "aly": 2194,
      "by": 2195,
      "cti": 2196,
      "em": 2197,
      "ged": 2198,
      "ose": 2199,
      "pri": 2200,
      "ta": 2201,
      "tain": 2202,
      "ural": 2203,
      "vation": 2204,
      "ware": 2205,
      "yp": 2206,
      "Ġx": 2207,
      "Ġcop": 2208,
      "Ġcat": 2209,
      "ler": 2210,
      "less": 2211,
      "ink": 2212,
      "rat": 2213,
      "tim": 2214,
      "tis": 2215,
      "den": 2216,
      "Ġinv": 2217,
      "Ġindi": 2218,
      "Ġconne": 2219,
      "Ġgi": 2220,
      "Ġgro": 2221,
      "book": 2222,
      "ator": 2223,
      "rist": 2224,
      "Ġedi": 2225,
      "ences": 2226,
      "Ġda": 2227,
      "Ġdr": 2228,
      "Ġdri": 2229,
      "cting": 2230,
      "Ġje": 2231,
      "Ġju": 2232,
      "ason": 2233,
      "els": 2234,
      "cial": 2235,
      "ability": 2236,
      "Ġtex": 2237,
      "Ġmag": 2238,
      "scrib": 2239,
      "ient": 2240,
      "Ġparti": 2241,
      "Ġloc": 2242,
      "ize": 2243,
      "Ġphot": 2244,
      "ission": 2245,
      "ible": 2246,
      "Ġinstru": 2247,
      "Ġ574": 2248,
      "Ġ554": 2249,
      "Ġ674": 2250,
      "Ġ654": 2251,
      "Ġ974": 2252,
      "Ġ954": 2253,
      "Ġ774": 2254,
      "Ġ754": 2255,
      "Ġ874": 2256,
      "Ġ854": 2257,
      "555": 2258,
      "Ġ604": 2259,
      "Ġ904": 2260,
      "Ġ704": 2261,
      "Ġ504": 2262,
      "Ġ804": 2263,
      "Ġ564": 2264,
      "Ġ694": 2265,
      "Ġ994": 2266,
      "Ġ584": 2267,
      "Ġ784": 2268,
      "Ġ794": 2269,
      "Ġ894": 2270,
      "Ġ594": 2271,
      "Ġ664": 2272,
      "Ġ964": 2273,
      "Ġ864": 2274,
      "Ġ684": 2275,
      "Ġ984": 2276,
      "Ġ884": 2277,
      "Ġ764": 2278,
      "553": 2279,
      "573": 2280,
      "863": 2281,
      "895": 2282,
      "554": 2283,
      "884": 2284,
      "ah": 2285,
      "bs": 2286,
      "bor": 2287,
      "ep": 2288,
      "fy": 2289,
      "get": 2290,
      "lish": 2291,
      "ming": 2292,
      "our": 2293,
      "sse": 2294,
      "ume": 2295,
      "ues": 2296,
      "wor": 2297,
      "ze": 2298,
      "Ġver": 2299,
      "Ġdire": 2300,
      "Ġur": 2301,
      "Ġit": 2302,
      "Ġcra": 2303,
      "Ġchi": 2304,
      "Ġcri": 2305,
      "Ġcur": 2306,
      "Ġcust": 2307,
      "Ġcirc": 2308,
      "lex": 2309,
      "Ġav": 2310,
      "Ġphi": 2311,
      "Ġpur": 2312,
      "Ġpow": 2313,
      "ads": 2314,
      "Ġmus": 2315,
      "vent": 2316,
      "Ġstar": 2317,
      "Ġstri": 2318,
      "hen": 2319,
      "ights": 2320,
      "ination": 2321,
      "ored": 2322,
      "Ġbas": 2323,
      "Ġrefer": 2324,
      "ances": 2325,
      "ali": 2326,
      "Ġprote": 2327,
      "ison": 2328,
      "ished": 2329,
      "Ġpat": 2330,
      "Ġpass": 2331,
      "Ġany": 2332,
      "ather": 2333,
      "Ġcontin": 2334,
      "uring": 2335,
      "Ġhor": 2336,
      "Ġlab": 2337,
      "ford": 2338,
      "557": 2339,
      "572": 2340,
      "664": 2341,
      "885": 2342,
      "Ġwal": 2343,
      "Ġwel": 2344,
      "Ġdu": 2345,
      "ung": 2346,
      "ils": 2347,
      "illa": 2348,
      "Ġvari": 2349,
      "Ġext": 2350,
      "Ġexam": 2351,
      "ash": 2352,
      "gest": 2353,
      "amb": 2354,
      "Ġcoun": 2355,
      "uts": 2356,
      "ouse": 2357,
      "Ġshow": 2358,
      "scri": 2359,
      "tics": 2360,
      "ains": 2361,
      "Ġpost": 2362,
      "Ġscre": 2363,
      "Ġye": 2364,
      "Ġsome": 2365,
      "Ġmark": 2366,
      "ruct": 2367,
      "Ġrepre": 2368,
      "fication": 2369,
      "ired": 2370,
      "Ġplan": 2371,
      "ched": 2372,
      "Ġcorre": 2373,
      "Ġasse": 2374,
      "Ġelect": 2375,
      "Ġclass": 2376,
      "Ġdevelop": 2377,
      "551": 2378,
      "552": 2379,
      "665": 2380,
      "892": 2381,
      "896": 2382,
      "898": 2383,
      "Ġ521": 2384,
      "Ġ533": 2385,
      "Ġ511": 2386,
      "Ġ621": 2387,
      "Ġ633": 2388,
      "Ġ611": 2389,
      "Ġ921": 2390,
      "Ġ933": 2391,
      "Ġ911": 2392,
      "Ġ721": 2393,
      "Ġ733": 2394,
      "Ġ711": 2395,
      "Ġ821": 2396,
      "Ġ833": 2397,
      "Ġ811": 2398,
      "864": 2399,
      "663": 2400,
      "666": 2401,
      "667": 2402,
      "668": 2403,
      "883": 2404,
      "894": 2405,
      "867": 2406,
      "869": 2407,
      "669": 2408,
      "888": 2409,
      "891": 2410,
      "au": 2411,
      "air": 2412,
      "ake": 2413,
      "cle": 2414,
      "cul": 2415,
      "gin": 2416,
      "ging": 2417,
      "hy": 2418,
      "iv": 2419,
      "ium": 2420,
      "nd": 2421,
      "net": 2422,
      "oo": 2423,
      "ror": 2424,
      "son": 2425,
      "utes": 2426,
      "ws": 2427,
      "way": 2428,
      "yl": 2429,
      "Ġon": 2430,
      "Ġer": 2431,
      "Ġcer": 2432,
      "Ġsal": 2433,
      "Ġset": 2434,
      "ley": 2435,
      "Ġru": 2436,
      "Ġran": 2437,
      "Ġair": 2438,
      "aries": 2439,
      "cent": 2440,
      "Ġpor": 2441,
      "ading": 2442,
      "ades": 2443,
      "Ġmy": 2444,
      "Ġmic": 2445,
      "Ġmil": 2446,
      "ina": 2447,
      "ining": 2448,
      "que": 2449,
      "ases": 2450,
      "ston": 2451,
      "tit": 2452,
      "tional": 2453,
      "Ġfar": 2454,
      "Ġfri": 2455,
      "Ġfil": 2456,
      "Ġflo": 2457,
      "Ġban": 2458,
      "Ġbat": 2459,
      "Ġbut": 2460,
      "tern": 2461,
      "ands": 2462,
      "part": 2463,
      "alog": 2464,
      "Ġform": 2465,
      "Ġinde": 2466,
      "Ġincl": 2467,
      "Ġindic": 2468,
      "Ġ522": 2469,
      "Ġ523": 2470,
      "Ġ513": 2471,
      "Ġ553": 2472,
      "Ġ543": 2473,
      "Ġ573": 2474,
      "Ġ622": 2475,
      "Ġ623": 2476,
      "Ġ613": 2477,
      "Ġ653": 2478,
      "Ġ643": 2479,
      "Ġ673": 2480,
      "Ġ922": 2481,
      "Ġ923": 2482,
      "Ġ913": 2483,
      "Ġ953": 2484,
      "Ġ943": 2485,
      "Ġ973": 2486,
      "Ġ722": 2487,
      "Ġ723": 2488,
      "Ġ713": 2489,
      "Ġ753": 2490,
      "Ġ743": 2491,
      "Ġ773": 2492,
      "Ġ822": 2493,
      "Ġ823": 2494,
      "Ġ813": 2495,
      "Ġ853": 2496,
      "Ġ843": 2497,
      "Ġ873": 2498,
      "Ġgl": 2499,
      "eds": 2500,
      "Ġprop": 2501,
      "Ġprogra": 2502,
      "Ġconside": 2503,
      "Ġand": 2504,
      "Ġanti": 2505,
      "Ġanno": 2506,
      "Ġanaly": 2507,
      "Ġadver": 2508,
      "Ġcontrib": 2509,
      "Ġfav": 2510,
      "Ġhon": 2511,
      "Ġhum": 2512,
      "Ġhome": 2513,
      "mental": 2514,
      "Ġlat": 2515,
      "Ġlim": 2516,
      "Ġow": 2517,
      "Ġcap": 2518,
      "Ġcas": 2519,
      "Ġcamp": 2520,
      "Ġoff": 2521,
      "ott": 2522,
      "661": 2523,
      "662": 2524,
      "882": 2525,
      "886": 2526,
      "887": 2527,
      "889": 2528,
      "893": 2529,
      "897": 2530,
      "861": 2531,
      "868": 2532,
      "Ġ603": 2533,
      "Ġ903": 2534,
      "Ġ703": 2535,
      "Ġ503": 2536,
      "Ġ803": 2537,
      "Ġwri": 2538,
      "Ġ563": 2539,
      "Ġdan": 2540,
      "Ġdoc": 2541,
      "Ġ693": 2542,
      "Ġ993": 2543,
      "Ġ583": 2544,
      "Ġ783": 2545,
      "Ġ793": 2546,
      "Ġ893": 2547,
      "Ġ593": 2548,
      "Ġ663": 2549,
      "Ġ963": 2550,
      "Ġ863": 2551,
      "Ġ683": 2552,
      "Ġ983": 2553,
      "Ġ883": 2554,
      "Ġ763": 2555,
      "ilities": 2556,
      "Ġvic": 2557,
      "Ġvir": 2558,
      "Ġview": 2559,
      "ams": 2560,
      "eld": 2561,
      "Ġcho": 2562,
      "Ġchrist": 2563,
      "Ġsug": 2564,
      "Ġsuper": 2565,
      "Ġcomb": 2566,
      "Ġcompar": 2567,
      "Ġenc": 2568,
      "Ġenter": 2569,
      "Ġtele": 2570,
      "Ġtemp": 2571,
      "Ġmem": 2572,
      "Ġmedic": 2573,
      "Ġsho": 2574,
      "Ġthre": 2575,
      "Ġarchi": 2576,
      "Ġhel": 2577,
      "acter": 2578,
      "lling": 2579,
      "Ġappe": 2580,
      "Ġbook": 2581,
      "Ġphys": 2582,
      "issions": 2583,
      "Ġnoti": 2584,
      "Ġbuil": 2585,
      "Ġplay": 2586,
      "vision": 2587,
      "mend": 2588,
      "mark": 2589,
      "Ġpromo": 2590,
      "Ġidenti": 2591,
      "Ġautom": 2592,
      "Ġperson": 2593,
      "Ġemploy": 2594,
      "Ġexperi": 2595,
      "862": 2596,
      "Ġ531": 2597,
      "Ġ551": 2598,
      "Ġ541": 2599,
      "Ġ571": 2600,
      "Ġ631": 2601,
      "Ġ651": 2602,
      "Ġ641": 2603,
      "Ġ671": 2604,
      "Ġ931": 2605,
      "Ġ951": 2606,
      "Ġ941": 2607,
      "Ġ971": 2608,
      "Ġ731": 2609,
      "Ġ751": 2610,
      "Ġ741": 2611,
      "Ġ771": 2612,
      "Ġ831": 2613,
      "Ġ851": 2614,
      "Ġ841": 2615,
      "Ġ871": 2616,
      "865": 2617,
      "Ġ601": 2618,
      "Ġ901": 2619,
      "Ġ701": 2620,
      "Ġ501": 2621,
      "Ġ801": 2622,
      "Ġ561": 2623,
      "Ġ691": 2624,
      "Ġ991": 2625,
      "Ġ581": 2626,
      "Ġ781": 2627,
      "Ġ791": 2628,
      "Ġ891": 2629,
      "Ġ591": 2630,
      "Ġ661": 2631,
      "Ġ961": 2632,
      "Ġ861": 2633,
      "Ġ681": 2634,
      "Ġ981": 2635,
      "Ġ881": 2636,
      "Ġ761": 2637,
      "881": 2638,
      "Ġ512": 2639,
      "Ġ532": 2640,
      "Ġ542": 2641,
      "Ġ552": 2642,
      "Ġ572": 2643,
      "Ġ612": 2644,
      "Ġ632": 2645,
      "Ġ642": 2646,
      "Ġ652": 2647,
      "Ġ672": 2648,
      "Ġ912": 2649,
      "Ġ932": 2650,
      "Ġ942": 2651,
      "Ġ952": 2652,
      "Ġ972": 2653,
      "Ġ712": 2654,
      "Ġ732": 2655,
      "Ġ742": 2656,
      "Ġ752": 2657,
      "Ġ772": 2658,
      "Ġ812": 2659,
      "Ġ832": 2660,
      "Ġ842": 2661,
      "Ġ852": 2662,
      "Ġ872": 2663,
      "697": 2664,
      "Ġ602": 2665,
      "Ġ902": 2666,
      "Ġ702": 2667,
      "Ġ502": 2668,
      "Ġ802": 2669,
      "687": 2670,
      "Ġ562": 2671,
      "Ġ692": 2672,
      "Ġ992": 2673,
      "Ġ582": 2674,
      "Ġ782": 2675,
      "Ġ792": 2676,
      "Ġ892": 2677,
      "Ġ592": 2678,
      "Ġ662": 2679,
      "Ġ962": 2680,
      "Ġ862": 2681,
      "Ġ682": 2682,
      "Ġ982": 2683,
      "Ġ882": 2684,
      "Ġ762": 2685,
      "az": 2686,
      "ba": 2687,
      "be": 2688,
      "ball": 2689,
      "come": 2690,
      "cast": 2691,
      "do": 2692,
      "dge": 2693,
      "gr": 2694,
      "gs": 2695,
      "hol": 2696,
      "ith": 2697,
      "ited": 2698,
      "kes": 2699,
      "nn": 2700,
      "osed": 2701,
      "ood": 2702,
      "ple": 2703,
      "sw": 2704,
      "vin": 2705,
      "vity": 2706,
      "Ġq": 2707,
      "Ġir": 2708,
      "Ġill": 2709,
      "Ġcro": 2710,
      "Ġcame": 2711,
      "Ġsw": 2712,
      "Ġsus": 2713,
      "Ġsch": 2714,
      "Ġsci": 2715,
      "Ġra": 2716,
      "Ġant": 2717,
      "Ġali": 2718,
      "ared": 2719,
      "aring": 2720,
      "Ġpan": 2721,
      "Ġtro": 2722,
      "Ġtit": 2723,
      "Ġtrib": 2724,
      "Ġms": 2725,
      "Ġmad": 2726,
      "Ġmor": 2727,
      "set": 2728,
      "Ġstr": 2729,
      "inary": 2730,
      "rator": 2731,
      "Ġque": 2732,
      "stic": 2733,
      "Ġfire": 2734,
      "Ġfran": 2735,
      "Ġbase": 2736,
      "Ġbul": 2737,
      "Ġbur": 2738,
      "Ġbet": 2739,
      "Ġread": 2740,
      "Ġrela": 2741,
      "Ġredu": 2742,
      "Ġreser": 2743,
      "dit": 2744,
      "dent": 2745,
      "anding": 2746,
      "ament": 2747,
      "Ġconte": 2748,
      "Ġmanu": 2749,
      "rations": 2750,
      "thor": 2751,
      "ately": 2752,
      "Ġprof": 2753,
      "Ġprovide": 2754,
      "Ġgover": 2755,
      "ism": 2756,
      "ising": 2757,
      "Ġpay": 2758,
      "orts": 2759,
      "Ġadj": 2760,
      "Ġadap": 2761,
      "Ġadmin": 2762,
      "Ġrecei": 2763,
      "Ġcontra": 2764,
      "ury": 2765,
      "Ġcalcul": 2766,
      "Ġhy": 2767,
      "Ġhard": 2768,
      "Ġhop": 2769,
      "Ġhos": 2770,
      "Ġcent": 2771,
      "Ġlin": 2772,
      "Ġlou": 2773,
      "gers": 2774,
      "Ġdest": 2775,
      "Ġep": 2776,
      "Ġev": 2777,
      "Ġent": 2778,
      "Ġeval": 2779,
      "Ġevery": 2780,
      "681": 2781,
      "Ġwat": 2782,
      "ica": 2783,
      "Ġnat": 2784,
      "Ġnet": 2785,
      "Ġdown": 2786,
      "une": 2787,
      "unic": 2788,
      "unds": 2789,
      "ili": 2790,
      "ssing": 2791,
      "ush": 2792,
      "Ġjack": 2793,
      "Ġexcl": 2794,
      "Ġexec": 2795,
      "aster": 2796,
      "chan": 2797,
      "ell": 2798,
      "Ġcook": 2799,
      "Ġken": 2800,
      "lace": 2801,
      "Ġsee": 2802,
      "Ġsele": 2803,
      "Ġcompe": 2804,
      "load": 2805,
      "Ġlen": 2806,
      "ids": 2807,
      "Ġmeas": 2808,
      "ount": 2809,
      "outh": 2810,
      "pect": 2811,
      "ained": 2812,
      "Ġcomple": 2813,
      "Ġpart": 2814,
      "Ġsche": 2815,
      "Ġlook": 2816,
      "Ġtrack": 2817,
      "ents": 2818,
      "ently": 2819,
      "ibility": 2820,
      "Ġcommit": 2821,
      "Ġjourn": 2822,
      "Ġbroad": 2823,
      "ective": 2824,
      "ression": 2825,
      "Ġhapp": 2826,
      "Ġconfig": 2827,
      "Ġspecial": 2828,
      "Ġincre": 2829,
      "Ġdistrib": 2830,
      "Ġremo": 2831,
      "Ġinvestig": 2832,
      "Ġconcer": 2833,
      "Ġgrad": 2834,
      "Ġrespon": 2835,
      "Ġintrodu": 2836,
      "Ġdiffer": 2837,
      "Ġparticip": 2838,
      "Ġphotograp": 2839,
      "scription": 2840,
      "Ġrepresent": 2841,
      "Ġprogram": 2842,
      "691": 2843,
      "695": 2844,
      "683": 2845,
      "692": 2846,
      "694": 2847,
      "696": 2848,
      "698": 2849,
      "682": 2850,
      "684": 2851,
      "693": 2852,
      "685": 2853,
      "965": 2854,
      "act": 2855,
      "ass": 2856,
      "ape": 2857,
      "atic": 2858,
      "ban": 2859,
      "bit": 2860,
      "eve": 2861,
      "ga": 2862,
      "go": 2863,
      "gy": 2864,
      "gar": 2865,
      "hs": 2866,
      "ham": 2867,
      "ior": 2868,
      "iri": 2869,
      "ials": 2870,
      "ious": 2871,
      "ki": 2872,
      "ker": 2873,
      "lor": 2874,
      "lli": 2875,
      "mon": 2876,
      "mber": 2877,
      "name": 2878,
      "of": 2879,
      "out": 2880,
      "oci": 2881,
      "pl": 2882,
      "por": 2883,
      "pre": 2884,
      "si": 2885,
      "ster": 2886,
      "tch": 2887,
      "ua": 2888,
      "uc": 2889,
      "ud": 2890,
      "uri": 2891,
      "used": 2892,
      "wn": 2893,
      "yed": 2894,
      "zz": 2895,
      "Ġly": 2896,
      "Ġic": 2897,
      "Ġven": 2898,
      "Ġcr": 2899,
      "Ġcli": 2900,
      "Ġcru": 2901,
      "Ġsi": 2902,
      "Ġsn": 2903,
      "Ġsing": 2904,
      "Ġsit": 2905,
      "Ġsun": 2906,
      "Ġri": 2907,
      "Ġrom": 2908,
      "Ġrun": 2909,
      "Ġrich": 2910,
      "ark": 2911,
      "arch": 2912,
      "cess": 2913,
      "Ġpick": 2914,
      "Ġpop": 2915,
      "Ġpot": 2916,
      "Ġtw": 2917,
      "Ġtreat": 2918,
      "Ġtur": 2919,
      "Ġmen": 2920,
      "Ġmid": 2921,
      "Ġmiss": 2922,
      "onst": 2923,
      "vera": 2924,
      "sequ": 2925,
      "Ġsto": 2926,
      "Ġstick": 2927,
      "Ġstat": 2928,
      "Ġstruct": 2929,
      "ints": 2930,
      "ories": 2931,
      "rates": 2932,
      "Ġquali": 2933,
      "time": 2934,
      "Ġfu": 2935,
      "Ġfund": 2936,
      "Ġfoc": 2937,
      "Ġbor": 2938,
      "Ġber": 2939,
      "Ġbed": 2940,
      "Ġbir": 2941,
      "Ġreal": 2942,
      "Ġreview": 2943,
      "oms": 2944,
      "tery": 2945,
      "tered": 2946,
      "round": 2947,
      "Ġthere": 2948,
      "Ġtool": 2949,
      "alth": 2950,
      "ree": 2951,
      "Ġindu": 2952,
      "Ġiniti": 2953,
      "Ġconver": 2954,
      "Ġconven": 2955,
      "Ġatten": 2956,
      "thing": 2957,
      "Ġgar": 2958,
      "Ġgrap": 2959,
      "Ġgrow": 2960,
      "ident": 2961,
      "Ġproje": 2962,
      "Ġpas": 2963,
      "Ġconsult": 2964,
      "body": 2965,
      "Ġann": 2966,
      "ulation": 2967,
      "ators": 2968,
      "Ġadd": 2969,
      "Ġaddi": 2970,
      "Ġham": 2971,
      "Ġhouse": 2972,
      "Ġrob": 2973,
      "Ġcele": 2974,
      "Ġlight": 2975,
      "Ġover": 2976,
      "ows": 2977,
      "Ġcab": 2978,
      "utions": 2979,
      "Ġdeb": 2980,
      "Ġdel": 2981,
      "Ġden": 2982,
      "Ġdete": 2983,
      "Ġdeter": 2984,
      "Ġdeli": 2985,
      "Ġdecl": 2986,
      "Ġeu": 2987,
      "Ġesse": 2988,
      "Ġwh": 2989,
      "Ġwhe": 2990,
      "Ġwall": 2991,
      "enti": 2992,
      "ends": 2993,
      "ency": 2994,
      "iting": 2995,
      "itation": 2996,
      "Ġname": 2997,
      "Ġnav": 2998,
      "Ġdom": 2999,
      "ports": 3000,
      "Ġvac": 3001,
      "usion": 3002,
      "Ġjun": 3003,
      "Ġcour": 3004,
      "Ġcoup": 3005,
      "Ġcoord": 3006,
      "Ġcount": 3007,
      "Ġchan": 3008,
      "Ġchamp": 3009,
      "Ġsum": 3010,
      "Ġsuff": 3011,
      "cies": 3012,
      "ables": 3013,
      "iry": 3014,
      "Ġend": 3015,
      "Ġenh": 3016,
      "los": 3017,
      "lied": 3018,
      "Ġles": 3019,
      "Ġtest": 3020,
      "Ġmain": 3021,
      "Ġshop": 3022,
      "Ġthumb": 3023,
      "pective": 3024,
      "Ġpresent": 3025,
      "Ġarg": 3026,
      "Ġarri": 3027,
      "Ġtran": 3028,
      "Ġallow": 3029,
      "Ġher": 3030,
      "Ġacti": 3031,
      "Ġachi": 3032,
      "Ġbeh": 3033,
      "aches": 3034,
      "aging": 3035,
      "hers": 3036,
      "Ġscan": 3037,
      "lls": 3038,
      "Ġapplic": 3039,
      "ization": 3040,
      "ney": 3041,
      "Ġopp": 3042,
      "Ġphar": 3043,
      "Ġspeak": 3044,
      "Ġfeat": 3045,
      "Ġsubst": 3046,
      "Ġrecor": 3047,
      "Ġrecom": 3048,
      "Ġcheck": 3049,
      "Ġjoh": 3050,
      "iled": 3051,
      "Ġcharacter": 3052,
      "Ġuti": 3053,
      "Ġassoci": 3054,
      "Ġflor": 3055,
      "Ġinstit": 3056,
      "Ġtransl": 3057,
      "Ġimpro": 3058,
      "Ġdisco": 3059,
      "ological": 3060,
      "itions": 3061,
      "Ġobser": 3062,
      "Ġrefle": 3063,
      "Ġdesign": 3064,
      "Ġauthor": 3065,
      "Ġmix": 3066,
      "Ġfree": 3067,
      "fact": 3068,
      "Ġaccess": 3069,
      "Ġpublic": 3070,
      "Ġbreak": 3071,
      "allen": 3072,
      "ressed": 3073,
      "Ġkey": 3074,
      "Ġclean": 3075,
      "Ġeff": 3076,
      "self": 3077,
      "Ġtechn": 3078,
      "Ġinvol": 3079,
      "Ġpower": 3080,
      "Ġcontinu": 3081,
      "Ġextra": 3082,
      "Ġannoun": 3083,
      "Ġadverti": 3084,
      "Ġdocu": 3085,
      "Ġmanufact": 3086,
      "Ġgovern": 3087,
      "Ġevalu": 3088,
      "963": 3089,
      "984": 3090,
      "961": 3091,
      "af": 3092,
      "ave": 3093,
      "ater": 3094,
      "bi": 3095,
      "ca": 3096,
      "dings": 3097,
      "gress": 3098,
      "ij": 3099,
      "ked": 3100,
      "lar": 3101,
      "lim": 3102,
      "lines": 3103,
      "mc": 3104,
      "mi": 3105,
      "mal": 3106,
      "mic": 3107,
      "mission": 3108,
      "ng": 3109,
      "non": 3110,
      "nes": 3111,
      "nel": 3112,
      "ool": 3113,
      "ping": 3114,
      "pen": 3115,
      "pts": 3116,
      "uit": 3117,
      "uted": 3118,
      "umes": 3119,
      "vir": 3120,
      "vid": 3121,
      "where": 3122,
      "xes": 3123,
      "xim": 3124,
      "xual": 3125,
      "yer": 3126,
      "Ġom": 3127,
      "Ġid": 3128,
      "Ġiss": 3129,
      "Ġcy": 3130,
      "Ġcard": 3131,
      "Ġcance": 3132,
      "Ġcreat": 3133,
      "Ġcult": 3134,
      "Ġciv": 3135,
      "Ġsle": 3136,
      "Ġsin": 3137,
      "Ġsand": 3138,
      "Ġsat": 3139,
      "Ġsil": 3140,
      "Ġsys": 3141,
      "Ġsens": 3142,
      "Ġscen": 3143,
      "lement": 3144,
      "Ġride": 3145,
      "Ġrap": 3146,
      "Ġaw": 3147,
      "Ġame": 3148,
      "Ġare": 3149,
      "Ġact": 3150,
      "Ġaust": 3151,
      "lying": 3152,
      "tee": 3153,
      "tel": 3154,
      "temp": 3155,
      "tens": 3156,
      "ara": 3157,
      "art": 3158,
      "arly": 3159,
      "arian": 3160,
      "cer": 3161,
      "anti": 3162,
      "ania": 3163,
      "ancy": 3164,
      "Ġpd": 3165,
      "Ġps": 3166,
      "Ġpu": 3167,
      "Ġpal": 3168,
      "Ġpul": 3169,
      "Ġtar": 3170,
      "Ġtwi": 3171,
      "Ġtom": 3172,
      "Ġtal": 3173,
      "Ġtun": 3174,
      "Ġtim": 3175,
      "Ġtyp": 3176,
      "Ġmal": 3177,
      "Ġmys": 3178,
      "Ġmill": 3179,
      "Ġmess": 3180,
      "onom": 3181,
      "cket": 3182,
      "vered": 3183,
      "sen": 3184,
      "Ġstand": 3185,
      "Ġstate": 3186,
      "igin": 3187,
      "igation": 3188,
      "ind": 3189,
      "inted": 3190,
      "inations": 3191,
      "orted": 3192,
      "rab": 3193,
      "rated": 3194,
      "racy": 3195,
      "rable": 3196,
      "Ġquest": 3197,
      "Ġmodi": 3198,
      "Ġmotor": 3199,
      "Ġmount": 3200,
      "stor": 3201,
      "medi": 3202,
      "mens": 3203,
      "Ġfig": 3204,
      "Ġfit": 3205,
      "Ġfir": 3206,
      "Ġbal": 3207,
      "Ġbus": 3208,
      "Ġbla": 3209,
      "Ġbab": 3210,
      "Ġbill": 3211,
      "Ġbath": 3212,
      "Ġreb": 3213,
      "Ġrese": 3214,
      "Ġreli": 3215,
      "Ġreason": 3216,
      "des": 3217,
      "oming": 3218,
      "roll": 3219,
      "Ġtow": 3220,
      "ering": 3221,
      "ren": 3222,
      "Ġind": 3223,
      "Ġinten": 3224,
      "Ġinno": 3225,
      "Ġinform": 3226,
      "Ġcondi": 3227,
      "Ġconcl": 3228,
      "ntal": 3229,
      "wards": 3230,
      "Ġattemp": 3231,
      "Ġwide": 3232,
      "Ġgame": 3233,
      "Ġgri": 3234,
      "Ġglo": 3235,
      "hib": 3236,
      "hips": 3237,
      "identi": 3238,
      "Ġpros": 3239,
      "Ġprot": 3240,
      "Ġproper": 3241,
      "box": 3242,
      "Ġanim": 3243,
      "Ġansw": 3244,
      "ington": 3245,
      "ulations": 3246,
      "ato": 3247,
      "ried": 3248,
      "Ġreturn": 3249,
      "Ġcontain": 3250,
      "Ġfam": 3251,
      "Ġfail": 3252,
      "Ġhung": 3253,
      "Ġspons": 3254,
      "Ġspiri": 3255,
      "Ġcare": 3256,
      "Ġrou": 3257,
      "mentary": 3258,
      "alty": 3259,
      "Ġlad": 3260,
      "Ġlay": 3261,
      "Ġlist": 3262,
      "owled": 3263,
      "Ġoffi": 3264,
      "Ġoffer": 3265,
      "Ġdev": 3266,
      "Ġdela": 3267,
      "Ġdevi": 3268,
      "Ġdescrib": 3269,
      "Ġdepart": 3270,
      "Ġeg": 3271,
      "Ġeth": 3272,
      "Ġeas": 3273,
      "964": 3274,
      "Ġwon": 3275,
      "Ġwed": 3276,
      "Ġwhi": 3277,
      "Ġwho": 3278,
      "ening": 3279,
      "ital": 3280,
      "Ġnu": 3281,
      "Ġnut": 3282,
      "Ġdig": 3283,
      "Ġdro": 3284,
      "Ġdat": 3285,
      "Ġdol": 3286,
      "Ġdam": 3287,
      "Ġdou": 3288,
      "unch": 3289,
      "old": 3290,
      "olution": 3291,
      "ctly": 3292,
      "Ġvoc": 3293,
      "ety": 3294,
      "ette": 3295,
      "eting": 3296,
      "Ġjer": 3297,
      "Ġjul": 3298,
      "Ġjust": 3299,
      "Ġexten": 3300,
      "asc": 3301,
      "ask": 3302,
      "asing": 3303,
      "asion": 3304,
      "Ġdiv": 3305,
      "Ġcost": 3306,
      "utor": 3307,
      "Ġchallen": 3308,
      "Ġsucce": 3309,
      "cia": 3310,
      "Ġsepar": 3311,
      "ums": 3312,
      "Ġenti": 3313,
      "loc": 3314,
      "lies": 3315,
      "Ġlet": 3316,
      "Ġlear": 3317,
      "Ġlead": 3318,
      "pped": 3319,
      "Ġmac": 3320,
      "Ġmail": 3321,
      "Ġmass": 3322,
      "Ġmaint": 3323,
      "osh": 3324,
      "osition": 3325,
      "antly": 3326,
      "Ġmean": 3327,
      "Ġmedi": 3328,
      "Ġmechan": 3329,
      "oura": 3330,
      "Ġthrow": 3331,
      "pected": 3332,
      "Ġprepar": 3333,
      "Ġprefer": 3334,
      "tives": 3335,
      "Ġarm": 3336,
      "Ġarti": 3337,
      "Ġarran": 3338,
      "Ġtru": 3339,
      "Ġtrad": 3340,
      "istan": 3341,
      "Ġalter": 3342,
      "Ġacqu": 3343,
      "Ġbegin": 3344,
      "acy": 3345,
      "Ġpoly": 3346,
      "Ġposs": 3347,
      "Ġlib": 3348,
      "Ġlite": 3349,
      "Ġpartic": 3350,
      "Ġexpen": 3351,
      "Ġexpla": 3352,
      "Ġyo": 3353,
      "Ġimm": 3354,
      "Ġimport": 3355,
      "ublic": 3356,
      "new": 3357,
      "Ġtrave": 3358,
      "ests": 3359,
      "Ġoptim": 3360,
      "Ġreprodu": 3361,
      "Ġperform": 3362,
      "ously": 3363,
      "akes": 3364,
      "fications": 3365,
      "Ġweek": 3366,
      "Ġsatis": 3367,
      "Ġlaw": 3368,
      "Ġrecog": 3369,
      "ensive": 3370,
      "Ġguide": 3371,
      "Ġsurvi": 3372,
      "ession": 3373,
      "Ġassign": 3374,
      "mers": 3375,
      "Ġregard": 3376,
      "Ġinstall": 3377,
      "ected": 3378,
      "Ġdiscu": 3379,
      "ctory": 3380,
      "Ġveri": 3381,
      "Ġveget": 3382,
      "Ġabs": 3383,
      "Ġmonit": 3384,
      "Ġfoot": 3385,
      "Ġblack": 3386,
      "Ġaccom": 3387,
      "visions": 3388,
      "Ġsyn": 3389,
      "Ġsymp": 3390,
      "Ġinteg": 3391,
      "Ġintera": 3392,
      "Ġtermin": 3393,
      "Ġterror": 3394,
      "Ġaudi": 3395,
      "Ġeduc": 3396,
      "Ġupd": 3397,
      "Ġfrequ": 3398,
      "Ġaccept": 3399,
      "Ġinfl": 3400,
      "Ġdemoc": 3401,
      "Ġdemonst": 3402,
      "ographic": 3403,
      "ught": 3404,
      "Ġtreas": 3405,
      "Ġstudi": 3406,
      "Ġattra": 3407,
      "Ġoccur": 3408,
      "Ġoccup": 3409,
      "Ġsecre": 3410,
      "Ġorganiz": 3411,
      "ronic": 3412,
      "Ġfunction": 3413,
      "Ġblog": 3414,
      "Ġconstit": 3415,
      "Ġestim": 3416,
      "Ġestab": 3417,
      "Ġengine": 3418,
      "Ġappar": 3419,
      "Ġpracti": 3420,
      "ought": 3421,
      "mitted": 3422,
      "Ġaffili": 3423,
      "Ġstreng": 3424,
      "Ġfollow": 3425,
      "Ġrequire": 3426,
      "Ġeconom": 3427,
      "Ġdispla": 3428,
      "Ġcopy": 3429,
      "rators": 3430,
      "Ġtext": 3431,
      "work": 3432,
      "Ġital": 3433,
      "Ġchild": 3434,
      "Ġcustom": 3435,
      "Ġpurch": 3436,
      "Ġcerti": 3437,
      "Ġandre": 3438,
      "Ġhuman": 3439,
      "Ġvictor": 3440,
      "Ġsuggest": 3441,
      "Ġencoura": 3442,
      "Ġarchite": 3443,
      "Ġschol": 3444,
      "Ġadjust": 3445,
      "Ġadminist": 3446,
      "Ġjournal": 3447,
      "Ġgradu": 3448,
      "Ġceleb": 3449,
      "Ġdetermin": 3450,
      "Ġeuro": 3451,
      "Ġcoordin": 3452,
      "Ġenhance": 3453,
      "Ġameric": 3454,
      "962": 3455,
      "967": 3456,
      "981": 3457,
      "985": 3458,
      "987": 3459,
      "982": 3460,
      "983": 3461,
      "1241": 3462,
      "aur": 3463,
      "avi": 3464,
      "aile": 3465,
      "bal": 3466,
      "bul": 3467,
      "bur": 3468,
      "bie": 3469,
      "bby": 3470,
      "cd": 3471,
      "cs": 3472,
      "cis": 3473,
      "cles": 3474,
      "ctic": 3475,
      "dd": 3476,
      "dges": 3477,
      "dden": 3478,
      "ee": 3479,
      "ece": 3480,
      "ero": 3481,
      "emp": 3482,
      "fort": 3483,
      "fers": 3484,
      "gi": 3485,
      "gen": 3486,
      "gets": 3487,
      "hle": 3488,
      "ied": 3489,
      "ians": 3490,
      "ised": 3491,
      "ific": 3492,
      "jo": 3493,
      "jective": 3494,
      "lf": 3495,
      "lan": 3496,
      "lin": 3497,
      "las": 3498,
      "ml": 3499,
      "mbo": 3500,
      "missions": 3501,
      "nic": 3502,
      "nam": 3503,
      "nder": 3504,
      "ov": 3505,
      "ole": 3506,
      "oft": 3507,
      "oth": 3508,
      "ods": 3509,
      "oke": 3510,
      "ound": 3511,
      "oint": 3512,
      "pg": 3513,
      "page": 3514,
      "place": 3515,
      "ris": 3516,
      "rary": 3517,
      "sl": 3518,
      "ssed": 3519,
      "the": 3520,
      "tation": 3521,
      "tual": 3522,
      "tail": 3523,
      "ux": 3524,
      "ued": 3525,
      "uses": 3526,
      "uded": 3527,
      "vations": 3528,
      "via": 3529,
      "west": 3530,
      "word": 3531,
      "xt": 3532,
      "xy": 3533,
      "xed": 3534,
      "xic": 3535,
      "ye": 3536,
      "yle": 3537,
      "yers": 3538,
      "ype": 3539,
      "zy": 3540,
      "zon": 3541,
      "zard": 3542,
      "zen": 3543,
      "zens": 3544,
      "zilla": 3545,
      "Ġul": 3546,
      "Ġut": 3547,
      "Ġvers": 3548,
      "Ġcd": 3549,
      "Ġcand": 3550,
      "Ġcub": 3551,
      "Ġciti": 3552,
      "Ġsig": 3553,
      "Ġsam": 3554,
      "Ġsel": 3555,
      "Ġsac": 3556,
      "Ġsamp": 3557,
      "Ġswe": 3558,
      "Ġsouth": 3559,
      "len": 3560,
      "lev": 3561,
      "lend": 3562,
      "Ġrand": 3563,
      "Ġrid": 3564,
      "Ġrug": 3565,
      "Ġrail": 3566,
      "Ġrai": 3567,
      "Ġrank": 3568,
      "Ġaqu": 3569,
      "Ġast": 3570,
      "Ġage": 3571,
      "Ġamp": 3572,
      "Ġamb": 3573,
      "Ġalex": 3574,
      "Ġapart": 3575,
      "Ġamend": 3576,
      "Ġarab": 3577,
      "lymp": 3578,
      "tees": 3579,
      "tels": 3580,
      "aran": 3581,
      "cement": 3582,
      "any": 3583,
      "anks": 3584,
      "Ġpp": 3585,
      "Ġple": 3586,
      "Ġpens": 3587,
      "Ġpurs": 3588,
      "ada": 3589,
      "ador": 3590,
      "Ġtu": 3591,
      "Ġton": 3592,
      "Ġthi": 3593,
      "Ġtag": 3594,
      "Ġtub": 3595,
      "Ġtable": 3596,
      "Ġtale": 3597,
      "Ġmu": 3598,
      "Ġmed": 3599,
      "Ġmis": 3600,
      "Ġmort": 3601,
      "Ġmul": 3602,
      "Ġmur": 3603,
      "Ġmes": 3604,
      "Ġmel": 3605,
      "Ġmine": 3606,
      "Ġmist": 3607,
      "onds": 3608,
      "cky": 3609,
      "cking": 3610,
      "Ġstan": 3611,
      "Ġstor": 3612,
      "Ġstay": 3613,
      "Ġstrate": 3614,
      "iger": 3615,
      "ighted": 3616,
      "hel": 3617,
      "ino": 3618,
      "oring": 3619,
      "ority": 3620,
      "ras": 3621,
      "ray": 3622,
      "rain": 3623,
      "rative": 3624,
      "icks": 3625,
      "Ġquo": 3626,
      "Ġquar": 3627,
      "Ġmother": 3628,
      "ased": 3629,
      "stra": 3630,
      "sting": 3631,
      "tish": 3632,
      "Ġfr": 3633,
      "Ġfro": 3634,
      "Ġfis": 3635,
      "Ġfat": 3636,
      "Ġfur": 3637,
      "Ġfurn": 3638,
      "Ġfall": 3639,
      "Ġfel": 3640,
      "Ġfla": 3641,
      "Ġfron": 3642,
      "Ġflex": 3643,
      "wide": 3644,
      "Ġbad": 3645,
      "Ġbig": 3646,
      "Ġburn": 3647,
      "Ġbow": 3648,
      "Ġball": 3649,
      "Ġbid": 3650,
      "Ġbou": 3651,
      "Ġbag": 3652,
      "Ġbiz": 3653,
      "Ġbib": 3654,
      "Ġbio": 3655,
      "Ġbang": 3656,
      "Ġrev": 3657,
      "Ġreve": 3658,
      "Ġreme": 3659,
      "Ġrelease": 3660,
      "Ġreven": 3661,
      "Ġrecip": 3662,
      "Ġrenew": 3663,
      "did": 3664,
      "dity": 3665,
      "dence": 3666,
      "oma": 3667,
      "rome": 3668,
      "room": 3669,
      "rous": 3670,
      "anda": 3671,
      "commod": 3672,
      "Ġradi": 3673,
      "Ġtop": 3674,
      "Ġtot": 3675,
      "Ġtou": 3676,
      "ere": 3677,
      "ery": 3678,
      "ald": 3679,
      "read": 3680,
      "reci": 3681,
      "Ġinj": 3682,
      "Ġinqu": 3683,
      "Ġinser": 3684,
      "Ġcondu": 3685,
      "Ġconfer": 3686,
      "Ġconvers": 3687,
      "Ġconsequ": 3688,
      "Ġatm": 3689,
      "Ġathle": 3690,
      "Ġswit": 3691,
      "ths": 3692,
      "Ġwit": 3693,
      "Ġwish": 3694,
      "Ġgard": 3695,
      "Ġgir": 3696,
      "Ġgran": 3697,
      "eding": 3698,
      "hire": 3699,
      "idence": 3700,
      "idents": 3701,
      "Ġship": 3702,
      "Ġprovin": 3703,
      "Ġprocess": 3704,
      "Ġgot": 3705,
      "ister": 3706,
      "Ġpale": 3707,
      "Ġpain": 3708,
      "Ġpati": 3709,
      "Ġpaint": 3710,
      "Ġpaper": 3711,
      "bour": 3712,
      "isted": 3713,
      "uld": 3714,
      "ull": 3715,
      "ature": 3716,
      "atory": 3717,
      "ria": 3718,
      "ript": 3719,
      "Ġadop": 3720,
      "Ġretri": 3721,
      "Ġadvis": 3722,
      "llen": 3723,
      "llers": 3724,
      "urt": 3725,
      "Ġfac": 3726,
      "Ġfair": 3727,
      "Ġht": 3728,
      "Ġhu": 3729,
      "Ġhow": 3730,
      "Ġhot": 3731,
      "Ġhunt": 3732,
      "Ġspan": 3733,
      "Ġspring": 3734,
      "Ġcart": 3735,
      "Ġcarol": 3736,
      "Ġroy": 3737,
      "Ġrout": 3738,
      "Ġrober": 3739,
      "Ġcen": 3740,
      "Ġll": 3741,
      "Ġlan": 3742,
      "Ġland": 3743,
      "Ġlate": 3744,
      "Ġlow": 3745,
      "Ġlot": 3746,
      "Ġlit": 3747,
      "Ġlos": 3748,
      "Ġlap": 3749,
      "Ġlang": 3750,
      "1484": 3751,
      "Ġok": 3752,
      "Ġol": 3753,
      "Ġoak": 3754,
      "Ġother": 3755,
      "Ġolymp": 3756,
      "Ġcapt": 3757,
      "forms": 3758,
      "Ġoffic": 3759,
      "ota": 3760,
      "oting": 3761,
      "Ġdee": 3762,
      "Ġdele": 3763,
      "Ġdead": 3764,
      "Ġdeal": 3765,
      "Ġpix": 3766,
      "Ġea": 3767,
      "ested": 3768,
      "Ġwan": 3769,
      "Ġwas": 3770,
      "Ġwhere": 3771,
      "Ġwash": 3772,
      "ene": 3773,
      "itations": 3774,
      "ically": 3775,
      "ician": 3776,
      "Ġna": 3777,
      "Ġni": 3778,
      "Ġnight": 3779,
      "Ġnick": 3780,
      "Ġnom": 3781,
      "Ġnort": 3782,
      "Ġnur": 3783,
      "Ġnot": 3784,
      "Ġnation": 3785,
      "Ġnume": 3786,
      "Ġdv": 3787,
      "Ġdre": 3788,
      "unk": 3789,
      "unter": 3790,
      "cture": 3791,
      "Ġvan": 3792,
      "Ġvilla": 3793,
      "usive": 3794,
      "etary": 3795,
      "Ġjan": 3796,
      "Ġjef": 3797,
      "Ġjam": 3798,
      "Ġextens": 3799,
      "Ġexhib": 3800,
      "Ġdie": 3801,
      "Ġdir": 3802,
      "Ġdiag": 3803,
      "Ġdivide": 3804,
      "Ġdimens": 3805,
      "imb": 3806,
      "Ġcos": 3807,
      "uty": 3808,
      "Ġkar": 3809,
      "Ġkin": 3810,
      "Ġking": 3811,
      "Ġkit": 3812,
      "Ġkill": 3813,
      "Ġchap": 3814,
      "Ġchang": 3815,
      "Ġchair": 3816,
      "Ġchronic": 3817,
      "Ġsup": 3818,
      "Ġsust": 3819,
      "cise": 3820,
      "cious": 3821,
      "abe": 3822,
      "abilities": 3823,
      "Ġseek": 3824,
      "umn": 3825,
      "ump": 3826,
      "umption": 3827,
      "Ġens": 3828,
      "Ġenco": 3829,
      "Ġenvir": 3830,
      "Ġenjo": 3831,
      "lip": 3832,
      "list": 3833,
      "liance": 3834,
      "Ġlex": 3835,
      "Ġless": 3836,
      "pping": 3837,
      "Ġmay": 3838,
      "Ġmach": 3839,
      "Ġmeth": 3840,
      "Ġmeet": 3841,
      "Ġmemb": 3842,
      "ouri": 3843,
      "ounts": 3844,
      "Ġsha": 3845,
      "Ġshar": 3846,
      "Ġshort": 3847,
      "Ġshare": 3848,
      "Ġthin": 3849,
      "Ġthom": 3850,
      "Ġthro": 3851,
      "pects": 3852,
      "Ġpredi": 3853,
      "Ġpremi": 3854,
      "tively": 3855,
      "Ġtrus": 3856,
      "Ġtrade": 3857,
      "istry": 3858,
      "scape": 3859,
      "Ġalb": 3860,
      "Ġalum": 3861,
      "Ġhear": 3862,
      "Ġhere": 3863,
      "Ġhealth": 3864,
      "Ġacade": 3865,
      "Ġaccommod": 3866,
      "Ġnear": 3867,
      "Ġneigh": 3868,
      "Ġnecess": 3869,
      "Ġcomput": 3870,
      "Ġpod": 3871,
      "Ġlike": 3872,
      "Ġlicen": 3873,
      "aged": 3874,
      "aper": 3875,
      "apes": 3876,
      "Ġparag": 3877,
      "Ġparent": 3878,
      "Ġexplor": 3879,
      "Ġsoft": 3880,
      "Ġsoci": 3881,
      "Ġappreci": 3882,
      "Ġbound": 3883,
      "space": 3884,
      "Ġorigin": 3885,
      "Ġtrain": 3886,
      "Ġtravel": 3887,
      "ruction": 3888,
      "Ġopen": 3889,
      "pson": 3890,
      "Ġprison": 3891,
      "Ġrepublic": 3892,
      "Ġperio": 3893,
      "ville": 3894,
      "vention": 3895,
      "sers": 3896,
      "rald": 3897,
      "rals": 3898,
      "Ġsav": 3899,
      "Ġfeel": 3900,
      "Ġsubscrib": 3901,
      "Ġworld": 3902,
      "Ġnote": 3903,
      "Ġnovel": 3904,
      "field": 3905,
      "ocol": 3906,
      "Ġplat": 3907,
      "Ġplug": 3908,
      "Ġreco": 3909,
      "Ġintern": 3910,
      "matic": 3911,
      "Ġchem": 3912,
      "Ġcommon": 3913,
      "Ġcommun": 3914,
      "Ġcommission": 3915,
      "Ġcommunic": 3916,
      "Ġresul": 3917,
      "Ġresol": 3918,
      "Ġresist": 3919,
      "Ġguaran": 3920,
      "lands": 3921,
      "Ġhit": 3922,
      "Ġcorn": 3923,
      "Ġcorpor": 3924,
      "Ġsurve": 3925,
      "Ġsurge": 3926,
      "Ġbud": 3927,
      "rical": 3928,
      "Ġcolla": 3929,
      "Ġassist": 3930,
      "Ġminim": 3931,
      "Ġclin": 3932,
      "Ġflow": 3933,
      "Ġbrow": 3934,
      "Ġbrook": 3935,
      "versity": 3936,
      "Ġimplement": 3937,
      "Ġbrad": 3938,
      "Ġip": 3939,
      "Ġira": 3940,
      "Ġfind": 3941,
      "enced": 3942,
      "Ġveter": 3943,
      "Ġmont": 3944,
      "Ġfound": 3945,
      "Ġobtain": 3946,
      "Ġaccu": 3947,
      "Ġaccount": 3948,
      "Ġagree": 3949,
      "ongs": 3950,
      "Ġhaw": 3951,
      "Ġsynt": 3952,
      "Ġconfir": 3953,
      "Ġdiscip": 3954,
      "Ġspecific": 3955,
      "aching": 3956,
      "mented": 3957,
      "Ġbelie": 3958,
      "Ġincor": 3959,
      "Ġharm": 3960,
      "Ġdesk": 3961,
      "Ġdesig": 3962,
      "lington": 3963,
      "Ġnews": 3964,
      "hood": 3965,
      "marks": 3966,
      "Ġupgr": 3967,
      "Ġclose": 3968,
      "Ġski": 3969,
      "ography": 3970,
      "Ġpubl": 3971,
      "Ġinspe": 3972,
      "Ġattack": 3973,
      "Ġattach": 3974,
      "Ġoccasion": 3975,
      "Ġdecor": 3976,
      "Ġdefin": 3977,
      "Ġdraw": 3978,
      "Ġorganis": 3979,
      "Ġremain": 3980,
      "Ġconcent": 3981,
      "Ġdepen": 3982,
      "Ġlegis": 3983,
      "ject": 3984,
      "Ġeffic": 3985,
      "Ġsignific": 3986,
      "Ġtime": 3987,
      "Ġbenef": 3988,
      "Ġrelig": 3989,
      "Ġrelations": 3990,
      "Ġrestri": 3991,
      "Ġrespons": 3992,
      "Ġhighl": 3993,
      "Ġwind": 3994,
      "Ġviol": 3995,
      "Ġvisit": 3996,
      "Ġexception": 3997,
      "Ġdiffic": 3998,
      "Ġprincip": 3999,
      "Ġafter": 4000,
      "Ġaffe": 4001,
      "Ġtax": 4002,
      "Ġunderst": 4003,
      "Ġcatalog": 4004,
      "Ġindivid": 4005,
      "books": 4006,
      "Ġeditor": 4007,
      "Ġbask": 4008,
      "Ġlabor": 4009,
      "Ġscreen": 4010,
      "Ġscreens": 4011,
      "Ġassess": 4012,
      "Ġclassi": 4013,
      "Ġmicro": 4014,
      "titude": 4015,
      "Ġindepen": 4016,
      "Ġfavor": 4017,
      "Ġtempor": 4018,
      "Ġhelp": 4019,
      "Ġautomo": 4020,
      "Ġillust": 4021,
      "Ġscienti": 4022,
      "Ġmsg": 4023,
      "Ġfrank": 4024,
      "Ġprofession": 4025,
      "Ġhyd": 4026,
      "Ġhosp": 4027,
      "Ġlouis": 4028,
      "Ġnatural": 4029,
      "Ġdownload": 4030,
      "Ġcompeti": 4031,
      "Ġmeasure": 4032,
      "Ġpartners": 4033,
      "Ġschedu": 4034,
      "Ġsitu": 4035,
      "verage": 4036,
      "Ġstock": 4037,
      "Ġindust": 4038,
      "Ġgraphic": 4039,
      "Ġcabin": 4040,
      "Ġessenti": 4041,
      "Ġchampions": 4042,
      "Ġachieve": 4043,
      "Ġbehavi": 4044,
      "Ġpharma": 4045,
      "Ġrecommend": 4046,
      "Ġjohn": 4047,
      "Ġutili": 4048,
      "Ġimprove": 4049,
      "Ġeffective": 4050,
      "Ġadvertise": 4051,
      "Ġcivil": 4052,
      "Ġsyste": 4053,
      "Ġpsy": 4054,
      "idential": 4055,
      "Ġwonder": 4056,
      "Ġsuccess": 4057,
      "Ġarrange": 4058,
      "Ġalterna": 4059,
      "Ġrecogn": 4060,
      "Ġdiscuss": 4061,
      "Ġaccomp": 4062,
      "Ġinflu": 4063,
      "Ġsecret": 4064,
      "Ġestablish": 4065,
      "Ġscholars": 4066,
      "Ġenviron": 4067,
      "3963": 4068,
      "2619": 4069,
      "Ġ6000": 4070,
      "Ġ9000": 4071,
      "Ġ7000": 4072,
      "Ġ5000": 4073,
      "Ġ8000": 4074,
      "0873": 4075,
      "134": 4076,
      "1903": 4077,
      "3211": 4078,
      "1049": 4079,
      "3736": 4080,
      "6965": 4081,
      "9652": 4082,
      "8449": 4083,
      "9460": 4084,
      "0436": 4085,
      "0997": 4086,
      "4259": 4087,
      "4993": 4088,
      "5376": 4089,
      "6808": 4090,
      "aq": 4091,
      "aver": 4092,
      "action": 4093,
      "app": 4094,
      "aid": 4095,
      "aff": 4096,
      "aust": 4097,
      "ault": 4098,
      "actions": 4099,
      "acts": 4100,
      "aho": 4101,
      "bb": 4102,
      "bc": 4103,
      "bon": 4104,
      "band": 4105,
      "bia": 4106,
      "bag": 4107,
      "bile": 4108,
      "bric": 4109,
      "bility": 4110,
      "cu": 4111,
      "card": 4112,
      "cil": 4113,
      "cam": 4114,
      "cuse": 4115,
      "coming": 4116,
      "dp": 4117,
      "dom": 4118,
      "dth": 4119,
      "dam": 4120,
      "eg": 4121,
      "ex": 4122,
      "ey": 4123,
      "ever": 4124,
      "eps": 4125,
      "eved": 4126,
      "eval": 4127,
      "fing": 4128,
      "fully": 4129,
      "fol": 4130,
      "fies": 4131,
      "fare": 4132,
      "fast": 4133,
      "fying": 4134,
      "gn": 4135,
      "gp": 4136,
      "gor": 4137,
      "gre": 4138,
      "gment": 4139,
      "got": 4140,
      "gage": 4141,
      "gory": 4142,
      "ground": 4143,
      "hz": 4144,
      "hat": 4145,
      "hab": 4146,
      "hony": 4147,
      "house": 4148,
      "ii": 4149,
      "ix": 4150,
      "ime": 4151,
      "ief": 4152,
      "iration": 4153,
      "ien": 4154,
      "iel": 4155,
      "itive": 4156,
      "ises": 4157,
      "ices": 4158,
      "ites": 4159,
      "imed": 4160,
      "iries": 4161,
      "ield": 4162,
      "idity": 4163,
      "ji": 4164,
      "jected": 4165,
      "ka": 4166,
      "ky": 4167,
      "kon": 4168,
      "kin": 4169,
      "ken": 4170,
      "kers": 4171,
      "lot": 4172,
      "lation": 4173,
      "lam": 4174,
      "my": 4175,
      "mas": 4176,
      "mine": 4177,
      "mpe": 4178,
      "mary": 4179,
      "mous": 4180,
      "more": 4181,
      "mond": 4182,
      "mouth": 4183,
      "night": 4184,
      "nia": 4185,
      "nings": 4186,
      "nowled": 4187,
      "ost": 4188,
      "oid": 4189,
      "oles": 4190,
      "ointed": 4191,
      "pi": 4192,
      "pad": 4193,
      "pro": 4194,
      "pes": 4195,
      "put": 4196,
      "pers": 4197,
      "puts": 4198,
      "ql": 4199,
      "rant": 4200,
      "rors": 4201,
      "rup": 4202,
      "rings": 4203,
      "rint": 4204,
      "rong": 4205,
      "rison": 4206,
      "sa": 4207,
      "shi": 4208,
      "sis": 4209,
      "sted": 4210,
      "tk": 4211,
      "tp": 4212,
      "tv": 4213,
      "tar": 4214,
      "tan": 4215,
      "top": 4216,
      "ture": 4217,
      "tors": 4218,
      "tts": 4219,
      "tage": 4220,
      "tings": 4221,
      "tops": 4222,
      "ura": 4223,
      "uter": 4224,
      "uters": 4225,
      "uel": 4226,
      "uay": 4227,
      "utic": 4228,
      "uding": 4229,
      "unts": 4230,
      "uries": 4231,
      "va": 4232,
      "vc": 4233,
      "vo": 4234,
      "vs": 4235,
      "vy": 4236,
      "vor": 4237,
      "vated": 4238,
      "vals": 4239,
      "vative": 4240,
      "wa": 4241,
      "wan": 4242,
      "wall": 4243,
      "wel": 4244,
      "ways": 4245,
      "wood": 4246,
      "ynam": 4247,
      "zer": 4248,
      "zes": 4249,
      "zil": 4250,
      "Ġft": 4251,
      "Ġnt": 4252,
      "Ġdistance": 4253,
      "Ġner": 4254,
      "Ġted": 4255,
      "Ġie": 4256,
      "Ġug": 4257,
      "Ġign": 4258,
      "Ġves": 4259,
      "Ġult": 4260,
      "Ġcf": 4261,
      "Ġcp": 4262,
      "Ġct": 4263,
      "Ġcu": 4264,
      "Ġcad": 4265,
      "Ġcig": 4266,
      "Ġcin": 4267,
      "Ġcase": 4268,
      "Ġcate": 4269,
      "Ġcow": 4270,
      "Ġcut": 4271,
      "Ġcity": 4272,
      "Ġcia": 4273,
      "Ġcry": 4274,
      "Ġcup": 4275,
      "Ġcrow": 4276,
      "Ġcott": 4277,
      "Ġsb": 4278,
      "Ġsr": 4279,
      "Ġsad": 4280,
      "Ġson": 4281,
      "Ġsqu": 4282,
      "Ġspar": 4283,
      "Ġside": 4284,
      "Ġsay": 4285,
      "Ġsie": 4286,
      "Ġsain": 4287,
      "Ġsage": 4288,
      "Ġsile": 4289,
      "Ġsite": 4290,
      "lets": 4291,
      "leman": 4292,
      "Ġrf": 4293,
      "Ġrp": 4294,
      "Ġrr": 4295,
      "Ġrw": 4296,
      "Ġron": 4297,
      "Ġrick": 4298,
      "Ġrack": 4299,
      "Ġris": 4300,
      "Ġring": 4301,
      "Ġrat": 4302,
      "Ġray": 4303,
      "Ġrain": 4304,
      "Ġrac": 4305,
      "Ġrub": 4306,
      "Ġrare": 4307,
      "Ġrang": 4308,
      "Ġrati": 4309,
      "Ġaa": 4310,
      "Ġack": 4311,
      "Ġade": 4312,
      "Ġaward": 4313,
      "Ġabo": 4314,
      "Ġari": 4315,
      "Ġaim": 4316,
      "Ġala": 4317,
      "Ġaci": 4318,
      "Ġaug": 4319,
      "Ġavi": 4320,
      "Ġash": 4321,
      "Ġama": 4322,
      "Ġamen": 4323,
      "Ġaler": 4324,
      "test": 4325,
      "tent": 4326,
      "arc": 4327,
      "arance": 4328,
      "arily": 4329,
      "cel": 4330,
      "cence": 4331,
      "cers": 4332,
      "ano": 4333,
      "ander": 4334,
      "anded": 4335,
      "ancing": 4336,
      "Ġpm": 4337,
      "Ġpate": 4338,
      "Ġpet": 4339,
      "Ġput": 4340,
      "Ġphen": 4341,
      "Ġpush": 4342,
      "fts": 4343,
      "aded": 4344,
      "Ġtc": 4345,
      "Ġts": 4346,
      "Ġty": 4347,
      "Ġtan": 4348,
      "Ġtin": 4349,
      "Ġtick": 4350,
      "Ġtas": 4351,
      "Ġtab": 4352,
      "Ġtak": 4353,
      "Ġtire": 4354,
      "Ġtutor": 4355,
      "Ġml": 4356,
      "Ġmr": 4357,
      "Ġmight": 4358,
      "Ġmand": 4359,
      "Ġmit": 4360,
      "Ġmas": 4361,
      "Ġmir": 4362,
      "Ġmpe": 4363,
      "Ġmary": 4364,
      "Ġmust": 4365,
      "Ġmons": 4366,
      "Ġmile": 4367,
      "Ġmore": 4368,
      "Ġmuse": 4369,
      "Ġmich": 4370,
      "Ġmunic": 4371,
      "Ġmaster": 4372,
      "ont": 4373,
      "onia": 4374,
      "onent": 4375,
      "onna": 4376,
      "onents": 4377,
      "cked": 4378,
      "sex": 4379,
      "section": 4380,
      "sess": 4381,
      "sence": 4382,
      "sents": 4383,
      "sels": 4384,
      "sexual": 4385,
      "Ġsty": 4386,
      "Ġstation": 4387,
      "Ġstran": 4388,
      "Ġstars": 4389,
      "Ġstati": 4390,
      "Ġstake": 4391,
      "Ġstaff": 4392,
      "igration": 4393,
      "ighter": 4394,
      "hens": 4395,
      "hema": 4396,
      "heast": 4397,
      "inance": 4398,
      "inum": 4399,
      "inions": 4400,
      "inten": 4401,
      "iness": 4402,
      "ortion": 4403,
      "orter": 4404,
      "orters": 4405,
      "orge": 4406,
      "order": 4407,
      "ording": 4408,
      "orders": 4409,
      "orough": 4410,
      "ram": 4411,
      "raft": 4412,
      "rael": 4413,
      "rali": 4414,
      "rating": 4415,
      "ques": 4416,
      "icking": 4417,
      "Ġqui": 4418,
      "Ġquiz": 4419,
      "Ġquanti": 4420,
      "Ġmod": 4421,
      "Ġmov": 4422,
      "Ġmole": 4423,
      "Ġmost": 4424,
      "Ġmoti": 4425,
      "Ġmoment": 4426,
      "Ġmodu": 4427,
      "Ġmold": 4428,
      "state": 4429,
      "station": 4430,
      "stics": 4431,
      "met": 4432,
      "tial": 4433,
      "tium": 4434,
      "times": 4435,
      "Ġfw": 4436,
      "Ġfle": 4437,
      "Ġfly": 4438,
      "Ġfight": 4439,
      "Ġfer": 4440,
      "Ġfing": 4441,
      "Ġfot": 4442,
      "Ġfut": 4443,
      "Ġfant": 4444,
      "Ġfine": 4445,
      "Ġfest": 4446,
      "Ġfru": 4447,
      "Ġfib": 4448,
      "Ġfill": 4449,
      "Ġfile": 4450,
      "Ġfish": 4451,
      "Ġfather": 4452,
      "wise": 4453,
      "Ġbm": 4454,
      "Ġbon": 4455,
      "Ġbin": 4456,
      "Ġband": 4457,
      "Ġbright": 4458,
      "Ġbot": 4459,
      "Ġbes": 4460,
      "Ġbol": 4461,
      "Ġbac": 4462,
      "Ġbry": 4463,
      "Ġbug": 4464,
      "Ġbak": 4465,
      "Ġbare": 4466,
      "Ġbank": 4467,
      "Ġbah": 4468,
      "Ġbott": 4469,
      "Ġbacter": 4470,
      "Ġred": 4471,
      "Ġreti": 4472,
      "Ġrent": 4473,
      "Ġrealt": 4474,
      "Ġreport": 4475,
      "Ġrepe": 4476,
      "Ġremin": 4477,
      "Ġremark": 4478,
      "Ġrender": 4479,
      "Ġrelev": 4480,
      "Ġrehab": 4481,
      "dies": 4482,
      "Ġsteve": 4483,
      "dered": 4484,
      "dents": 4485,
      "omy": 4486,
      "tering": 4487,
      "rop": 4488,
      "road": 4489,
      "rooms": 4490,
      "rogen": 4491,
      "Ġthem": 4492,
      "Ġtherap": 4493,
      "Ġtheore": 4494,
      "andon": 4495,
      "ameter": 4496,
      "Ġtoy": 4497,
      "Ġtour": 4498,
      "Ġtourn": 4499,
      "Ġtodd": 4500,
      "ered": 4501,
      "erial": 4502,
      "erman": 4503,
      "alf": 4504,
      "alo": 4505,
      "Ġforb": 4506,
      "Ġfort": 4507,
      "Ġforest": 4508,
      "Ġformer": 4509,
      "Ġforec": 4510,
      "Ġforgot": 4511,
      "rey": 4512,
      "rely": 4513,
      "rete": 4514,
      "rest": 4515,
      "reme": 4516,
      "rent": 4517,
      "rees": 4518,
      "rence": 4519,
      "repre": 4520,
      "Ġink": 4521,
      "Ġinfor": 4522,
      "Ġinsp": 4523,
      "Ġinvi": 4524,
      "Ġinfe": 4525,
      "Ġincen": 4526,
      "Ġconc": 4527,
      "Ġconse": 4528,
      "Ġconser": 4529,
      "5045": 4530,
      "Ġslight": 4531,
      "Ġslov": 4532,
      "Ġmana": 4533,
      "Ġmanage": 4534,
      "Ġatom": 4535,
      "Ġattor": 4536,
      "Ġattitude": 4537,
      "Ġswim": 4538,
      "Ġswitch": 4539,
      "Ġwis": 4540,
      "Ġwire": 4541,
      "Ġwill": 4542,
      "Ġwild": 4543,
      "Ġwiki": 4544,
      "Ġwilli": 4545,
      "Ġgb": 4546,
      "Ġgm": 4547,
      "Ġgn": 4548,
      "Ġgs": 4549,
      "Ġgate": 4550,
      "Ġgreat": 4551,
      "Ġgun": 4552,
      "Ġget": 4553,
      "Ġgas": 4554,
      "Ġgam": 4555,
      "Ġgap": 4556,
      "Ġgent": 4557,
      "Ġgib": 4558,
      "Ġgalle": 4559,
      "Ġgather": 4560,
      "Ġgerman": 4561,
      "0089": 4562,
      "ider": 4563,
      "Ġshir": 4564,
      "Ġprob": 4565,
      "Ġproc": 4566,
      "Ġprofi": 4567,
      "Ġproble": 4568,
      "Ġproud": 4569,
      "Ġprogress": 4570,
      "Ġproced": 4571,
      "iso": 4572,
      "isters": 4573,
      "istered": 4574,
      "Ġpast": 4575,
      "Ġpath": 4576,
      "Ġpair": 4577,
      "Ġpasse": 4578,
      "gles": 4579,
      "Ġconsu": 4580,
      "Ġconsol": 4581,
      "Ġconsist": 4582,
      "Ġconscious": 4583,
      "Ġports": 4584,
      "Ġportra": 4585,
      "Ġportug": 4586,
      "Ġana": 4587,
      "Ġanne": 4588,
      "ula": 4589,
      "uling": 4590,
      "ulder": 4591,
      "ulne": 4592,
      "atar": 4593,
      "rid": 4594,
      "rier": 4595,
      "riers": 4596,
      "rity": 4597,
      "ritor": 4598,
      "ridge": 4599,
      "vering": 4600,
      "Ġadvent": 4601,
      "Ġretaile": 4602,
      "Ġrecent": 4603,
      "Ġrecept": 4604,
      "Ġadvant": 4605,
      "Ġadvoc": 4606,
      "Ġcontine": 4607,
      "urb": 4608,
      "urance": 4609,
      "urer": 4610,
      "Ġcontrovers": 4611,
      "Ġfaq": 4612,
      "Ġfabric": 4613,
      "Ġhd": 4614,
      "Ġhack": 4615,
      "Ġhall": 4616,
      "Ġhab": 4617,
      "Ġhou": 4618,
      "Ġhay": 4619,
      "Ġhug": 4620,
      "Ġhund": 4621,
      "Ġhang": 4622,
      "Ġhyp": 4623,
      "Ġspa": 4624,
      "Ġspy": 4625,
      "Ġsport": 4626,
      "Ġspot": 4627,
      "Ġspok": 4628,
      "Ġcarry": 4629,
      "Ġcarto": 4630,
      "Ġroomm": 4631,
      "Ġrobo": 4632,
      "Ġrough": 4633,
      "mentation": 4634,
      "Ġcell": 4635,
      "Ġlt": 4636,
      "Ġlon": 4637,
      "Ġliste": 4638,
      "Ġline": 4639,
      "Ġlie": 4640,
      "Ġlone": 4641,
      "Ġlong": 4642,
      "Ġlink": 4643,
      "Ġlamb": 4644,
      "2671": 4645,
      "2775": 4646,
      "3946": 4647,
      "2846": 4648,
      "1868": 4649,
      "Ġot": 4650,
      "Ġox": 4651,
      "Ġoz": 4652,
      "Ġour": 4653,
      "Ġoct": 4654,
      "Ġoli": 4655,
      "owing": 4656,
      "Ġcast": 4657,
      "Ġcamc": 4658,
      "Ġcalend": 4659,
      "utional": 4660,
      "Ġlarge": 4661,
      "Ġsmalle": 4662,
      "Ġsmith": 4663,
      "backs": 4664,
      "2270": 4665,
      "othes": 4666,
      "Ġder": 4667,
      "Ġdeser": 4668,
      "Ġdeale": 4669,
      "Ġdefe": 4670,
      "Ġdeath": 4671,
      "Ġdeep": 4672,
      "Ġdeuts": 4673,
      "Ġdescription": 4674,
      "Ġdetail": 4675,
      "Ġpic": 4676,
      "Ġpie": 4677,
      "Ġpier": 4678,
      "Ġpill": 4679,
      "Ġeb": 4680,
      "Ġes": 4681,
      "Ġet": 4682,
      "Ġeve": 4683,
      "Ġess": 4684,
      "Ġeli": 4685,
      "Ġeven": 4686,
      "Ġema": 4687,
      "Ġemer": 4688,
      "Ġemb": 4689,
      "Ġevide": 4690,
      "Ġevent": 4691,
      "ularly": 4692,
      "Ġangel": 4693,
      "esse": 4694,
      "ester": 4695,
      "Ġww": 4696,
      "Ġwy": 4697,
      "Ġwra": 4698,
      "Ġwes": 4699,
      "Ġwant": 4700,
      "Ġway": 4701,
      "Ġwag": 4702,
      "Ġwest": 4703,
      "Ġware": 4704,
      "Ġwome": 4705,
      "Ġwoo": 4706,
      "ense": 4707,
      "encing": 4708,
      "encies": 4709,
      "itam": 4710,
      "ither": 4711,
      "itable": 4712,
      "itude": 4713,
      "icy": 4714,
      "icient": 4715,
      "icians": 4716,
      "Ġnh": 4717,
      "Ġny": 4718,
      "Ġnar": 4719,
      "Ġnon": 4720,
      "Ġnow": 4721,
      "Ġnic": 4722,
      "Ġnas": 4723,
      "Ġnam": 4724,
      "Ġnail": 4725,
      "Ġniger": 4726,
      "Ġdd": 4727,
      "Ġdad": 4728,
      "Ġdow": 4729,
      "Ġdos": 4730,
      "Ġdog": 4731,
      "Ġday": 4732,
      "Ġdry": 4733,
      "Ġdub": 4734,
      "Ġdod": 4735,
      "Ġdome": 4736,
      "Ġdress": 4737,
      "Ġdav": 4738,
      "Ġdark": 4739,
      "Ġdynam": 4740,
      "unte": 4741,
      "unger": 4742,
      "unted": 4743,
      "under": 4744,
      "unded": 4745,
      "ola": 4746,
      "olis": 4747,
      "olute": 4748,
      "iling": 4749,
      "ilies": 4750,
      "portun": 4751,
      "ctr": 4752,
      "ctures": 4753,
      "Ġvc": 4754,
      "Ġvp": 4755,
      "Ġvs": 4756,
      "Ġvar": 4757,
      "Ġvin": 4758,
      "Ġvide": 4759,
      "Ġvary": 4760,
      "Ġvio": 4761,
      "Ġvulne": 4762,
      "Ġvitam": 4763,
      "using": 4764,
      "Ġjon": 4765,
      "Ġjen": 4766,
      "Ġjim": 4767,
      "Ġjap": 4768,
      "Ġjav": 4769,
      "Ġjosh": 4770,
      "Ġexer": 4771,
      "Ġexci": 4772,
      "Ġexist": 4773,
      "Ġexamp": 4774,
      "Ġexpect": 4775,
      "Ġexact": 4776,
      "Ġexemp": 4777,
      "asis": 4778,
      "asses": 4779,
      "asons": 4780,
      "Ġdise": 4781,
      "Ġdiction": 4782,
      "Ġdiam": 4783,
      "Ġdialog": 4784,
      "gent": 4785,
      "imon": 4786,
      "ional": 4787,
      "char": 4788,
      "ching": 4789,
      "chant": 4790,
      "ama": 4791,
      "ami": 4792,
      "amps": 4793,
      "Ġcome": 4794,
      "Ġcoal": 4795,
      "Ġcool": 4796,
      "Ġcoast": 4797,
      "Ġcoope": 4798,
      "utors": 4799,
      "uther": 4800,
      "Ġki": 4801,
      "Ġker": 4802,
      "Ġkel": 4803,
      "Ġkid": 4804,
      "Ġkent": 4805,
      "Ġkiss": 4806,
      "Ġkore": 4807,
      "Ġkni": 4808,
      "Ġchick": 4809,
      "Ġchance": 4810,
      "Ġchur": 4811,
      "Ġchose": 4812,
      "Ġsudden": 4813,
      "lah": 4814,
      "lai": 4815,
      "ably": 4816,
      "Ġsep": 4817,
      "Ġsear": 4818,
      "Ġseve": 4819,
      "Ġsequ": 4820,
      "Ġseat": 4821,
      "Ġsemin": 4822,
      "Ġseason": 4823,
      "Ġsearch": 4824,
      "Ġsexual": 4825,
      "Ġcommer": 4826,
      "Ġcomfort": 4827,
      "Ġenqu": 4828,
      "Ġenable": 4829,
      "Ġenem": 4830,
      "Ġenlar": 4831,
      "log": 4832,
      "lie": 4833,
      "lier": 4834,
      "like": 4835,
      "life": 4836,
      "liament": 4837,
      "Ġlea": 4838,
      "Ġleon": 4839,
      "Ġlevel": 4840,
      "0414": 4841,
      "pper": 4842,
      "Ġtee": 4843,
      "Ġten": 4844,
      "Ġteen": 4845,
      "Ġteac": 4846,
      "Ġtenn": 4847,
      "Ġtempe": 4848,
      "ership": 4849,
      "Ġmaj": 4850,
      "Ġmater": 4851,
      "Ġmake": 4852,
      "Ġmaxim": 4853,
      "osp": 4854,
      "osal": 4855,
      "osit": 4856,
      "osite": 4857,
      "idation": 4858,
      "anta": 4859,
      "Ġment": 4860,
      "Ġmedia": 4861,
      "Ġmexic": 4862,
      "Ġshad": 4863,
      "Ġshut": 4864,
      "Ġthick": 4865,
      "Ġthreat": 4866,
      "Ġthous": 4867,
      "Ġthough": 4868,
      "Ġthink": 4869,
      "Ġthanks": 4870,
      "Ġthorough": 4871,
      "pedia": 4872,
      "Ġprep": 4873,
      "Ġpres": 4874,
      "Ġpress": 4875,
      "Ġprevi": 4876,
      "Ġpreser": 4877,
      "Ġpreview": 4878,
      "Ġprevent": 4879,
      "Ġprecise": 4880,
      "Ġpregn": 4881,
      "Ġarc": 4882,
      "Ġart": 4883,
      "Ġarth": 4884,
      "Ġartic": 4885,
      "Ġarbit": 4886,
      "Ġtrin": 4887,
      "Ġtrust": 4888,
      "istic": 4889,
      "istics": 4890,
      "sche": 4891,
      "Ġuns": 4892,
      "Ġunlike": 4893,
      "Ġalign": 4894,
      "Ġalber": 4895,
      "Ġalph": 4896,
      "Ġalban": 4897,
      "Ġalloc": 4898,
      "Ġalgor": 4899,
      "Ġhen": 4900,
      "Ġhero": 4901,
      "Ġheav": 4902,
      "Ġacro": 4903,
      "Ġbeg": 4904,
      "Ġbest": 4905,
      "Ġbeat": 4906,
      "Ġbeast": 4907,
      "Ġbeau": 4908,
      "Ġbecome": 4909,
      "orship": 4910,
      "Ġneck": 4911,
      "Ġneed": 4912,
      "Ġnever": 4913,
      "Ġnego": 4914,
      "ansas": 4915,
      "Ġcompo": 4916,
      "Ġcompan": 4917,
      "Ġcompla": 4918,
      "Ġcompli": 4919,
      "Ġcomplic": 4920,
      "Ġcompile": 4921,
      "Ġcompati": 4922,
      "Ġcomplex": 4923,
      "aco": 4924,
      "ached": 4925,
      "Ġpoin": 4926,
      "Ġpool": 4927,
      "Ġpoet": 4928,
      "Ġpoten": 4929,
      "Ġlive": 4930,
      "Ġliver": 4931,
      "Ġliber": 4932,
      "Ġlife": 4933,
      "ague": 4934,
      "key": 4935,
      "apers": 4936,
      "apolis": 4937,
      "Ġparliament": 4938,
      "Ġsco": 4939,
      "Ġscot": 4940,
      "Ġscript": 4941,
      "Ġlove": 4942,
      "Ġexpans": 4943,
      "Ġexplic": 4944,
      "Ġexpress": 4945,
      "Ġyu": 4946,
      "Ġyor": 4947,
      "Ġyour": 4948,
      "Ġimag": 4949,
      "Ġimmedi": 4950,
      "Ġsole": 4951,
      "Ġsoon": 4952,
      "Ġsoul": 4953,
      "Ġsour": 4954,
      "Ġsound": 4955,
      "llig": 4956,
      "uba": 4957,
      "Ġmarc": 4958,
      "Ġmart": 4959,
      "Ġmarri": 4960,
      "Ġmaria": 4961,
      "Ġmarsh": 4962,
      "Ġappoint": 4963,
      "Ġbox": 4964,
      "Ġboot": 4965,
      "spon": 4966,
      "nsus": 4967,
      "nsity": 4968,
      "nship": 4969,
      "Ġord": 4970,
      "Ġorder": 4971,
      "Ġorient": 4972,
      "Ġtraile": 4973,
      "esting": 4974,
      "Ġopportun": 4975,
      "Ġprint": 4976,
      "Ġrepla": 4977,
      "Ġreplic": 4978,
      "Ġrepair": 4979,
      "Ġreplace": 4980,
      "Ġphp": 4981,
      "Ġphra": 4982,
      "Ġperce": 4983,
      "Ġperfor": 4984,
      "Ġperfe": 4985,
      "Ġperip": 4986,
      "Ġpercent": 4987,
      "rible": 4988,
      "Ġspee": 4989,
      "ibilities": 4990,
      "vile": 4991,
      "rally": 4992,
      "Ġweap": 4993,
      "shot": 4994,
      "shops": 4995,
      "shots": 4996,
      "Ġsaf": 4997,
      "Ġsau": 4998,
      "Ġsale": 4999,
      "Ġsafe": 5000,
      "Ġfeb": 5001,
      "Ġfew": 5002,
      "Ġfede": 5003,
      "Ġfeed": 5004,
      "Ġfema": 5005,
      "Ġsubmit": 5006,
      "Ġsubscription": 5007,
      "Ġsubsi": 5008,
      "Ġsubsequ": 5009,
      "Ġworth": 5010,
      "pton": 5011,
      "Ġlaun": 5012,
      "Ġlaugh": 5013,
      "Ġlaws": 5014,
      "fier": 5015,
      "Ġrecre": 5016,
      "Ġrecru": 5017,
      "Ġrecord": 5018,
      "Ġinterfa": 5019,
      "Ġinterview": 5020,
      "Ġinterpre": 5021,
      "cling": 5022,
      "Ġcommo": 5023,
      "oney": 5024,
      "Ġresour": 5025,
      "Ġrespective": 5026,
      "Ġguy": 5027,
      "Ġguard": 5028,
      "Ġguit": 5029,
      "Ġguil": 5030,
      "Ġguest": 5031,
      "Ġjoy": 5032,
      "Ġjose": 5033,
      "ferred": 5034,
      "Ġhim": 5035,
      "Ġhist": 5036,
      "Ġhistor": 5037,
      "Ġcord": 5038,
      "Ġcorp": 5039,
      "Ġsurfa": 5040,
      "Ġsurpri": 5041,
      "Ġsurround": 5042,
      "Ġbuff": 5043,
      "Ġgenes": 5044,
      "ricult": 5045,
      "Ġuk": 5046,
      "Ġuse": 5047,
      "Ġuser": 5048,
      "Ġcolon": 5049,
      "Ġcolor": 5050,
      "Ġcolumb": 5051,
      "Ġcolumn": 5052,
      "Ġassumption": 5053,
      "Ġmini": 5054,
      "Ġclar": 5055,
      "Ġclus": 5056,
      "Ġclub": 5057,
      "Ġclimb": 5058,
      "Ġflu": 5059,
      "Ġflash": 5060,
      "Ġbroch": 5061,
      "Ġbrother": 5062,
      "Ġregul": 5063,
      "Ġregist": 5064,
      "Ġtranspar": 5065,
      "Ġtransport": 5066,
      "Ġtransform": 5067,
      "Ġbran": 5068,
      "Ġbring": 5069,
      "Ġbrun": 5070,
      "Ġdiscus": 5071,
      "Ġdisclai": 5072,
      "Ġiv": 5073,
      "Ġite": 5074,
      "Ġice": 5075,
      "Ġfinish": 5076,
      "aled": 5077,
      "alent": 5078,
      "Ġvent": 5079,
      "Ġvehic": 5080,
      "Ġabstra": 5081,
      "Ġpee": 5082,
      "Ġpeti": 5083,
      "Ġpeters": 5084,
      "Ġpeop": 5085,
      "Ġpeace": 5086,
      "Ġplain": 5087,
      "Ġmonth": 5088,
      "Ġfour": 5089,
      "Ġblank": 5090,
      "Ġobl": 5091,
      "Ġobvi": 5092,
      "Ġobjective": 5093,
      "Ġaccre": 5094,
      "Ġaccording": 5095,
      "rane": 5096,
      "Ġagain": 5097,
      "Ġagricult": 5098,
      "Ġhazard": 5099,
      "Ġhour": 5100,
      "visor": 5101,
      "Ġsymbo": 5102,
      "Ġintegra": 5103,
      "Ġintellig": 5104,
      "Ġconflic": 5105,
      "Ġdisable": 5106,
      "Ġpriv": 5107,
      "Ġprior": 5108,
      "Ġprivile": 5109,
      "Ġbelief": 5110,
      "Ġhart": 5111,
      "Ġterritor": 5112,
      "Ġouts": 5113,
      "Ġoutcome": 5114,
      "Ġoutdo": 5115,
      "Ġnewsp": 5116,
      "athy": 5117,
      "athan": 5118,
      "ailable": 5119,
      "Ġisa": 5120,
      "Ġisol": 5121,
      "Ġislam": 5122,
      "Ġisrael": 5123,
      "Ġupload": 5124,
      "Ġclos": 5125,
      "Ġclou": 5126,
      "Ġskir": 5127,
      "Ġskill": 5128,
      "Ġservi": 5129,
      "Ġserious": 5130,
      "Ġmatt": 5131,
      "Ġmathema": 5132,
      "Ġfift": 5133,
      "Ġgeographic": 5134,
      "Ġgreen": 5135,
      "Ġholly": 5136,
      "Ġholid": 5137,
      "Ġcollect": 5138,
      "Ġcollecti": 5139,
      "Ġprompt": 5140,
      "atives": 5141,
      "Ġdistin": 5142,
      "Ġdistri": 5143,
      "Ġclaim": 5144,
      "Ġsenten": 5145,
      "Ġsolar": 5146,
      "Ġsoldi": 5147,
      "Ġpoli": 5148,
      "Ġpoll": 5149,
      "Ġwarri": 5150,
      "Ġwarrant": 5151,
      "phone": 5152,
      "Ġsimp": 5153,
      "Ġsimil": 5154,
      "Ġpublish": 5155,
      "Ġstuff": 5156,
      "Ġstudy": 5157,
      "Ġbarb": 5158,
      "Ġbarg": 5159,
      "Ġbreath": 5160,
      "allet": 5161,
      "resses": 5162,
      "Ġattrib": 5163,
      "Ġdecre": 5164,
      "Ġdecide": 5165,
      "Ġdecis": 5166,
      "Ġdefend": 5167,
      "Ġdrag": 5168,
      "Ġdrain": 5169,
      "Ġdramatic": 5170,
      "Ġkeep": 5171,
      "Ġsecure": 5172,
      "Ġsecond": 5173,
      "Ġsecuri": 5174,
      "derson": 5175,
      "wear": 5176,
      "Ġauthen": 5177,
      "Ġperspective": 5178,
      "Ġmere": 5179,
      "Ġmeta": 5180,
      "Ġmetall": 5181,
      "Ġbrace": 5182,
      "Ġbrazil": 5183,
      "Ġbloom": 5184,
      "Ġconcept": 5185,
      "Ġconstra": 5186,
      "Ġearth": 5187,
      "Ġwater": 5188,
      "Ġwaters": 5189,
      "Ġvalu": 5190,
      "Ġsupple": 5191,
      "Ġengage": 5192,
      "loyd": 5193,
      "loyment": 5194,
      "Ġlegend": 5195,
      "chester": 5196,
      "jects": 5197,
      "Ġeffe": 5198,
      "Ġcandid": 5199,
      "Ġposition": 5200,
      "Ġpossess": 5201,
      "Ġbench": 5202,
      "Ġrestaur": 5203,
      "Ġelse": 5204,
      "Ġelig": 5205,
      "Ġelim": 5206,
      "Ġelder": 5207,
      "Ġwinds": 5208,
      "Ġviet": 5209,
      "Ġexcelle": 5210,
      "Ġexcess": 5211,
      "Ġunivers": 5212,
      "Ġprince": 5213,
      "letin": 5214,
      "Ġafric": 5215,
      "Ġafford": 5216,
      "Ġamong": 5217,
      "Ġaffair": 5218,
      "selves": 5219,
      "Ġstream": 5220,
      "Ġframe": 5221,
      "Ġfragr": 5222,
      "Ġlux": 5223,
      "Ġemo": 5224,
      "Ġnorm": 5225,
      "Ġnorth": 5226,
      "Ġvolunte": 5227,
      "Ġdispat": 5228,
      "Ġknit": 5229,
      "Ġknowled": 5230,
      "Ġtechni": 5231,
      "Ġappropri": 5232,
      "Ġapproxim": 5233,
      "Ġoperation": 5234,
      "ctivity": 5235,
      "rature": 5236,
      "timate": 5237,
      "Ġindian": 5238,
      "Ġgroup": 5239,
      "Ġground": 5240,
      "Ġdaugh": 5241,
      "Ġdrin": 5242,
      "Ġdrug": 5243,
      "Ġjewel": 5244,
      "Ġtexti": 5245,
      "Ġmagaz": 5246,
      "Ġinstruction": 5247,
      "aha": 5248,
      "words": 5249,
      "Ġdirector": 5250,
      "Ġcriter": 5251,
      "Ġcurren": 5252,
      "Ġcurrent": 5253,
      "Ġcustome": 5254,
      "Ġavoid": 5255,
      "Ġphil": 5256,
      "Ġphili": 5257,
      "Ġpurp": 5258,
      "Ġmuslim": 5259,
      "Ġstart": 5260,
      "Ġhoriz": 5261,
      "Ġwell": 5262,
      "Ġextreme": 5263,
      "Ġmarket": 5264,
      "Ġcorrespon": 5265,
      "Ġassemb": 5266,
      "Ġelectric": 5267,
      "Ġelectron": 5268,
      "ooth": 5269,
      "Ġeric": 5270,
      "Ġcertain": 5271,
      "Ġsettle": 5272,
      "Ġruss": 5273,
      "titled": 5274,
      "Ġfriend": 5275,
      "Ġfriends": 5276,
      "Ġbattle": 5277,
      "Ġbutter": 5278,
      "ternal": 5279,
      "Ġformat": 5280,
      "Ġinclude": 5281,
      "Ġfavouri": 5282,
      "Ġlatin": 5283,
      "Ġowners": 5284,
      "Ġcampa": 5285,
      "Ġvirt": 5286,
      "Ġvirgin": 5287,
      "Ġchristian": 5288,
      "Ġenterpri": 5289,
      "Ġentertain": 5290,
      "Ġtempl": 5291,
      "Ġmemor": 5292,
      "Ġthreate": 5293,
      "Ġautomatic": 5294,
      "Ġpersonal": 5295,
      "holders": 5296,
      "Ġcross": 5297,
      "Ġswing": 5298,
      "Ġschool": 5299,
      "Ġtroub": 5300,
      "Ġstrong": 5301,
      "Ġqueens": 5302,
      "Ġfrancis": 5303,
      "Ġbulgar": 5304,
      "Ġrelax": 5305,
      "ditation": 5306,
      "Ġdestro": 5307,
      "Ġepiso": 5308,
      "Ġentrepre": 5309,
      "Ġnetwor": 5310,
      "Ġdownlo": 5311,
      "Ġjackson": 5312,
      "Ġexclusive": 5313,
      "Ġexecu": 5314,
      "Ġcomplete": 5315,
      "Ġlooks": 5316,
      "Ġbroadcast": 5317,
      "Ġhappen": 5318,
      "Ġconfigu": 5319,
      "Ġincreasing": 5320,
      "Ġlyric": 5321,
      "Ġvend": 5322,
      "Ġsix": 5323,
      "Ġsnow": 5324,
      "Ġsnap": 5325,
      "Ġrivers": 5326,
      "Ġroman": 5327,
      "Ġrichards": 5328,
      "Ġpopular": 5329,
      "Ġpotato": 5330,
      "Ġmention": 5331,
      "Ġfundament": 5332,
      "Ġbirth": 5333,
      "Ġattend": 5334,
      "Ġaddress": 5335,
      "Ġaddition": 5336,
      "Ġhousehol": 5337,
      "Ġwallp": 5338,
      "Ġnavig": 5339,
      "Ġdomin": 5340,
      "Ġchange": 5341,
      "Ġsufficient": 5342,
      "Ġendor": 5343,
      "losure": 5344,
      "Ġthumbna": 5345,
      "Ġargu": 5346,
      "Ġtranscri": 5347,
      "Ġpharm": 5348,
      "Ġsubstanti": 5349,
      "Ġrecommen": 5350,
      "Ġjohns": 5351,
      "Ġkeyboard": 5352,
      "Ġinvolve": 5353,
      "Ġannounce": 5354,
      "biles": 5355,
      "Ġsleep": 5356,
      "Ġrapid": 5357,
      "Ġaustrali": 5358,
      "Ġpuzz": 5359,
      "Ġtomato": 5360,
      "sented": 5361,
      "Ġquestion": 5362,
      "Ġmotorcy": 5363,
      "Ġfirm": 5364,
      "Ġbalance": 5365,
      "Ġresearc": 5366,
      "Ġindones": 5367,
      "Ġcondition": 5368,
      "Ġprotocol": 5369,
      "Ġspiritual": 5370,
      "Ġnutri": 5371,
      "Ġdatab": 5372,
      "Ġdoll": 5373,
      "Ġdoug": 5374,
      "ascar": 5375,
      "Ġmaintain": 5376,
      "Ġmeaning": 5377,
      "Ġtradition": 5378,
      "Ġacquis": 5379,
      "Ġlibr": 5380,
      "Ġexpendit": 5381,
      "Ġsatisfa": 5382,
      "Ġabsolute": 5383,
      "Ġsyndic": 5384,
      "Ġdemocra": 5385,
      "Ġpractition": 5386,
      "Ġcopyright": 5387,
      "Ġitalian": 5388,
      "Ġcertific": 5389,
      "Ġarchitect": 5390,
      "Ġeurope": 5391,
      "burgh": 5392,
      "Ġcitizens": 5393,
      "Ġpleas": 5394,
      "Ġthir": 5395,
      "Ġmulti": 5396,
      "Ġstrateg": 5397,
      "Ġquarter": 5398,
      "Ġfurther": 5399,
      "Ġfellow": 5400,
      "Ġfront": 5401,
      "Ġbibli": 5402,
      "Ġrevolution": 5403,
      "Ġremember": 5404,
      "Ġatmosp": 5405,
      "Ġpalest": 5406,
      "Ġroberts": 5407,
      "Ġlangu": 5408,
      "Ġnurse": 5409,
      "Ġjeff": 5410,
      "Ġcosme": 5411,
      "Ġsupport": 5412,
      "Ġsustain": 5413,
      "Ġmethod": 5414,
      "Ġneighbor": 5415,
      "Ġpodcast": 5416,
      "Ġparagrap": 5417,
      "Ġperiodic": 5418,
      "Ġcollabor": 5419,
      "Ġiraq": 5420,
      "Ġaccurate": 5421,
      "Ġhawai": 5422,
      "Ġconfirm": 5423,
      "Ġincorpor": 5424,
      "Ġnewslet": 5425,
      "Ġpublis": 5426,
      "Ġefficient": 5427,
      "Ġdifficul": 5428,
      "Ġbasket": 5429,
      "Ġclassified": 5430,
      "Ġindependent": 5431,
      "Ġhospit": 5432,
      "Ġbehavior": 5433,
      "Ġpharmace": 5434,
      "Ġpsych": 5435,
      "Ġaccompan": 5436,
      "Ġcigar": 5437,
      "Ġacknowled": 5438,
      "Ġmunicip": 5439,
      "Ġbeside": 5440,
      "Ġforecast": 5441,
      "Ġslovak": 5442,
      "Ġpassen": 5443,
      "Ġdeutsch": 5444,
      "Ġdavid": 5445,
      "Ġviole": 5446,
      "Ġenlarge": 5447,
      "Ġalgorith": 5448,
      "Ġbeauti": 5449,
      "Ġnegoti": 5450,
      "Ġexplicit": 5451,
      "Ġperiphe": 5452,
      "Ġsubsidi": 5453,
      "Ġauthentic": 5454,
      "Ġentreprene": 5455,
      "0106": 5456,
      "0264": 5457,
      "0965": 5458,
      "119": 5459,
      "135": 5460,
      "1606": 5461,
      "1345": 5462,
      "3142": 5463,
      "3108": 5464,
      "3806": 5465,
      "5131": 5466,
      "5568": 5467,
      "6283": 5468,
      "8168": 5469,
      "8604": 5470,
      "9146": 5471,
      "9372": 5472,
      "3019": 5473,
      "2078": 5474,
      "2086": 5475,
      "1956": 5476,
      "2654": 5477,
      "3491": 5478,
      "1729": 5479,
      "3526": 5480,
      "3597": 5481,
      "2759": 5482,
      "2811": 5483,
      "2427": 5484,
      "5621": 5485,
      "5918": 5486,
      "3334": 5487,
      "2339": 5488,
      "2321": 5489,
      "5411": 5490,
      "3230": 5491,
      "9879": 5492,
      "0937": 5493,
      "0728": 5494,
      "0140": 5495,
      "0229": 5496,
      "0803": 5497,
      "0385": 5498,
      "0489": 5499,
      "0471": 5500,
      "0665": 5501,
      "130": 5502,
      "1396": 5503,
      "1223": 5504,
      "2182": 5505,
      "3164": 5506,
      "3388": 5507,
      "3353": 5508,
      "3508": 5509,
      "3404": 5510,
      "3300": 5511,
      "3265": 5512,
      "3112": 5513,
      "4606": 5514,
      "4808": 5515,
      "4294": 5516,
      "4398": 5517,
      "5359": 5518,
      "6301": 5519,
      "6702": 5520,
      "6197": 5521,
      "9809": 5522,
      "9199": 5523,
      "9111": 5524,
      "9495": 5525,
      "5027": 5526,
      "5061": 5527,
      "5097": 5528,
      "4032": 5529,
      "3088": 5530,
      "2050": 5531,
      "2094": 5532,
      "1041": 5533,
      "0054": 5534,
      "0001": 5535,
      "2983": 5536,
      "1990": 5537,
      "3718": 5538,
      "3796": 5539,
      "3492": 5540,
      "1747": 5541,
      "1798": 5542,
      "3823": 5543,
      "1625": 5544,
      "1676": 5545,
      "2829": 5546,
      "2877": 5547,
      "1537": 5548,
      "1572": 5549,
      "1589": 5550,
      "1595": 5551,
      "1816": 5552,
      "4590": 5553,
      "4584": 5554,
      "4626": 5555,
      "4696": 5556,
      "4695": 5557,
      "4835": 5558,
      "7819": 5559,
      "7854": 5560,
      "4957": 5561,
      "3317": 5562,
      "2217": 5563,
      "4417": 5564,
      "4416": 5565,
      "4329": 5566,
      "4312": 5567,
      "4190": 5568,
      "8954": 5569,
      "6336": 5570,
      "9235": 5571,
      "0835": 5572,
      "0944": 5573,
      "0631": 5574,
      "0123": 5575,
      "0391": 5576,
      "0158": 5577,
      "0386": 5578,
      "0508": 5579,
      "0351": 5580,
      "0507": 5581,
      "0263": 5582,
      "0455": 5583,
      "0996": 5584,
      "0752": 5585,
      "0892": 5586,
      "129": 5587,
      "126": 5588,
      "117": 5589,
      "124": 5590,
      "1309": 5591,
      "1801": 5592,
      "1194": 5593,
      "1101": 5594,
      "1502": 5595,
      "1206": 5596,
      "1222": 5597,
      "2501": 5598,
      "2374": 5599,
      "2306": 5600,
      "2358": 5601,
      "2706": 5602,
      "2271": 5603,
      "3283": 5604,
      "3289": 5605,
      "3387": 5606,
      "3299": 5607,
      "4903": 5608,
      "4175": 5609,
      "4276": 5610,
      "4103": 5611,
      "4381": 5612,
      "4155": 5613,
      "4997": 5614,
      "5175": 5615,
      "5258": 5616,
      "5289": 5617,
      "5184": 5618,
      "5377": 5619,
      "5464": 5620,
      "6144": 5621,
      "6354": 5622,
      "6773": 5623,
      "7152": 5624,
      "7296": 5625,
      "7191": 5626,
      "7261": 5627,
      "7279": 5628,
      "7471": 5629,
      "7786": 5630,
      "9252": 5631,
      "9178": 5632,
      "9303": 5633,
      "6021": 5634,
      "7043": 5635,
      "7069": 5636,
      "8082": 5637,
      "5025": 5638,
      "5075": 5639,
      "4041": 5640,
      "4072": 5641,
      "3016": 5642,
      "3079": 5643,
      "2027": 5644,
      "2099": 5645,
      "1099": 5646,
      "1086": 5647,
      "0047": 5648,
      "2918": 5649,
      "2967": 5650,
      "2991": 5651,
      "1939": 5652,
      "1921": 5653,
      "1993": 5654,
      "3719": 5655,
      "3771": 5656,
      "3765": 5657,
      "3787": 5658,
      "2616": 5659,
      "2631": 5660,
      "2653": 5661,
      "3499": 5662,
      "3510": 5663,
      "3579": 5664,
      "1417": 5665,
      "1414": 5666,
      "1416": 5667,
      "1431": 5668,
      "1623": 5669,
      "2724": 5670,
      "2723": 5671,
      "2741": 5672,
      "3928": 5673,
      "3998": 5674,
      "2899": 5675,
      "2832": 5676,
      "1520": 5677,
      "3632": 5678,
      "2479": 5679,
      "2443": 5680,
      "4557": 5681,
      "4531": 5682,
      "4565": 5683,
      "4567": 5684,
      "4610": 5685,
      "4625": 5686,
      "4817": 5687,
      "4813": 5688,
      "4888": 5689,
      "4887": 5690,
      "5699": 5691,
      "5656": 5692,
      "7855": 5693,
      "5866": 5694,
      "5882": 5695,
      "1117": 5696,
      "5551": 5697,
      "1340": 5698,
      "3125": 5699,
      "5337": 5700,
      "5170": 5701,
      "5150": 5702,
      "5135": 5703,
      "4224": 5704,
      "5219": 5705,
      "7330": 5706,
      "6614": 5707,
      "8885": 5708,
      "8972": 5709,
      "8658": 5710,
      "6912": 5711,
      "9658": 5712,
      "8412": 5713,
      "6370": 5714,
      "6215": 5715,
      "9250": 5716,
      "0979": 5717,
      "0735": 5718,
      "0715": 5719,
      "0424": 5720,
      "0228": 5721,
      "0367": 5722,
      "0192": 5723,
      "0409": 5724,
      "0296": 5725,
      "0157": 5726,
      "0196": 5727,
      "0342": 5728,
      "0176": 5729,
      "0281": 5730,
      "0700": 5731,
      "0509": 5732,
      "0355": 5733,
      "0245": 5734,
      "0804": 5735,
      "0453": 5736,
      "0473": 5737,
      "0763": 5738,
      "0664": 5739,
      "0963": 5740,
      "127": 5741,
      "133": 5742,
      "123": 5743,
      "1901": 5744,
      "1276": 5745,
      "1201": 5746,
      "1292": 5747,
      "1258": 5748,
      "1274": 5749,
      "1259": 5750,
      "1188": 5751,
      "1248": 5752,
      "1189": 5753,
      "2273": 5754,
      "2252": 5755,
      "2409": 5756,
      "2147": 5757,
      "2302": 5758,
      "2174": 5759,
      "2361": 5760,
      "2602": 5761,
      "2332": 5762,
      "3195": 5763,
      "3282": 5764,
      "3405": 5765,
      "4907": 5766,
      "4399": 5767,
      "4906": 5768,
      "4171": 5769,
      "4400": 5770,
      "4154": 5771,
      "4364": 5772,
      "4365": 5773,
      "4243": 5774,
      "4609": 5775,
      "4347": 5776,
      "4207": 5777,
      "4475": 5778,
      "4452": 5779,
      "4451": 5780,
      "4482": 5781,
      "5172": 5782,
      "5152": 5783,
      "5707": 5784,
      "5353": 5785,
      "5185": 5786,
      "5149": 5787,
      "5900": 5788,
      "5171": 5789,
      "5342": 5790,
      "5395": 5791,
      "5203": 5792,
      "5393": 5793,
      "5441": 5794,
      "5463": 5795,
      "5761": 5796,
      "5585": 5797,
      "6388": 5798,
      "6389": 5799,
      "6371": 5800,
      "6407": 5801,
      "6754": 5802,
      "6895": 5803,
      "7505": 5804,
      "7297": 5805,
      "7208": 5806,
      "7242": 5807,
      "7457": 5808,
      "7785": 5809,
      "8903": 5810,
      "8309": 5811,
      "8204": 5812,
      "8343": 5813,
      "8465": 5814,
      "9356": 5815,
      "9791": 5816,
      "9863": 5817,
      "7035": 5818,
      "7061": 5819,
      "5060": 5820,
      "5080": 5821,
      "5044": 5822,
      "5053": 5823,
      "5098": 5824,
      "4067": 5825,
      "4091": 5826,
      "4009": 5827,
      "3038": 5828,
      "3059": 5829,
      "3012": 5830,
      "3073": 5831,
      "1042": 5832,
      "1067": 5833,
      "1087": 5834,
      "0017": 5835,
      "0053": 5836,
      "0051": 5837,
      "0071": 5838,
      "0072": 5839,
      "0073": 5840,
      "2950": 5841,
      "2940": 5842,
      "2958": 5843,
      "2933": 5844,
      "2955": 5845,
      "2912": 5846,
      "1954": 5847,
      "3754": 5848,
      "3742": 5849,
      "3789": 5850,
      "3761": 5851,
      "3794": 5852,
      "2615": 5853,
      "2621": 5854,
      "2689": 5855,
      "2663": 5856,
      "2691": 5857,
      "3479": 5858,
      "3422": 5859,
      "3454": 5860,
      "3442": 5861,
      "2521": 5862,
      "2531": 5863,
      "1780": 5864,
      "1711": 5865,
      "3544": 5866,
      "3554": 5867,
      "1450": 5868,
      "1447": 5869,
      "1449": 5870,
      "1432": 5871,
      "1451": 5872,
      "1471": 5873,
      "3840": 5874,
      "3816": 5875,
      "3846": 5876,
      "3875": 5877,
      "3822": 5878,
      "3841": 5879,
      "2789": 5880,
      "3975": 5881,
      "3983": 5882,
      "3993": 5883,
      "2856": 5884,
      "1518": 5885,
      "1554": 5886,
      "1551": 5887,
      "1588": 5888,
      "1826": 5889,
      "1812": 5890,
      "1852": 5891,
      "1894": 5892,
      "3637": 5893,
      "3614": 5894,
      "3648": 5895,
      "3611": 5896,
      "3642": 5897,
      "3683": 5898,
      "2410": 5899,
      "4530": 5900,
      "4538": 5901,
      "4515": 5902,
      "4573": 5903,
      "4797": 5904,
      "4627": 5905,
      "4628": 5906,
      "4699": 5907,
      "4679": 5908,
      "4674": 5909,
      "4631": 5910,
      "4665": 5911,
      "9948": 5912,
      "9967": 5913,
      "5638": 5914,
      "5677": 5915,
      "5657": 5916,
      "5691": 5917,
      "5831": 5918,
      "5865": 5919,
      "4978": 5920,
      "4942": 5921,
      "4986": 5922,
      "7663": 5923,
      "5953": 5924,
      "5972": 5925,
      "2129": 5926,
      "2138": 5927,
      "2124": 5928,
      "3316": 5929,
      "3318": 5930,
      "3324": 5931,
      "7547": 5932,
      "7522": 5933,
      "2235": 5934,
      "2228": 5935,
      "5550": 5936,
      "5526": 5937,
      "5538": 5938,
      "5533": 5939,
      "5553": 5940,
      "2318": 5941,
      "7749": 5942,
      "4418": 5943,
      "1310": 5944,
      "1311": 5945,
      "7418": 5946,
      "1228": 5947,
      "5460": 5948,
      "5480": 5949,
      "5429": 5950,
      "5438": 5951,
      "5446": 5952,
      "5499": 5953,
      "3135": 5954,
      "3124": 5955,
      "5323": 5956,
      "5115": 5957,
      "4210": 5958,
      "5290": 5959,
      "5237": 5960,
      "4120": 5961,
      "7121": 5962,
      "6616": 5963,
      "6669": 5964,
      "8926": 5965,
      "8973": 5966,
      "8657": 5967,
      "6964": 5968,
      "6860": 5969,
      "6836": 5970,
      "9618": 5971,
      "9653": 5972,
      "6511": 5973,
      "6531": 5974,
      "6733": 5975,
      "6337": 5976,
      "6110": 5977,
      "9721": 5978,
      "9338": 5979,
      "9339": 5980,
      "9129": 5981,
      "0826": 5982,
      "0839": 5983,
      "0821": 5984,
      "0960": 5985,
      "0926": 5986,
      "0545": 5987,
      "0578": 5988,
      "0734": 5989,
      "0747": 5990,
      "0778": 5991,
      "0437": 5992,
      "0426": 5993,
      "0422": 5994,
      "0674": 5995,
      "0314": 5996,
      "0316": 5997,
      "0311": 5998,
      "0273": 5999,
      "0175": 6000,
      "0707": 6001,
      "0276": 6002,
      "0201": 6003,
      "0107": 6004,
      "0142": 6005,
      "0198": 6006,
      "0155": 6007,
      "0382": 6008,
      "0209": 6009,
      "0105": 6010,
      "0193": 6011,
      "0293": 6012,
      "0256": 6013,
      "0494": 6014,
      "0568": 6015,
      "0787": 6016,
      "0595": 6017,
      "0751": 6018,
      "0789": 6019,
      "0884": 6020,
      "0885": 6021,
      "0898": 6022,
      "0663": 6023,
      "0667": 6024,
      "0883": 6025,
      "150": 6026,
      "140": 6027,
      "139": 6028,
      "136": 6029,
      "121": 6030,
      "122": 6031,
      "1273": 6032,
      "1252": 6033,
      "1501": 6034,
      "1505": 6035,
      "1906": 6036,
      "1604": 6037,
      "1198": 6038,
      "1362": 6039,
      "1603": 6040,
      "1373": 6041,
      "1905": 6042,
      "1205": 6043,
      "2164": 6044,
      "2165": 6045,
      "2213": 6046,
      "2357": 6047,
      "2185": 6048,
      "2399": 6049,
      "2900": 6050,
      "2395": 6051,
      "2371": 6052,
      "2356": 6053,
      "2507": 6054,
      "2304": 6055,
      "2601": 6056,
      "3273": 6057,
      "3606": 6058,
      "3172": 6059,
      "3391": 6060,
      "3213": 6061,
      "3907": 6062,
      "3357": 6063,
      "3201": 6064,
      "3389": 6065,
      "3386": 6066,
      "3109": 6067,
      "3288": 6068,
      "3204": 6069,
      "3281": 6070,
      "3159": 6071,
      "3356": 6072,
      "3401": 6073,
      "4344": 6074,
      "4152": 6075,
      "4707": 6076,
      "4503": 6077,
      "4192": 6078,
      "4296": 6079,
      "4374": 6080,
      "4198": 6081,
      "4362": 6082,
      "4182": 6083,
      "4208": 6084,
      "4379": 6085,
      "4246": 6086,
      "4279": 6087,
      "4704": 6088,
      "4284": 6089,
      "4909": 6090,
      "4495": 6091,
      "4498": 6092,
      "4467": 6093,
      "4492": 6094,
      "4992": 6095,
      "5505": 6096,
      "5201": 6097,
      "5292": 6098,
      "5167": 6099,
      "5809": 6100,
      "5197": 6101,
      "5396": 6102,
      "5196": 6103,
      "5603": 6104,
      "5402": 6105,
      "5166": 6106,
      "5105": 6107,
      "5343": 6108,
      "5268": 6109,
      "5272": 6110,
      "5489": 6111,
      "5475": 6112,
      "5487": 6113,
      "5477": 6114,
      "5493": 6115,
      "5794": 6116,
      "5743": 6117,
      "6273": 6118,
      "6501": 6119,
      "6901": 6120,
      "6109": 6121,
      "6406": 6122,
      "6284": 6123,
      "6231": 6124,
      "6452": 6125,
      "6587": 6126,
      "6598": 6127,
      "6765": 6128,
      "6581": 6129,
      "7173": 6130,
      "7506": 6131,
      "7195": 6132,
      "7398": 6133,
      "7349": 6134,
      "7348": 6135,
      "7332": 6136,
      "7453": 6137,
      "7994": 6138,
      "7592": 6139,
      "7594": 6140,
      "8344": 6141,
      "8241": 6142,
      "8901": 6143,
      "8151": 6144,
      "8258": 6145,
      "8257": 6146,
      "8569": 6147,
      "8565": 6148,
      "8762": 6149,
      "8571": 6150,
      "9362": 6151,
      "9161": 6152,
      "9247": 6153,
      "9443": 6154,
      "9564": 6155,
      "9896": 6156,
      "ax": 6157,
      "awi": 6158,
      "aters": 6159,
      "ael": 6160,
      "aos": 6161,
      "ales": 6162,
      "aven": 6163,
      "avers": 6164,
      "acting": 6165,
      "aired": 6166,
      "aica": 6167,
      "axy": 6168,
      "auty": 6169,
      "bn": 6170,
      "bt": 6171,
      "bar": 6172,
      "bra": 6173,
      "bre": 6174,
      "bat": 6175,
      "bles": 6176,
      "bors": 6177,
      "bac": 6178,
      "bage": 6179,
      "best": 6180,
      "bian": 6181,
      "bec": 6182,
      "bai": 6183,
      "bek": 6184,
      "bane": 6185,
      "bell": 6186,
      "benti": 6187,
      "bras": 6188,
      "brid": 6189,
      "bama": 6190,
      "can": 6191,
      "cin": 6192,
      "case": 6193,
      "com": 6194,
      "came": 6195,
      "cal": 6196,
      "cat": 6197,
      "cular": 6198,
      "col": 6199,
      "cas": 6200,
      "cos": 6201,
      "cine": 6202,
      "cou": 6203,
      "cub": 6204,
      "care": 6205,
      "cod": 6206,
      "cope": 6207,
      "ctical": 6208,
      "cards": 6209,
      "cils": 6210,
      "cuts": 6211,
      "cams": 6212,
      "cury": 6213,
      "caster": 6214,
      "citing": 6215,
      "craft": 6216,
      "dle": 6217,
      "dan": 6218,
      "dad": 6219,
      "dra": 6220,
      "dal": 6221,
      "dos": 6222,
      "dant": 6223,
      "dds": 6224,
      "dale": 6225,
      "down": 6226,
      "dging": 6227,
      "dnet": 6228,
      "dney": 6229,
      "dgment": 6230,
      "dbenti": 6231,
      "ese": 6232,
      "eal": 6233,
      "ement": 6234,
      "ees": 6235,
      "een": 6236,
      "eles": 6237,
      "eties": 6238,
      "eral": 6239,
      "eign": 6240,
      "eks": 6241,
      "ems": 6242,
      "eded": 6243,
      "eled": 6244,
      "eving": 6245,
      "eath": 6246,
      "erator": 6247,
      "fl": 6248,
      "fo": 6249,
      "fly": 6250,
      "fte": 6251,
      "fit": 6252,
      "fay": 6253,
      "fest": 6254,
      "fred": 6255,
      "flow": 6256,
      "fined": 6257,
      "fume": 6258,
      "found": 6259,
      "furt": 6260,
      "gu": 6261,
      "gro": 6262,
      "gal": 6263,
      "gth": 6264,
      "gate": 6265,
      "gow": 6266,
      "gation": 6267,
      "gol": 6268,
      "gas": 6269,
      "gant": 6270,
      "gia": 6271,
      "gary": 6272,
      "gments": 6273,
      "gian": 6274,
      "gome": 6275,
      "gue": 6276,
      "gence": 6277,
      "gical": 6278,
      "gative": 6279,
      "gni": 6280,
      "gages": 6281,
      "gium": 6282,
      "gression": 6283,
      "gories": 6284,
      "gency": 6285,
      "ht": 6286,
      "han": 6287,
      "hst": 6288,
      "how": 6289,
      "hun": 6290,
      "hut": 6291,
      "hap": 6292,
      "hma": 6293,
      "hai": 6294,
      "hana": 6295,
      "haust": 6296,
      "hrop": 6297,
      "hasis": 6298,
      "hdad": 6299,
      "ik": 6300,
      "ira": 6301,
      "ier": 6302,
      "iop": 6303,
      "ifor": 6304,
      "ius": 6305,
      "ipp": 6306,
      "iors": 6307,
      "iff": 6308,
      "ially": 6309,
      "iod": 6310,
      "ived": 6311,
      "ience": 6312,
      "ival": 6313,
      "iology": 6314,
      "ify": 6315,
      "ique": 6316,
      "irator": 6317,
      "irates": 6318,
      "iency": 6319,
      "irable": 6320,
      "iety": 6321,
      "ipped": 6322,
      "irical": 6323,
      "ihood": 6324,
      "jan": 6325,
      "jack": 6326,
      "jun": 6327,
      "jct": 6328,
      "jet": 6329,
      "jam": 6330,
      "jits": 6331,
      "kn": 6332,
      "kit": 6333,
      "kel": 6334,
      "kok": 6335,
      "kish": 6336,
      "kins": 6337,
      "koo": 6338,
      "kistan": 6339,
      "kansas": 6340,
      "lse": 6341,
      "light": 6342,
      "lst": 6343,
      "lter": 6344,
      "lit": 6345,
      "lity": 6346,
      "lder": 6347,
      "lds": 6348,
      "ltic": 6349,
      "lore": 6350,
      "lins": 6351,
      "lton": 6352,
      "lined": 6353,
      "lden": 6354,
      "lished": 6355,
      "lades": 6356,
      "linary": 6357,
      "lism": 6358,
      "lature": 6359,
      "lanta": 6360,
      "mu": 6361,
      "mad": 6362,
      "mate": 6363,
      "map": 6364,
      "mare": 6365,
      "mone": 6366,
      "mits": 6367,
      "mics": 6368,
      "mble": 6369,
      "made": 6370,
      "mmar": 6371,
      "mium": 6372,
      "master": 6373,
      "most": 6374,
      "nard": 6375,
      "nis": 6376,
      "nol": 6377,
      "nted": 6378,
      "nch": 6379,
      "nut": 6380,
      "nos": 6381,
      "nds": 6382,
      "ncy": 6383,
      "nish": 6384,
      "nology": 6385,
      "ntical": 6386,
      "nels": 6387,
      "nica": 6388,
      "nold": 6389,
      "nada": 6390,
      "ndered": 6391,
      "nitude": 6392,
      "oa": 6393,
      "oon": 6394,
      "ock": 6395,
      "ove": 6396,
      "oom": 6397,
      "ogle": 6398,
      "oing": 6399,
      "over": 6400,
      "oen": 6401,
      "oss": 6402,
      "oted": 6403,
      "otic": 6404,
      "oses": 6405,
      "oven": 6406,
      "ober": 6407,
      "oice": 6408,
      "ours": 6409,
      "oler": 6410,
      "oba": 6411,
      "obe": 6412,
      "ould": 6413,
      "pr": 6414,
      "py": 6415,
      "pse": 6416,
      "pra": 6417,
      "pal": 6418,
      "ped": 6419,
      "phi": 6420,
      "pic": 6421,
      "pet": 6422,
      "pted": 6423,
      "pel": 6424,
      "pos": 6425,
      "pine": 6426,
      "pher": 6427,
      "pens": 6428,
      "pical": 6429,
      "pati": 6430,
      "pua": 6431,
      "pool": 6432,
      "public": 6433,
      "pensive": 6434,
      "point": 6435,
      "rk": 6436,
      "rl": 6437,
      "rar": 6438,
      "rig": 6439,
      "rick": 6440,
      "rom": 6441,
      "rance": 6442,
      "rus": 6443,
      "rpt": 6444,
      "rling": 6445,
      "rari": 6446,
      "rtle": 6447,
      "rants": 6448,
      "rina": 6449,
      "rared": 6450,
      "rints": 6451,
      "rmal": 6452,
      "rigation": 6453,
      "righted": 6454,
      "so": 6455,
      "sses": 6456,
      "site": 6457,
      "ship": 6458,
      "sler": 6459,
      "saur": 6460,
      "soft": 6461,
      "stest": 6462,
      "tte": 6463,
      "tra": 6464,
      "tro": 6465,
      "tary": 6466,
      "try": 6467,
      "tak": 6468,
      "tty": 6469,
      "tten": 6470,
      "tone": 6471,
      "tons": 6472,
      "tcy": 6473,
      "tled": 6474,
      "town": 6475,
      "then": 6476,
      "toms": 6477,
      "tney": 6478,
      "tuit": 6479,
      "tulations": 6480,
      "ui": 6481,
      "uar": 6482,
      "uck": 6483,
      "uqu": 6484,
      "uer": 6485,
      "uth": 6486,
      "uate": 6487,
      "uet": 6488,
      "uge": 6489,
      "uum": 6490,
      "uder": 6491,
      "uant": 6492,
      "uine": 6493,
      "uary": 6494,
      "uals": 6495,
      "uits": 6496,
      "uco": 6497,
      "umed": 6498,
      "utical": 6499,
      "uana": 6500,
      "uished": 6501,
      "uaries": 6502,
      "uki": 6503,
      "uania": 6504,
      "uador": 6505,
      "ucky": 6506,
      "uwa": 6507,
      "vd": 6508,
      "van": 6509,
      "vard": 6510,
      "vro": 6511,
      "vit": 6512,
      "vic": 6513,
      "vil": 6514,
      "vas": 6515,
      "vors": 6516,
      "vable": 6517,
      "vous": 6518,
      "vana": 6519,
      "vists": 6520,
      "vania": 6521,
      "vasc": 6522,
      "vada": 6523,
      "vador": 6524,
      "wy": 6525,
      "war": 6526,
      "win": 6527,
      "wal": 6528,
      "whi": 6529,
      "wing": 6530,
      "wag": 6531,
      "wrap": 6532,
      "wana": 6533,
      "wlet": 6534,
      "wford": 6535,
      "wau": 6536,
      "water": 6537,
      "wart": 6538,
      "what": 6539,
      "xis": 6540,
      "xil": 6541,
      "xually": 6542,
      "xtel": 6543,
      "xiety": 6544,
      "ya": 6545,
      "ym": 6546,
      "yan": 6547,
      "yon": 6548,
      "yth": 6549,
      "yes": 6550,
      "yho": 6551,
      "yman": 6552,
      "yond": 6553,
      "yball": 6554,
      "ycling": 6555,
      "ynol": 6556,
      "yuer": 6557,
      "za": 6558,
      "zed": 6559,
      "zing": 6560,
      "zation": 6561,
      "zac": 6562,
      "zip": 6563,
      "zda": 6564,
      "zards": 6565,
      "zamb": 6566,
      "zania": 6567,
      "zabe": 6568,
      "zuel": 6569,
      "zbek": 6570,
      "zuki": 6571,
      "Ġlease": 6572,
      "Ġward": 6573,
      "Ġverse": 6574,
      "Ġvot": 6575,
      "Ġil": 6576,
      "Ġion": 6577,
      "Ġum": 6578,
      "Ġist": 6579,
      "Ġia": 6580,
      "Ġib": 6581,
      "Ġian": 6582,
      "Ġire": 6583,
      "Ġone": 6584,
      "Ġons": 6585,
      "Ġvel": 6586,
      "Ġong": 6587,
      "Ġits": 6588,
      "Ġones": 6589,
      "Ġvery": 6590,
      "Ġirc": 6591,
      "Ġids": 6592,
      "Ġistan": 6593,
      "Ġcb": 6594,
      "Ġcc": 6595,
      "Ġcg": 6596,
      "Ġci": 6597,
      "Ġcj": 6598,
      "Ġcn": 6599,
      "Ġcs": 6600,
      "Ġcv": 6601,
      "Ġcw": 6602,
      "Ġcz": 6603,
      "Ġcst": 6604,
      "Ġced": 6605,
      "Ġcis": 6606,
      "Ġcing": 6607,
      "Ġcot": 6608,
      "Ġcss": 6609,
      "Ġcure": 6610,
      "Ġcir": 6611,
      "Ġcum": 6612,
      "Ġcant": 6613,
      "Ġcine": 6614,
      "Ġcds": 6615,
      "Ġcher": 6616,
      "Ġcio": 6617,
      "Ġcute": 6618,
      "Ġcite": 6619,
      "Ġcities": 6620,
      "Ġcial": 6621,
      "Ġchip": 6622,
      "Ġcope": 6623,
      "Ġcurs": 6624,
      "Ġcats": 6625,
      "Ġchic": 6626,
      "Ġcards": 6627,
      "Ġcyp": 6628,
      "Ġcbs": 6629,
      "Ġcze": 6630,
      "Ġcuts": 6631,
      "Ġcnet": 6632,
      "Ġcyl": 6633,
      "Ġcases": 6634,
      "Ġcited": 6635,
      "Ġcnn": 6636,
      "Ġcuri": 6637,
      "Ġcitation": 6638,
      "Ġccd": 6639,
      "Ġcgi": 6640,
      "Ġcitations": 6641,
      "Ġcvs": 6642,
      "Ġsd": 6643,
      "Ġsf": 6644,
      "Ġsg": 6645,
      "Ġsq": 6646,
      "Ġss": 6647,
      "Ġsv": 6648,
      "Ġsar": 6649,
      "Ġsce": 6650,
      "Ġsan": 6651,
      "Ġsight": 6652,
      "Ġsor": 6653,
      "Ġsick": 6654,
      "Ġsme": 6655,
      "Ġsom": 6656,
      "Ġsame": 6657,
      "Ġsop": 6658,
      "Ġsate": 6659,
      "Ġsort": 6660,
      "Ġsul": 6661,
      "Ġsri": 6662,
      "Ġsurn": 6663,
      "Ġsalt": 6664,
      "Ġsic": 6665,
      "Ġsas": 6666,
      "Ġsir": 6667,
      "Ġsou": 6668,
      "Ġsans": 6669,
      "Ġsap": 6670,
      "Ġsher": 6671,
      "Ġsally": 6672,
      "Ġsiz": 6673,
      "Ġsund": 6674,
      "Ġsons": 6675,
      "Ġsess": 6676,
      "Ġsna": 6677,
      "Ġsong": 6678,
      "Ġsets": 6679,
      "Ġsip": 6680,
      "Ġshed": 6681,
      "Ġsony": 6682,
      "Ġsays": 6683,
      "Ġsized": 6684,
      "Ġsink": 6685,
      "Ġsize": 6686,
      "Ġsung": 6687,
      "Ġsamb": 6688,
      "Ġsams": 6689,
      "Ġsorts": 6690,
      "Ġsell": 6691,
      "Ġsara": 6692,
      "Ġsorted": 6693,
      "Ġsask": 6694,
      "Ġsession": 6695,
      "Ġsought": 6696,
      "Ġssl": 6697,
      "Ġsany": 6698,
      "Ġsoma": 6699,
      "Ġsister": 6700,
      "Ġsongs": 6701,
      "Ġsql": 6702,
      "Ġsisters": 6703,
      "Ġsanta": 6704,
      "Ġcms": 6705,
      "lein": 6706,
      "leum": 6707,
      "leans": 6708,
      "lena": 6709,
      "lers": 6710,
      "leston": 6711,
      "lenn": 6712,
      "leeding": 6713,
      "lemented": 6714,
      "Ġrb": 6715,
      "Ġrc": 6716,
      "Ġrd": 6717,
      "Ġrg": 6718,
      "Ġrh": 6719,
      "Ġrj": 6720,
      "Ġrl": 6721,
      "Ġrm": 6722,
      "Ġrn": 6723,
      "Ġrs": 6724,
      "Ġrt": 6725,
      "Ġrv": 6726,
      "Ġrx": 6727,
      "Ġral": 6728,
      "Ġric": 6729,
      "Ġrss": 6730,
      "Ġrus": 6731,
      "Ġrim": 6732,
      "Ġram": 6733,
      "Ġrab": 6734,
      "Ġrage": 6735,
      "Ġrally": 6736,
      "Ġrings": 6737,
      "Ġrib": 6738,
      "Ġrna": 6739,
      "Ġrale": 6740,
      "Ġrio": 6741,
      "Ġrating": 6742,
      "Ġrip": 6743,
      "Ġrho": 6744,
      "Ġrice": 6745,
      "Ġrope": 6746,
      "Ġrats": 6747,
      "Ġrays": 6748,
      "Ġrace": 6749,
      "Ġrise": 6750,
      "Ġrational": 6751,
      "Ġrural": 6752,
      "Ġrather": 6753,
      "Ġrhy": 6754,
      "Ġrising": 6755,
      "Ġrica": 6756,
      "Ġrush": 6757,
      "Ġrca": 6758,
      "Ġrington": 6759,
      "Ġrpg": 6760,
      "Ġruling": 6761,
      "Ġryan": 6762,
      "Ġae": 6763,
      "Ġah": 6764,
      "Ġai": 6765,
      "Ġaj": 6766,
      "Ġak": 6767,
      "Ġaz": 6768,
      "Ġate": 6769,
      "Ġaar": 6770,
      "Ġace": 6771,
      "Ġave": 6772,
      "Ġati": 6773,
      "Ġadi": 6774,
      "Ġaction": 6775,
      "Ġalle": 6776,
      "Ġaur": 6777,
      "Ġaol": 6778,
      "Ġaus": 6779,
      "Ġaid": 6780,
      "Ġaub": 6781,
      "Ġasp": 6782,
      "Ġaven": 6783,
      "Ġapt": 6784,
      "Ġaber": 6785,
      "Ġams": 6786,
      "Ġamin": 6787,
      "Ġactions": 6788,
      "Ġactor": 6789,
      "Ġacts": 6790,
      "Ġaller": 6791,
      "Ġactors": 6792,
      "Ġairc": 6793,
      "Ġaware": 6794,
      "Ġacting": 6795,
      "Ġaway": 6796,
      "Ġaids": 6797,
      "Ġaround": 6798,
      "Ġacer": 6799,
      "Ġawards": 6800,
      "Ġaero": 6801,
      "Ġaye": 6802,
      "Ġadid": 6803,
      "Ġallen": 6804,
      "Ġaverage": 6805,
      "Ġaimed": 6806,
      "Ġaka": 6807,
      "Ġazer": 6808,
      "Ġaerial": 6809,
      "Ġaxis": 6810,
      "lyn": 6811,
      "lymouth": 6812,
      "tec": 6813,
      "tex": 6814,
      "tead": 6815,
      "tein": 6816,
      "teed": 6817,
      "tement": 6818,
      "tech": 6819,
      "tember": 6820,
      "arl": 6821,
      "arm": 6822,
      "arn": 6823,
      "aru": 6824,
      "arters": 6825,
      "arre": 6826,
      "aren": 6827,
      "aration": 6828,
      "arus": 6829,
      "artic": 6830,
      "arag": 6831,
      "ario": 6832,
      "arctic": 6833,
      "arwin": 6834,
      "cean": 6835,
      "cela": 6836,
      "cery": 6837,
      "cell": 6838,
      "cens": 6839,
      "ceding": 6840,
      "cember": 6841,
      "cedes": 6842,
      "anger": 6843,
      "anes": 6844,
      "anic": 6845,
      "ange": 6846,
      "anna": 6847,
      "anmar": 6848,
      "ancial": 6849,
      "anium": 6850,
      "antit": 6851,
      "ancies": 6852,
      "annon": 6853,
      "ansen": 6854,
      "anistan": 6855,
      "Ġpb": 6856,
      "Ġpc": 6857,
      "Ġpf": 6858,
      "Ġpg": 6859,
      "Ġpj": 6860,
      "Ġpk": 6861,
      "Ġpn": 6862,
      "Ġpt": 6863,
      "Ġpad": 6864,
      "Ġpon": 6865,
      "Ġpig": 6866,
      "Ġpin": 6867,
      "Ġpst": 6868,
      "Ġpame": 6869,
      "Ġping": 6870,
      "Ġpun": 6871,
      "Ġpct": 6872,
      "Ġpus": 6873,
      "Ġpci": 6874,
      "Ġpure": 6875,
      "Ġpum": 6876,
      "Ġpant": 6877,
      "Ġpine": 6878,
      "Ġpts": 6879,
      "Ġpup": 6880,
      "Ġpsp": 6881,
      "Ġpest": 6882,
      "Ġpty": 6883,
      "Ġpric": 6884,
      "Ġpled": 6885,
      "Ġpins": 6886,
      "Ġpets": 6887,
      "Ġpope": 6888,
      "Ġpda": 6889,
      "Ġpants": 6890,
      "Ġpond": 6891,
      "Ġpink": 6892,
      "Ġpads": 6893,
      "Ġputs": 6894,
      "Ġpsi": 6895,
      "Ġpmc": 6896,
      "Ġpunch": 6897,
      "Ġpcs": 6898,
      "Ġpunk": 6899,
      "Ġpump": 6900,
      "Ġpgp": 6901,
      "Ġpvc": 6902,
      "Ġpyth": 6903,
      "Ġplymouth": 6904,
      "ado": 6905,
      "adle": 6906,
      "adat": 6907,
      "adel": 6908,
      "ados": 6909,
      "adian": 6910,
      "adise": 6911,
      "adium": 6912,
      "adgets": 6913,
      "aduate": 6914,
      "Ġtb": 6915,
      "Ġtd": 6916,
      "Ġtf": 6917,
      "Ġtm": 6918,
      "Ġtn": 6919,
      "Ġtp": 6920,
      "Ġtt": 6921,
      "Ġtv": 6922,
      "Ġtx": 6923,
      "Ġtft": 6924,
      "Ġtig": 6925,
      "Ġtight": 6926,
      "Ġtor": 6927,
      "Ġtomm": 6928,
      "Ġtraf": 6929,
      "Ġtide": 6930,
      "Ġtack": 6931,
      "Ġtort": 6932,
      "Ġtul": 6933,
      "Ġtat": 6934,
      "Ġtall": 6935,
      "Ġtil": 6936,
      "Ġtion": 6937,
      "Ġtam": 6938,
      "Ġtum": 6939,
      "Ġtay": 6940,
      "Ġtie": 6941,
      "Ġtac": 6942,
      "Ġtmp": 6943,
      "Ġtap": 6944,
      "Ġties": 6945,
      "Ġtions": 6946,
      "Ġtiss": 6947,
      "Ġtone": 6948,
      "Ġtons": 6949,
      "Ġtill": 6950,
      "Ġtile": 6951,
      "Ġtue": 6952,
      "Ġtong": 6953,
      "Ġtip": 6954,
      "Ġtail": 6955,
      "Ġtai": 6956,
      "Ġtari": 6957,
      "Ġtamp": 6958,
      "Ġtank": 6959,
      "Ġtony": 6960,
      "Ġtones": 6961,
      "Ġtues": 6962,
      "Ġtired": 6963,
      "Ġtba": 6964,
      "Ġtune": 6965,
      "Ġtuc": 6966,
      "Ġtables": 6967,
      "Ġtask": 6968,
      "Ġtakes": 6969,
      "Ġtype": 6970,
      "Ġtanks": 6971,
      "Ġtiger": 6972,
      "Ġtapes": 6973,
      "Ġtgp": 6974,
      "Ġtvs": 6975,
      "Ġmb": 6976,
      "Ġmc": 6977,
      "Ġmd": 6978,
      "Ġmf": 6979,
      "Ġmg": 6980,
      "Ġmh": 6981,
      "Ġmj": 6982,
      "Ġmm": 6983,
      "Ġmn": 6984,
      "Ġmp": 6985,
      "Ġmt": 6986,
      "Ġmv": 6987,
      "Ġmw": 6988,
      "Ġmx": 6989,
      "Ġmard": 6990,
      "Ġmate": 6991,
      "Ġmalt": 6992,
      "Ġmall": 6993,
      "Ġmun": 6994,
      "Ġmam": 6995,
      "Ġmut": 6996,
      "Ġmia": 6997,
      "Ġmug": 6998,
      "Ġmens": 6999,
      "Ġmits": 7000,
      "Ġmls": 7001,
      "Ġmating": 7002,
      "Ġmrs": 7003,
      "Ġmade": 7004,
      "Ġmph": 7005,
      "Ġmumb": 7006,
      "Ġmason": 7007,
      "Ġmission": 7008,
      "Ġmali": 7009,
      "Ġmissions": 7010,
      "Ġmba": 7011,
      "Ġmud": 7012,
      "Ġmask": 7013,
      "Ġmcd": 7014,
      "Ġmpg": 7015,
      "Ġmhz": 7016,
      "Ġmtv": 7017,
      "Ġmigration": 7018,
      "Ġmoney": 7019,
      "ona": 7020,
      "onde": 7021,
      "oning": 7022,
      "onic": 7023,
      "onts": 7024,
      "ondu": 7025,
      "onio": 7026,
      "onto": 7027,
      "onze": 7028,
      "onald": 7029,
      "ckland": 7030,
      "ckets": 7031,
      "cktail": 7032,
      "ckey": 7033,
      "vet": 7034,
      "vey": 7035,
      "veland": 7036,
      "vember": 7037,
      "sey": 7038,
      "sement": 7039,
      "sell": 7040,
      "sects": 7041,
      "seling": 7042,
      "seller": 7043,
      "search": 7044,
      "sellers": 7045,
      "semble": 7046,
      "Ġstd": 7047,
      "Ġstra": 7048,
      "Ġstom": 7049,
      "Ġstro": 7050,
      "Ġstack": 7051,
      "Ġstun": 7052,
      "Ġstations": 7053,
      "Ġstain": 7054,
      "Ġstup": 7055,
      "Ġstated": 7056,
      "Ġstage": 7057,
      "Ġstru": 7058,
      "Ġstable": 7059,
      "Ġstone": 7060,
      "Ġstrap": 7061,
      "Ġstill": 7062,
      "Ġstress": 7063,
      "Ġstore": 7064,
      "Ġstates": 7065,
      "Ġstating": 7066,
      "Ġstory": 7067,
      "Ġstamp": 7068,
      "Ġstron": 7069,
      "Ġstats": 7070,
      "Ġstring": 7071,
      "Ġstays": 7072,
      "Ġstones": 7073,
      "Ġstages": 7074,
      "Ġstability": 7075,
      "Ġstored": 7076,
      "Ġstyl": 7077,
      "Ġstands": 7078,
      "Ġstood": 7079,
      "Ġstanding": 7080,
      "Ġstatic": 7081,
      "Ġstories": 7082,
      "Ġstyle": 7083,
      "Ġstrain": 7084,
      "Ġstamps": 7085,
      "Ġstadium": 7086,
      "igan": 7087,
      "igger": 7088,
      "igen": 7089,
      "igations": 7090,
      "igns": 7091,
      "igins": 7092,
      "igua": 7093,
      "igrants": 7094,
      "ighters": 7095,
      "het": 7096,
      "heri": 7097,
      "helle": 7098,
      "heim": 7099,
      "hetic": 7100,
      "heric": 7101,
      "hered": 7102,
      "held": 7103,
      "hetical": 7104,
      "heries": 7105,
      "helor": 7106,
      "inc": 7107,
      "iny": 7108,
      "inner": 7109,
      "inate": 7110,
      "inion": 7111,
      "inos": 7112,
      "inder": 7113,
      "indu": 7114,
      "inated": 7115,
      "inian": 7116,
      "inating": 7117,
      "inite": 7118,
      "inium": 7119,
      "inery": 7120,
      "inburgh": 7121,
      "ora": 7122,
      "orm": 7123,
      "orce": 7124,
      "orra": 7125,
      "ores": 7126,
      "oration": 7127,
      "orus": 7128,
      "orary": 7129,
      "orption": 7130,
      "orrow": 7131,
      "orice": 7132,
      "origin": 7133,
      "ormous": 7134,
      "ortium": 7135,
      "orgia": 7136,
      "race": 7137,
      "rast": 7138,
      "rais": 7139,
      "raul": 7140,
      "rament": 7141,
      "raid": 7142,
      "raine": 7143,
      "rape": 7144,
      "racial": 7145,
      "racle": 7146,
      "raising": 7147,
      "raham": 7148,
      "ramic": 7149,
      "racuse": 7150,
      "quate": 7151,
      "quis": 7152,
      "quet": 7153,
      "quid": 7154,
      "quake": 7155,
      "quarters": 7156,
      "icke": 7157,
      "ickr": 7158,
      "icked": 7159,
      "icket": 7160,
      "Ġquad": 7161,
      "Ġquer": 7162,
      "Ġqual": 7163,
      "Ġquot": 7164,
      "Ġquit": 7165,
      "Ġquil": 7166,
      "Ġquant": 7167,
      "Ġquite": 7168,
      "Ġquality": 7169,
      "Ġquery": 7170,
      "Ġquantit": 7171,
      "Ġmom": 7172,
      "Ġmoon": 7173,
      "Ġmotion": 7174,
      "Ġmoss": 7175,
      "Ġmoder": 7176,
      "Ġmoist": 7177,
      "Ġmods": 7178,
      "Ġmosc": 7179,
      "Ġmoses": 7180,
      "Ġmoments": 7181,
      "Ġmood": 7182,
      "Ġmoms": 7183,
      "Ġmoore": 7184,
      "Ġmoving": 7185,
      "Ġmouse": 7186,
      "Ġmotel": 7187,
      "Ġmozilla": 7188,
      "Ġmotels": 7189,
      "Ġmobile": 7190,
      "Ġmobility": 7191,
      "Ġmotors": 7192,
      "Ġmounts": 7193,
      "Ġmounted": 7194,
      "Ġmobiles": 7195,
      "Ġmouth": 7196,
      "Ġmozamb": 7197,
      "Ġrights": 7198,
      "aser": 7199,
      "Ġmoved": 7200,
      "Ġmoves": 7201,
      "Ġmovers": 7202,
      "str": 7203,
      "stal": 7204,
      "stre": 7205,
      "stol": 7206,
      "store": 7207,
      "stical": 7208,
      "stances": 7209,
      "standing": 7210,
      "strong": 7211,
      "mega": 7212,
      "metery": 7213,
      "merald": 7214,
      "tia": 7215,
      "til": 7216,
      "tian": 7217,
      "tise": 7218,
      "tist": 7219,
      "tier": 7220,
      "tius": 7221,
      "tiac": 7222,
      "tiff": 7223,
      "tially": 7224,
      "tious": 7225,
      "tims": 7226,
      "tible": 7227,
      "tique": 7228,
      "Ġfc": 7229,
      "Ġfd": 7230,
      "Ġff": 7231,
      "Ġfg": 7232,
      "Ġfm": 7233,
      "Ġfp": 7234,
      "Ġfs": 7235,
      "Ġfx": 7236,
      "Ġfy": 7237,
      "Ġfan": 7238,
      "Ġfame": 7239,
      "Ġfal": 7240,
      "Ġfate": 7241,
      "Ġfed": 7242,
      "Ġfully": 7243,
      "Ġfos": 7244,
      "Ġfog": 7245,
      "Ġfles": 7246,
      "Ġfist": 7247,
      "Ġfans": 7248,
      "Ġfare": 7249,
      "Ġfred": 7250,
      "Ġfence": 7251,
      "Ġfive": 7252,
      "Ġfits": 7253,
      "Ġfcc": 7254,
      "Ġfda": 7255,
      "Ġfired": 7256,
      "Ġfell": 7257,
      "Ġfount": 7258,
      "Ġfusion": 7259,
      "Ġfiled": 7260,
      "Ġfallen": 7261,
      "Ġfbi": 7262,
      "Ġflying": 7263,
      "Ġfancy": 7264,
      "Ġfought": 7265,
      "Ġfull": 7266,
      "Ġflip": 7267,
      "Ġfont": 7268,
      "Ġfighter": 7269,
      "Ġfloyd": 7270,
      "Ġfonts": 7271,
      "Ġfighters": 7272,
      "wis": 7273,
      "wire": 7274,
      "wich": 7275,
      "wish": 7276,
      "wives": 7277,
      "wiki": 7278,
      "width": 7279,
      "Ġpleased": 7280,
      "Ġba": 7281,
      "Ġbb": 7282,
      "Ġbc": 7283,
      "Ġbd": 7284,
      "Ġbg": 7285,
      "Ġbk": 7286,
      "Ġbp": 7287,
      "Ġbs": 7288,
      "Ġbt": 7289,
      "Ġbw": 7290,
      "Ġbom": 7291,
      "Ġbef": 7292,
      "Ġbing": 7293,
      "Ġbit": 7294,
      "Ġbun": 7295,
      "Ġbil": 7296,
      "Ġbure": 7297,
      "Ġbum": 7298,
      "Ġbos": 7299,
      "Ġbay": 7300,
      "Ġbles": 7301,
      "Ġbap": 7302,
      "Ġbub": 7303,
      "Ġbru": 7304,
      "Ġbund": 7305,
      "Ġbone": 7306,
      "Ġbish": 7307,
      "Ġbits": 7308,
      "Ġbars": 7309,
      "Ġbite": 7310,
      "Ġbond": 7311,
      "Ġbones": 7312,
      "Ġbots": 7313,
      "Ġbless": 7314,
      "Ġbible": 7315,
      "Ġbbs": 7316,
      "Ġbored": 7317,
      "Ġbali": 7318,
      "Ġbases": 7319,
      "Ġbands": 7320,
      "Ġbeds": 7321,
      "Ġbinary": 7322,
      "Ġbush": 7323,
      "Ġbids": 7324,
      "Ġbass": 7325,
      "Ġbind": 7326,
      "Ġbunch": 7327,
      "Ġbold": 7328,
      "Ġbought": 7329,
      "Ġbaile": 7330,
      "Ġblend": 7331,
      "Ġbonds": 7332,
      "Ġbbc": 7333,
      "Ġbicy": 7334,
      "Ġballet": 7335,
      "Ġbhut": 7336,
      "Ġbleeding": 7337,
      "Ġrely": 7338,
      "Ġrear": 7339,
      "Ġrede": 7340,
      "Ġreward": 7341,
      "Ġreef": 7342,
      "Ġreed": 7343,
      "Ġrebo": 7344,
      "Ġreun": 7345,
      "Ġreel": 7346,
      "Ġreci": 7347,
      "Ġreid": 7348,
      "Ġresc": 7349,
      "Ġreally": 7350,
      "Ġrevi": 7351,
      "Ġreten": 7352,
      "Ġrena": 7353,
      "Ġrevel": 7354,
      "Ġreach": 7355,
      "Ġreno": 7356,
      "Ġreform": 7357,
      "Ġreality": 7358,
      "Ġreads": 7359,
      "Ġreading": 7360,
      "Ġrevision": 7361,
      "Ġreset": 7362,
      "Ġreload": 7363,
      "Ġreports": 7364,
      "Ġreaches": 7365,
      "Ġrelying": 7366,
      "Ġremedi": 7367,
      "Ġrental": 7368,
      "Ġrewards": 7369,
      "Ġrealty": 7370,
      "Ġreloc": 7371,
      "Ġrevisions": 7372,
      "Ġreforms": 7373,
      "Ġreaching": 7374,
      "Ġremarks": 7375,
      "Ġreject": 7376,
      "Ġreaction": 7377,
      "Ġreactions": 7378,
      "Ġrejected": 7379,
      "Ġreuters": 7380,
      "Ġreasons": 7381,
      "Ġreached": 7382,
      "Ġrendered": 7383,
      "Ġreynol": 7384,
      "die": 7385,
      "dif": 7386,
      "dix": 7387,
      "dise": 7388,
      "diat": 7389,
      "diction": 7390,
      "dited": 7391,
      "dium": 7392,
      "dits": 7393,
      "dities": 7394,
      "dish": 7395,
      "dives": 7396,
      "dible": 7397,
      "dicial": 7398,
      "division": 7399,
      "dients": 7400,
      "diversity": 7401,
      "Ġstem": 7402,
      "Ġsteal": 7403,
      "Ġstere": 7404,
      "Ġsteam": 7405,
      "Ġsteel": 7406,
      "Ġsteven": 7407,
      "Ġsteering": 7408,
      "Ġsterling": 7409,
      "Ġstewart": 7410,
      "dem": 7411,
      "dest": 7412,
      "deen": 7413,
      "defined": 7414,
      "oman": 7415,
      "omon": 7416,
      "ommer": 7417,
      "omple": 7418,
      "ombia": 7419,
      "terol": 7420,
      "terary": 7421,
      "teries": 7422,
      "terns": 7423,
      "terior": 7424,
      "terious": 7425,
      "terdam": 7426,
      "termine": 7427,
      "terrane": 7428,
      "roe": 7429,
      "rol": 7430,
      "rote": 7431,
      "roon": 7432,
      "rolled": 7433,
      "rolo": 7434,
      "rotic": 7435,
      "ropri": 7436,
      "rotk": 7437,
      "rounded": 7438,
      "rocod": 7439,
      "roleum": 7440,
      "Ġthee": 7441,
      "Ġthen": 7442,
      "Ġthey": 7443,
      "Ġtheft": 7444,
      "Ġthese": 7445,
      "Ġtheme": 7446,
      "Ġtheat": 7447,
      "Ġtheir": 7448,
      "Ġtheory": 7449,
      "Ġthemes": 7450,
      "Ġtheology": 7451,
      "Ġtheta": 7452,
      "Ġtheories": 7453,
      "Ġtheater": 7454,
      "Ġthesis": 7455,
      "Ġtheaters": 7456,
      "Ġthehun": 7457,
      "Ġthermal": 7458,
      "Ġthesaur": 7459,
      "Ġtherape": 7460,
      "andria": 7461,
      "ames": 7462,
      "aments": 7463,
      "commit": 7464,
      "communic": 7465,
      "Ġradar": 7466,
      "Ġradical": 7467,
      "Ġradio": 7468,
      "Ġtoe": 7469,
      "Ġtoo": 7470,
      "Ġtoll": 7471,
      "Ġtook": 7472,
      "Ġtops": 7473,
      "Ġtoys": 7474,
      "Ġtoile": 7475,
      "Ġtold": 7476,
      "Ġtough": 7477,
      "Ġtours": 7478,
      "Ġtoday": 7479,
      "Ġtoler": 7480,
      "Ġtoget": 7481,
      "Ġtouring": 7482,
      "Ġtown": 7483,
      "Ġtooth": 7484,
      "Ġtoxic": 7485,
      "Ġtobag": 7486,
      "Ġtoky": 7487,
      "Ġtoken": 7488,
      "Ġtoshi": 7489,
      "Ġtobac": 7490,
      "erm": 7491,
      "eror": 7492,
      "erra": 7493,
      "erie": 7494,
      "erto": 7495,
      "erque": 7496,
      "erarch": 7497,
      "aling": 7498,
      "alia": 7499,
      "alties": 7500,
      "alled": 7501,
      "alaxy": 7502,
      "Ġford": 7503,
      "Ġfork": 7504,
      "Ġforce": 7505,
      "Ġforth": 7506,
      "Ġforge": 7507,
      "Ġforum": 7508,
      "Ġforces": 7509,
      "Ġforty": 7510,
      "Ġforms": 7511,
      "Ġforced": 7512,
      "Ġformed": 7513,
      "Ġforget": 7514,
      "Ġforming": 7515,
      "Ġforums": 7516,
      "Ġforests": 7517,
      "Ġforever": 7518,
      "Ġforeign": 7519,
      "ref": 7520,
      "rek": 7521,
      "rel": 7522,
      "retion": 7523,
      "real": 7524,
      "reed": 7525,
      "rement": 7526,
      "reen": 7527,
      "rect": 7528,
      "reds": 7529,
      "rens": 7530,
      "resh": 7531,
      "reach": 7532,
      "reading": 7533,
      "rehens": 7534,
      "republic": 7535,
      "Ġing": 7536,
      "Ġinn": 7537,
      "Ġinner": 7538,
      "Ġindire": 7539,
      "Ġinch": 7540,
      "Ġinns": 7541,
      "Ġinval": 7542,
      "Ġinvis": 7543,
      "Ġinto": 7544,
      "Ġinches": 7545,
      "Ġinje": 7546,
      "Ġinline": 7547,
      "Ġindia": 7548,
      "Ġinvent": 7549,
      "Ġinvision": 7550,
      "Ġindo": 7551,
      "Ġinbox": 7552,
      "Ġinvention": 7553,
      "Ġinapp": 7554,
      "Ġinex": 7555,
      "Ġingre": 7556,
      "Ġinput": 7557,
      "Ġinputs": 7558,
      "Ġintimate": 7559,
      "Ġinsects": 7560,
      "Ġinheri": 7561,
      "Ġconvi": 7562,
      "Ġconsent": 7563,
      "Ġcongra": 7564,
      "Ġcondo": 7565,
      "Ġconvin": 7566,
      "Ġcongo": 7567,
      "Ġcongress": 7568,
      "Ġcondos": 7569,
      "Ġcongression": 7570,
      "Ġconjun": 7571,
      "Ġconvic": 7572,
      "9076": 7573,
      "9077": 7574,
      "9006": 7575,
      "6056": 7576,
      "6042": 7577,
      "6088": 7578,
      "6093": 7579,
      "6004": 7580,
      "7000": 7581,
      "7051": 7582,
      "nto": 7583,
      "nty": 7584,
      "ntown": 7585,
      "ilyn": 7586,
      "8012": 7587,
      "8098": 7588,
      "8004": 7589,
      "5026": 7590,
      "5042": 7591,
      "5041": 7592,
      "5009": 7593,
      "5005": 7594,
      "4016": 7595,
      "4024": 7596,
      "4022": 7597,
      "4051": 7598,
      "4084": 7599,
      "4064": 7600,
      "3056": 7601,
      "3061": 7602,
      "3005": 7603,
      "Ġslot": 7604,
      "Ġslim": 7605,
      "Ġslip": 7606,
      "Ġslope": 7607,
      "Ġslots": 7608,
      "Ġslave": 7609,
      "Ġsloven": 7610,
      "2060": 7611,
      "2042": 7612,
      "2066": 7613,
      "2088": 7614,
      "2063": 7615,
      "2062": 7616,
      "2095": 7617,
      "2009": 7618,
      "2002": 7619,
      "2003": 7620,
      "1000": 7621,
      "1031": 7622,
      "1082": 7623,
      "opter": 7624,
      "oper": 7625,
      "ophy": 7626,
      "oppy": 7627,
      "neric": 7628,
      "nergy": 7629,
      "Ġmany": 7630,
      "Ġmanor": 7631,
      "Ġmanit": 7632,
      "Ġmanual": 7633,
      "Ġmanually": 7634,
      "Ġmanga": 7635,
      "Ġmanaging": 7636,
      "Ġmanaged": 7637,
      "Ġmanhat": 7638,
      "Ġmanchester": 7639,
      "Ġata": 7640,
      "Ġatlan": 7641,
      "Ġatlas": 7642,
      "Ġathens": 7643,
      "Ġatlanta": 7644,
      "eful": 7645,
      "Ġswiss": 7646,
      "ccer": 7647,
      "tha": 7648,
      "thm": 7649,
      "thic": 7650,
      "thol": 7651,
      "thors": 7652,
      "though": 7653,
      "thuania": 7654,
      "atest": 7655,
      "atever": 7656,
      "ateur": 7657,
      "atemal": 7658,
      "Ġwise": 7659,
      "Ġwider": 7660,
      "Ġwisc": 7661,
      "Ġwifi": 7662,
      "Ġwives": 7663,
      "Ġwired": 7664,
      "Ġwils": 7665,
      "Ġwife": 7666,
      "Ġwires": 7667,
      "Ġwiring": 7668,
      "Ġwichi": 7669,
      "Ġwiley": 7670,
      "Ġwilling": 7671,
      "Ġwitch": 7672,
      "Ġwizard": 7673,
      "Ġwidth": 7674,
      "Ġwilder": 7675,
      "Ġwithin": 7676,
      "Ġwithout": 7677,
      "Ġwithdra": 7678,
      "Ġga": 7679,
      "Ġgc": 7680,
      "Ġgd": 7681,
      "Ġgg": 7682,
      "Ġgp": 7683,
      "Ġgt": 7684,
      "Ġgig": 7685,
      "Ġgst": 7686,
      "Ġgis": 7687,
      "Ġgul": 7688,
      "Ġgat": 7689,
      "Ġgur": 7690,
      "Ġgil": 7691,
      "Ġgel": 7692,
      "Ġgla": 7693,
      "Ġgab": 7694,
      "Ġgay": 7695,
      "Ġgain": 7696,
      "Ġgary": 7697,
      "Ġgage": 7698,
      "Ġgps": 7699,
      "Ġgone": 7700,
      "Ġgore": 7701,
      "Ġgale": 7702,
      "Ġgive": 7703,
      "Ġgates": 7704,
      "Ġgang": 7705,
      "Ġgets": 7706,
      "Ġgord": 7707,
      "Ġgcc": 7708,
      "Ġgho": 7709,
      "Ġglow": 7710,
      "Ġgrate": 7711,
      "Ġgmb": 7712,
      "Ġgays": 7713,
      "Ġgamb": 7714,
      "Ġgains": 7715,
      "Ġgau": 7716,
      "Ġgaz": 7717,
      "Ġgba": 7718,
      "Ġgained": 7719,
      "Ġgently": 7720,
      "Ġgpl": 7721,
      "Ġgave": 7722,
      "Ġgmc": 7723,
      "Ġglen": 7724,
      "Ġgdp": 7725,
      "Ġghz": 7726,
      "Ġgtk": 7727,
      "Ġgonna": 7728,
      "Ġgorge": 7729,
      "Ġghana": 7730,
      "Ġgym": 7731,
      "Ġgzip": 7732,
      "Ġglenn": 7733,
      "Ġgadgets": 7734,
      "Ġgalaxy": 7735,
      "edom": 7736,
      "edded": 7737,
      "hio": 7738,
      "his": 7739,
      "hies": 7740,
      "hiers": 7741,
      "histic": 7742,
      "hibit": 7743,
      "0020": 7744,
      "0037": 7745,
      "0025": 7746,
      "0055": 7747,
      "0042": 7748,
      "0041": 7749,
      "0002": 7750,
      "iden": 7751,
      "Ġships": 7752,
      "Ġshield": 7753,
      "Ġshipped": 7754,
      "Ġshipping": 7755,
      "Ġprove": 7756,
      "Ġprope": 7757,
      "Ġproven": 7758,
      "Ġproved": 7759,
      "Ġpropri": 7760,
      "Ġprovision": 7761,
      "Ġprobe": 7762,
      "Ġproof": 7763,
      "Ġprovid": 7764,
      "Ġprostor": 7765,
      "Ġprohib": 7766,
      "Ġprovisions": 7767,
      "Ġproxy": 7768,
      "Ġprojected": 7769,
      "Ġprostate": 7770,
      "Ġprozac": 7771,
      "Ġslides": 7772,
      "Ġslidesh": 7773,
      "Ġprocessing": 7774,
      "Ġprocessed": 7775,
      "Ġprocesses": 7776,
      "Ġproceeds": 7777,
      "Ġproceeding": 7778,
      "Ġproceedings": 7779,
      "Ġgoal": 7780,
      "Ġgoing": 7781,
      "Ġgoat": 7782,
      "Ġgour": 7783,
      "Ġgoes": 7784,
      "Ġgoss": 7785,
      "Ġgods": 7786,
      "Ġgosp": 7787,
      "Ġgoals": 7788,
      "Ġgood": 7789,
      "Ġgold": 7790,
      "Ġgoto": 7791,
      "Ġgolf": 7792,
      "Ġgoods": 7793,
      "Ġgolden": 7794,
      "Ġgoogle": 7795,
      "Ġgothic": 7796,
      "isa": 7797,
      "isy": 7798,
      "ishi": 7799,
      "isis": 7800,
      "isure": 7801,
      "isine": 7802,
      "isia": 7803,
      "isons": 7804,
      "isms": 7805,
      "isbane": 7806,
      "isdiction": 7807,
      "Ġpac": 7808,
      "Ġpam": 7809,
      "Ġpaul": 7810,
      "Ġpage": 7811,
      "Ġpaci": 7812,
      "Ġpaid": 7813,
      "Ġpays": 7814,
      "Ġpages": 7815,
      "Ġpaying": 7816,
      "Ġpayp": 7817,
      "Ġpainted": 7818,
      "Ġpastor": 7819,
      "Ġpaths": 7820,
      "Ġpapers": 7821,
      "Ġpakistan": 7822,
      "Ġpapua": 7823,
      "Ġpavil": 7824,
      "Ġpaxil": 7825,
      "Ġstops": 7826,
      "Ġstopping": 7827,
      "Ġstopped": 7828,
      "Ġconsul": 7829,
      "Ġconsists": 7830,
      "Ġconsole": 7831,
      "Ġconsumption": 7832,
      "Ġconsoles": 7833,
      "Ġconspi": 7834,
      "Ġconsortium": 7835,
      "bow": 7836,
      "boy": 7837,
      "bourn": 7838,
      "bodies": 7839,
      "bolism": 7840,
      "istent": 7841,
      "istence": 7842,
      "Ġconsistency": 7843,
      "Ġconsistently": 7844,
      "tated": 7845,
      "Ġportal": 7846,
      "Ġportable": 7847,
      "Ġportland": 7848,
      "Ġportfol": 7849,
      "Ġanat": 7850,
      "Ġanger": 7851,
      "Ġanot": 7852,
      "Ġanch": 7853,
      "Ġanci": 7854,
      "Ġanten": 7855,
      "Ġanna": 7856,
      "Ġandy": 7857,
      "Ġanni": 7858,
      "Ġanony": 7859,
      "Ġanalog": 7860,
      "Ġanime": 7861,
      "Ġanderson": 7862,
      "Ġanxiety": 7863,
      "inguished": 7864,
      "ingerie": 7865,
      "ulu": 7866,
      "ulin": 7867,
      "ulum": 7868,
      "ults": 7869,
      "ulpt": 7870,
      "ulative": 7871,
      "atus": 7872,
      "atry": 7873,
      "atche": 7874,
      "atures": 7875,
      "atrina": 7876,
      "ril": 7877,
      "rix": 7878,
      "rian": 7879,
      "rise": 7880,
      "rial": 7881,
      "ristop": 7882,
      "riel": 7883,
      "rium": 7884,
      "riff": 7885,
      "rities": 7886,
      "rifi": 7887,
      "rimin": 7888,
      "rived": 7889,
      "riller": 7890,
      "riend": 7891,
      "ritis": 7892,
      "ripts": 7893,
      "ricia": 7894,
      "ridges": 7895,
      "ritage": 7896,
      "Ġbacked": 7897,
      "Ġbacking": 7898,
      "Ġbackup": 7899,
      "Ġbackground": 7900,
      "Ġbackgro": 7901,
      "verly": 7902,
      "verty": 7903,
      "Ġada": 7904,
      "Ġads": 7905,
      "Ġadverse": 7906,
      "Ġadam": 7907,
      "Ġadds": 7908,
      "Ġadding": 7909,
      "Ġadult": 7910,
      "Ġadded": 7911,
      "Ġadmit": 7912,
      "Ġadware": 7913,
      "Ġadams": 7914,
      "Ġadmission": 7915,
      "Ġadmitted": 7916,
      "Ġadmissions": 7917,
      "Ġadsl": 7918,
      "Ġadoles": 7919,
      "Ġadobe": 7920,
      "Ġadults": 7921,
      "Ġadrian": 7922,
      "Ġretro": 7923,
      "Ġretain": 7924,
      "Ġretail": 7925,
      "Ġretained": 7926,
      "Ġreceive": 7927,
      "Ġreception": 7928,
      "verseas": 7929,
      "Ġadvice": 7930,
      "Ġadvise": 7931,
      "Ġadvised": 7932,
      "Ġadvanced": 7933,
      "Ġadvances": 7934,
      "Ġadvancement": 7935,
      "llect": 7936,
      "llery": 7937,
      "llegal": 7938,
      "lleyball": 7939,
      "Ġcontam": 7940,
      "Ġcontac": 7941,
      "Ġcontains": 7942,
      "Ġcontained": 7943,
      "Ġcontact": 7944,
      "Ġcontrary": 7945,
      "Ġcontacts": 7946,
      "Ġcontacting": 7947,
      "urg": 7948,
      "urers": 7949,
      "urric": 7950,
      "urred": 7951,
      "urwe": 7952,
      "urday": 7953,
      "urban": 7954,
      "urham": 7955,
      "urisdiction": 7956,
      "Ġbrian": 7957,
      "Ġbritain": 7958,
      "Ġbridge": 7959,
      "Ġbrilli": 7960,
      "Ġbridges": 7961,
      "Ġbritish": 7962,
      "Ġbritan": 7963,
      "Ġbridal": 7964,
      "Ġbritney": 7965,
      "Ġbristol": 7966,
      "Ġcall": 7967,
      "Ġcalci": 7968,
      "Ġcalib": 7969,
      "Ġcalls": 7970,
      "Ġcalled": 7971,
      "Ġcalling": 7972,
      "Ġcalvin": 7973,
      "Ġcalgary": 7974,
      "Ġcalifor": 7975,
      "Ġcontrol": 7976,
      "Ġcontrols": 7977,
      "Ġcontroller": 7978,
      "Ġcontrolling": 7979,
      "Ġcontrollers": 7980,
      "Ġbriefs": 7981,
      "Ġbriefing": 7982,
      "Ġbye": 7983,
      "Ġbyte": 7984,
      "Ġbytes": 7985,
      "Ġfax": 7986,
      "Ġface": 7987,
      "Ġfact": 7988,
      "Ġfasc": 7989,
      "Ġfake": 7990,
      "Ġfaces": 7991,
      "Ġfault": 7992,
      "Ġfactor": 7993,
      "Ġfacts": 7994,
      "Ġfaced": 7995,
      "Ġfacing": 7996,
      "Ġfactors": 7997,
      "Ġfacial": 7998,
      "Ġfails": 7999,
      "Ġfacul": 8000,
      "Ġfaith": 8001,
      "Ġfaster": 8002,
      "Ġfairy": 8003,
      "Ġfailed": 8004,
      "Ġfactory": 8005,
      "Ġfabul": 8006,
      "Ġfashi": 8007,
      "Ġfastest": 8008,
      "Ġhb": 8009,
      "Ġhc": 8010,
      "Ġhh": 8011,
      "Ġhk": 8012,
      "Ġhl": 8013,
      "Ġhp": 8014,
      "Ġhq": 8015,
      "Ġhr": 8016,
      "Ġhs": 8017,
      "Ġhz": 8018,
      "Ġhad": 8019,
      "Ġhate": 8020,
      "Ġhat": 8021,
      "Ġhus": 8022,
      "Ġhas": 8023,
      "Ġhans": 8024,
      "Ġhub": 8025,
      "Ġhous": 8026,
      "Ġhint": 8027,
      "Ġhong": 8028,
      "Ġhrs": 8029,
      "Ġhugh": 8030,
      "Ġhope": 8031,
      "Ġhats": 8032,
      "Ġhali": 8033,
      "Ġhash": 8034,
      "Ġhamb": 8035,
      "Ġhints": 8036,
      "Ġhull": 8037,
      "Ġhurt": 8038,
      "Ġhunter": 8039,
      "Ġhanded": 8040,
      "Ġhalf": 8041,
      "Ġhalo": 8042,
      "Ġhunger": 8043,
      "Ġhoney": 8044,
      "Ġhwy": 8045,
      "Ġhansen": 8046,
      "Ġhindu": 8047,
      "Ġhref": 8048,
      "Ġhurric": 8049,
      "Ġspen": 8050,
      "Ġspas": 8051,
      "Ġspam": 8052,
      "Ġspel": 8053,
      "Ġspain": 8054,
      "Ġspies": 8055,
      "Ġspent": 8056,
      "Ġspence": 8057,
      "Ġspice": 8058,
      "Ġspati": 8059,
      "Ġspank": 8060,
      "Ġspace": 8061,
      "Ġsphere": 8062,
      "Ġspots": 8063,
      "Ġspend": 8064,
      "Ġspouse": 8065,
      "Ġsports": 8066,
      "Ġspell": 8067,
      "Ġspoke": 8068,
      "Ġspray": 8069,
      "Ġspread": 8070,
      "Ġsprings": 8071,
      "Ġsprint": 8072,
      "Ġspider": 8073,
      "Ġsplit": 8074,
      "Ġsperm": 8075,
      "Ġspreading": 8076,
      "Ġcarb": 8077,
      "Ġcarl": 8078,
      "Ġcars": 8079,
      "Ġcarter": 8080,
      "Ġcaring": 8081,
      "Ġcarlo": 8082,
      "Ġcarib": 8083,
      "Ġcarmen": 8084,
      "Ġcarni": 8085,
      "Ġcarries": 8086,
      "Ġcargo": 8087,
      "Ġcarlos": 8088,
      "Ġcarroll": 8089,
      "Ġcarried": 8090,
      "Ġcarbon": 8091,
      "Ġcarrier": 8092,
      "Ġcarriers": 8093,
      "Ġcarpet": 8094,
      "Ġcareful": 8095,
      "Ġrod": 8096,
      "Ġrow": 8097,
      "Ġrole": 8098,
      "Ġroad": 8099,
      "Ġrock": 8100,
      "Ġrose": 8101,
      "Ġrome": 8102,
      "Ġroom": 8103,
      "Ġrover": 8104,
      "Ġrolled": 8105,
      "Ġroger": 8106,
      "Ġroot": 8107,
      "Ġross": 8108,
      "Ġroles": 8109,
      "Ġroll": 8110,
      "Ġroses": 8111,
      "Ġround": 8112,
      "Ġroland": 8113,
      "Ġroute": 8114,
      "Ġrocks": 8115,
      "Ġroller": 8116,
      "Ġroots": 8117,
      "Ġroads": 8118,
      "Ġroutes": 8119,
      "Ġrows": 8120,
      "Ġrolling": 8121,
      "Ġrogers": 8122,
      "Ġrounds": 8123,
      "Ġroof": 8124,
      "Ġroster": 8125,
      "Ġrooms": 8126,
      "Ġrolls": 8127,
      "Ġrocket": 8128,
      "Ġrotation": 8129,
      "Ġrocky": 8130,
      "Ġrosa": 8131,
      "Ġrochester": 8132,
      "Ġrotary": 8133,
      "Ġturns": 8134,
      "Ġturned": 8135,
      "Ġturning": 8136,
      "Ġspine": 8137,
      "Ġceo": 8138,
      "Ġcet": 8139,
      "Ġcement": 8140,
      "Ġcents": 8141,
      "Ġcells": 8142,
      "Ġceiling": 8143,
      "Ġcensus": 8144,
      "Ġceltic": 8145,
      "Ġceramic": 8146,
      "Ġcemetery": 8147,
      "Ġmovements": 8148,
      "2916": 8149,
      "2944": 8150,
      "2932": 8151,
      "2953": 8152,
      "2998": 8153,
      "2987": 8154,
      "2981": 8155,
      "Ġlb": 8156,
      "Ġlc": 8157,
      "Ġld": 8158,
      "Ġlf": 8159,
      "Ġlg": 8160,
      "Ġlm": 8161,
      "Ġln": 8162,
      "Ġlp": 8163,
      "Ġls": 8164,
      "Ġlance": 8165,
      "Ġlack": 8166,
      "Ġlol": 8167,
      "Ġlil": 8168,
      "Ġlas": 8169,
      "Ġlion": 8170,
      "Ġlid": 8171,
      "Ġlug": 8172,
      "Ġlions": 8173,
      "Ġlines": 8174,
      "Ġlord": 8175,
      "Ġlamp": 8176,
      "Ġlope": 8177,
      "Ġlank": 8178,
      "Ġlond": 8179,
      "Ġlined": 8180,
      "Ġlane": 8181,
      "Ġlots": 8182,
      "Ġlists": 8183,
      "Ġlbs": 8184,
      "Ġlights": 8185,
      "Ġlung": 8186,
      "Ġlands": 8187,
      "Ġlanding": 8188,
      "Ġlately": 8189,
      "Ġlows": 8190,
      "Ġlunch": 8191,
      "Ġlakes": 8192,
      "Ġlcd": 8193,
      "Ġlisted": 8194,
      "Ġlighter": 8195,
      "Ġlicking": 8196,
      "Ġlamps": 8197,
      "Ġluther": 8198,
      "Ġlloyd": 8199,
      "Ġlaser": 8200,
      "Ġlisa": 8201,
      "Ġlingerie": 8202,
      "1920": 8203,
      "1937": 8204,
      "1938": 8205,
      "1955": 8206,
      "1974": 8207,
      "1943": 8208,
      "1973": 8209,
      "1961": 8210,
      "3799": 8211,
      "3712": 8212,
      "3773": 8213,
      "3769": 8214,
      "2680": 8215,
      "2629": 8216,
      "2636": 8217,
      "2647": 8218,
      "2657": 8219,
      "2688": 8220,
      "2687": 8221,
      "2697": 8222,
      "3475": 8223,
      "3423": 8224,
      "3432": 8225,
      "3488": 8226,
      "2515": 8227,
      "2518": 8228,
      "2523": 8229,
      "2598": 8230,
      "2567": 8231,
      "2562": 8232,
      "2591": 8233,
      "1710": 8234,
      "1746": 8235,
      "1755": 8236,
      "1773": 8237,
      "1786": 8238,
      "1784": 8239,
      "1764": 8240,
      "1792": 8241,
      "3537": 8242,
      "3578": 8243,
      "3543": 8244,
      "3565": 8245,
      "3561": 8246,
      "3595": 8247,
      "1478": 8248,
      "1433": 8249,
      "1486": 8250,
      "1482": 8251,
      "3837": 8252,
      "3824": 8253,
      "3876": 8254,
      "3843": 8255,
      "3889": 8256,
      "3861": 8257,
      "3894": 8258,
      "3893": 8259,
      "1660": 8260,
      "1647": 8261,
      "1699": 8262,
      "1658": 8263,
      "1677": 8264,
      "1657": 8265,
      "1642": 8266,
      "1664": 8267,
      "1694": 8268,
      "1693": 8269,
      "2729": 8270,
      "2734": 8271,
      "2745": 8272,
      "2778": 8273,
      "2777": 8274,
      "2742": 8275,
      "2787": 8276,
      "2782": 8277,
      "3980": 8278,
      "3929": 8279,
      "3917": 8280,
      "3939": 8281,
      "3979": 8282,
      "3989": 8283,
      "2880": 8284,
      "2830": 8285,
      "2828": 8286,
      "2822": 8287,
      "2889": 8288,
      "2896": 8289,
      "1536": 8290,
      "1524": 8291,
      "1555": 8292,
      "1544": 8293,
      "1566": 8294,
      "1584": 8295,
      "1825": 8296,
      "1869": 8297,
      "1885": 8298,
      "1881": 8299,
      "3630": 8300,
      "3625": 8301,
      "3617": 8302,
      "3654": 8303,
      "3689": 8304,
      "3664": 8305,
      "2480": 8306,
      "2419": 8307,
      "2445": 8308,
      "2478": 8309,
      "2461": 8310,
      "Ġoc": 8311,
      "Ġoe": 8312,
      "Ġog": 8313,
      "Ġoh": 8314,
      "Ġoo": 8315,
      "Ġos": 8316,
      "Ġou": 8317,
      "Ġoil": 8318,
      "Ġosc": 8319,
      "Ġoven": 8320,
      "Ġocl": 8321,
      "Ġoec": 8322,
      "Ġoval": 8323,
      "Ġold": 8324,
      "Ġours": 8325,
      "Ġoops": 8326,
      "Ġoem": 8327,
      "Ġoils": 8328,
      "Ġooo": 8329,
      "Ġovera": 8330,
      "Ġought": 8331,
      "Ġodd": 8332,
      "Ġoxy": 8333,
      "Ġouter": 8334,
      "Ġoasis": 8335,
      "Ġodds": 8336,
      "Ġocean": 8337,
      "Ġomega": 8338,
      "Ġohio": 8339,
      "Ġoverseas": 8340,
      "4525": 8341,
      "4522": 8342,
      "4553": 8343,
      "4568": 8344,
      "4740": 8345,
      "4720": 8346,
      "4716": 8347,
      "4756": 8348,
      "4733": 8349,
      "4712": 8350,
      "4782": 8351,
      "4660": 8352,
      "4615": 8353,
      "4618": 8354,
      "4678": 8355,
      "4677": 8356,
      "4644": 8357,
      "4688": 8358,
      "4683": 8359,
      "4692": 8360,
      "Ġforwarding": 8361,
      "4848": 8362,
      "4853": 8363,
      "4889": 8364,
      "4898": 8365,
      "4882": 8366,
      "4863": 8367,
      "4881": 8368,
      "4862": 8369,
      "4892": 8370,
      "9984": 8371,
      "owa": 8372,
      "oween": 8373,
      "5690": 8374,
      "5618": 8375,
      "5659": 8376,
      "5623": 8377,
      "5674": 8378,
      "5686": 8379,
      "5662": 8380,
      "5847": 8381,
      "5813": 8382,
      "5874": 8383,
      "4950": 8384,
      "4930": 8385,
      "4976": 8386,
      "4922": 8387,
      "4923": 8388,
      "4913": 8389,
      "4969": 8390,
      "4968": 8391,
      "4983": 8392,
      "Ġcam": 8393,
      "Ġcave": 8394,
      "Ġcage": 8395,
      "Ġcape": 8396,
      "Ġcake": 8397,
      "Ġcaps": 8398,
      "Ġcash": 8399,
      "Ġcache": 8400,
      "Ġcams": 8401,
      "Ġcafe": 8402,
      "Ġcable": 8403,
      "Ġcamb": 8404,
      "Ġcause": 8405,
      "Ġcasse": 8406,
      "Ġcached": 8407,
      "Ġcakes": 8408,
      "Ġcaused": 8409,
      "Ġcaught": 8410,
      "Ġcambo": 8411,
      "Ġcauses": 8412,
      "Ġcasting": 8413,
      "Ġcatering": 8414,
      "Ġcausing": 8415,
      "Ġcayman": 8416,
      "Ġcathol": 8417,
      "7652": 8418,
      "gery": 8419,
      "geria": 8420,
      "fore": 8421,
      "force": 8422,
      "forcement": 8423,
      "allas": 8424,
      "Ġoften": 8425,
      "Ġheads": 8426,
      "Ġheader": 8427,
      "Ġheaded": 8428,
      "Ġheading": 8429,
      "Ġheaders": 8430,
      "Ġheadph": 8431,
      "Ġheadline": 8432,
      "Ġheadset": 8433,
      "Ġheadlines": 8434,
      "Ġheadquarters": 8435,
      "Ġtowards": 8436,
      "Ġlarry": 8437,
      "Ġlargest": 8438,
      "Ġsms": 8439,
      "Ġsmok": 8440,
      "Ġsmile": 8441,
      "Ġsmart": 8442,
      "Ġsmoke": 8443,
      "Ġsmtp": 8444,
      "Ġsmilies": 8445,
      "Ġsmooth": 8446,
      "Ġsteps": 8447,
      "Ġstephen": 8448,
      "Ġstephan": 8449,
      "2126": 8450,
      "2133": 8451,
      "2132": 8452,
      "2131": 8453,
      "7578": 8454,
      "1134": 8455,
      "1135": 8456,
      "1128": 8457,
      "1132": 8458,
      "2220": 8459,
      "2234": 8460,
      "2216": 8461,
      "2218": 8462,
      "5520": 8463,
      "5529": 8464,
      "5516": 8465,
      "5539": 8466,
      "5575": 8467,
      "5522": 8468,
      "otation": 8469,
      "otype": 8470,
      "othetical": 8471,
      "2320": 8472,
      "2335": 8473,
      "7714": 8474,
      "4446": 8475,
      "4444": 8476,
      "4443": 8477,
      "Ġdear": 8478,
      "Ġdean": 8479,
      "Ġdeck": 8480,
      "Ġdeer": 8481,
      "Ġdealt": 8482,
      "Ġdeut": 8483,
      "Ġdell": 8484,
      "Ġdesp": 8485,
      "Ġdeals": 8486,
      "Ġdefic": 8487,
      "Ġdelic": 8488,
      "Ġdept": 8489,
      "Ġdedic": 8490,
      "Ġdenti": 8491,
      "Ġdefa": 8492,
      "Ġdeni": 8493,
      "Ġdeny": 8494,
      "Ġdeta": 8495,
      "Ġdebor": 8496,
      "Ġdecent": 8497,
      "Ġdenn": 8498,
      "Ġdeaf": 8499,
      "Ġdental": 8500,
      "Ġdensity": 8501,
      "Ġdeferred": 8502,
      "Ġdetro": 8503,
      "Ġdecember": 8504,
      "Ġderek": 8505,
      "Ġderived": 8506,
      "1329": 8507,
      "1315": 8508,
      "Ġrated": 8509,
      "Ġrates": 8510,
      "Ġdirections": 8511,
      "Ġpit": 8512,
      "Ġpich": 8513,
      "Ġpipe": 8514,
      "Ġpike": 8515,
      "Ġpione": 8516,
      "Ġpitch": 8517,
      "Ġpizz": 8518,
      "Ġpirates": 8519,
      "Ġpills": 8520,
      "Ġpics": 8521,
      "Ġpiece": 8522,
      "Ġpicture": 8523,
      "Ġpilot": 8524,
      "Ġpipes": 8525,
      "Ġpitts": 8526,
      "Ġpiano": 8527,
      "Ġpictures": 8528,
      "Ġpipel": 8529,
      "1230": 8530,
      "1224": 8531,
      "1221": 8532,
      "5410": 8533,
      "5427": 8534,
      "5760": 8535,
      "3280": 8536,
      "Ġee": 8537,
      "Ġeh": 8538,
      "Ġeq": 8539,
      "Ġez": 8540,
      "Ġeight": 8541,
      "Ġera": 8542,
      "Ġease": 8543,
      "Ġeat": 8544,
      "Ġever": 8545,
      "Ġeur": 8546,
      "Ġech": 8547,
      "Ġeos": 8548,
      "Ġesc": 8549,
      "Ġell": 8550,
      "Ġeug": 8551,
      "Ġesp": 8552,
      "Ġeast": 8553,
      "Ġears": 8554,
      "Ġeating": 8555,
      "Ġeach": 8556,
      "Ġeco": 8557,
      "Ġether": 8558,
      "Ġeden": 8559,
      "Ġebook": 8560,
      "Ġeau": 8561,
      "Ġeaster": 8562,
      "Ġegy": 8563,
      "Ġeyed": 8564,
      "Ġeye": 8565,
      "Ġellen": 8566,
      "Ġescape": 8567,
      "Ġepson": 8568,
      "Ġebooks": 8569,
      "Ġeither": 8570,
      "Ġeternal": 8571,
      "Ġeyes": 8572,
      "Ġemerald": 8573,
      "Ġerotic": 8574,
      "Ġenergy": 8575,
      "5360": 8576,
      "5325": 8577,
      "5317": 8578,
      "5318": 8579,
      "5313": 8580,
      "5117": 8581,
      "5121": 8582,
      "4235": 8583,
      "5225": 8584,
      "4119": 8585,
      "7313": 8586,
      "6667": 8587,
      "6685": 8588,
      "8849": 8589,
      "8832": 8590,
      "8867": 8591,
      "ulary": 8592,
      "Ġangry": 8593,
      "Ġangels": 8594,
      "Ġangola": 8595,
      "Ġangeles": 8596,
      "Ġdegree": 8597,
      "Ġdegrees": 8598,
      "8990": 8599,
      "8915": 8600,
      "8952": 8601,
      "8623": 8602,
      "8671": 8603,
      "8681": 8604,
      "6980": 8605,
      "6983": 8606,
      "6962": 8607,
      "esus": 8608,
      "esity": 8609,
      "esome": 8610,
      "esman": 8611,
      "6824": 8612,
      "6831": 8613,
      "6843": 8614,
      "Ġwb": 8615,
      "Ġwc": 8616,
      "Ġwm": 8617,
      "Ġwn": 8618,
      "Ġwp": 8619,
      "Ġwr": 8620,
      "Ġws": 8621,
      "Ġwt": 8622,
      "Ġwu": 8623,
      "Ġwv": 8624,
      "Ġwx": 8625,
      "Ġwing": 8626,
      "Ġwalt": 8627,
      "Ġwright": 8628,
      "Ġwow": 8629,
      "Ġwen": 8630,
      "Ġwol": 8631,
      "Ġwet": 8632,
      "Ġwine": 8633,
      "Ġwage": 8634,
      "Ġwings": 8635,
      "Ġwent": 8636,
      "Ġwma": 8637,
      "Ġwrap": 8638,
      "Ġwars": 8639,
      "Ġwins": 8640,
      "Ġwines": 8641,
      "Ġwai": 8642,
      "Ġwav": 8643,
      "Ġwto": 8644,
      "Ġwats": 8645,
      "Ġwants": 8646,
      "Ġways": 8647,
      "Ġwages": 8648,
      "Ġwrist": 8649,
      "Ġwhen": 8650,
      "Ġwhy": 8651,
      "Ġwood": 8652,
      "Ġwool": 8653,
      "Ġwound": 8654,
      "Ġwere": 8655,
      "Ġwrong": 8656,
      "Ġwrest": 8657,
      "Ġworship": 8658,
      "Ġwallet": 8659,
      "Ġwould": 8660,
      "Ġwicked": 8661,
      "Ġwoman": 8662,
      "Ġwrote": 8663,
      "9810": 8664,
      "9829": 8665,
      "9844": 8666,
      "enna": 8667,
      "enda": 8668,
      "endix": 8669,
      "itan": 8670,
      "itat": 8671,
      "itment": 8672,
      "itol": 8673,
      "iture": 8674,
      "itary": 8675,
      "itute": 8676,
      "itarian": 8677,
      "itrogen": 8678,
      "ituaries": 8679,
      "ican": 8680,
      "icon": 8681,
      "icide": 8682,
      "icies": 8683,
      "icial": 8684,
      "Ġnb": 8685,
      "Ġnc": 8686,
      "Ġnd": 8687,
      "Ġng": 8688,
      "Ġnj": 8689,
      "Ġnl": 8690,
      "Ġnm": 8691,
      "Ġnn": 8692,
      "Ġnp": 8693,
      "Ġnr": 8694,
      "Ġns": 8695,
      "Ġnv": 8696,
      "Ġnw": 8697,
      "Ġnz": 8698,
      "Ġnil": 8699,
      "Ġnir": 8700,
      "Ġnum": 8701,
      "Ġnine": 8702,
      "Ġnations": 8703,
      "Ġnia": 8704,
      "Ġnap": 8705,
      "Ġnok": 8706,
      "Ġniss": 8707,
      "Ġnak": 8708,
      "Ġnvi": 8709,
      "Ġnone": 8710,
      "Ġnast": 8711,
      "Ġnative": 8712,
      "Ġnice": 8713,
      "Ġnurs": 8714,
      "Ġnumb": 8715,
      "Ġnich": 8716,
      "Ġnational": 8717,
      "Ġnels": 8718,
      "Ġnights": 8719,
      "Ġnash": 8720,
      "Ġnuts": 8721,
      "Ġnyl": 8722,
      "Ġnba": 8723,
      "Ġnsw": 8724,
      "Ġnhs": 8725,
      "Ġnca": 8726,
      "Ġnancy": 8727,
      "Ġnull": 8728,
      "Ġnested": 8729,
      "Ġnbc": 8730,
      "Ġnano": 8731,
      "Ġninten": 8732,
      "Ġnathan": 8733,
      "Ġnascar": 8734,
      "Ġnfl": 8735,
      "Ġnitrogen": 8736,
      "ationally": 8737,
      "Ġdb": 8738,
      "Ġdc": 8739,
      "Ġdf": 8740,
      "Ġdg": 8741,
      "Ġdh": 8742,
      "Ġdj": 8743,
      "Ġdk": 8744,
      "Ġdl": 8745,
      "Ġdm": 8746,
      "Ġdp": 8747,
      "Ġds": 8748,
      "Ġdt": 8749,
      "Ġdx": 8750,
      "Ġdance": 8751,
      "Ġdame": 8752,
      "Ġdate": 8753,
      "Ġdot": 8754,
      "Ġdun": 8755,
      "Ġdas": 8756,
      "Ġdut": 8757,
      "Ġdsc": 8758,
      "Ġdts": 8759,
      "Ġdans": 8760,
      "Ġdup": 8761,
      "Ġdated": 8762,
      "Ġdns": 8763,
      "Ġdust": 8764,
      "Ġdak": 8765,
      "Ġdare": 8766,
      "Ġdone": 8767,
      "Ġdna": 8768,
      "Ġdue": 8769,
      "Ġdale": 8770,
      "Ġdual": 8771,
      "Ġdates": 8772,
      "Ġdating": 8773,
      "Ġdying": 8774,
      "Ġdana": 8775,
      "Ġdumb": 8776,
      "Ġdays": 8777,
      "Ġdude": 8778,
      "Ġduring": 8779,
      "Ġdash": 8780,
      "Ġdyl": 8781,
      "Ġdining": 8782,
      "Ġdressed": 8783,
      "Ġdsl": 8784,
      "Ġduty": 8785,
      "Ġdump": 8786,
      "Ġdpi": 8787,
      "Ġdresses": 8788,
      "Ġdarwin": 8789,
      "Ġdinner": 8790,
      "Ġdicke": 8791,
      "Ġdurham": 8792,
      "Ġdallas": 8793,
      "unal": 8794,
      "unes": 8795,
      "unge": 8796,
      "unology": 8797,
      "unately": 8798,
      "untered": 8799,
      "unami": 8800,
      "olas": 8801,
      "ollo": 8802,
      "oline": 8803,
      "olta": 8804,
      "oloft": 8805,
      "olulu": 8806,
      "olitan": 8807,
      "iland": 8808,
      "ilation": 8809,
      "ilia": 8810,
      "ilib": 8811,
      "ilome": 8812,
      "ilton": 8813,
      "ilitation": 8814,
      "6510": 8815,
      "6525": 8816,
      "6737": 8817,
      "6738": 8818,
      "8728": 8819,
      "ctac": 8820,
      "sson": 8821,
      "ssil": 8822,
      "ssary": 8823,
      "Ġva": 8824,
      "Ġvb": 8825,
      "Ġvg": 8826,
      "Ġvt": 8827,
      "Ġvon": 8828,
      "Ġvat": 8829,
      "Ġvid": 8830,
      "Ġvist": 8831,
      "Ġvia": 8832,
      "Ġvill": 8833,
      "Ġvast": 8834,
      "Ġvint": 8835,
      "Ġvip": 8836,
      "Ġvamp": 8837,
      "Ġvice": 8838,
      "Ġvalle": 8839,
      "Ġvaries": 8840,
      "Ġvids": 8841,
      "Ġvatic": 8842,
      "Ġvhs": 8843,
      "Ġvital": 8844,
      "Ġvbul": 8845,
      "Ġvault": 8846,
      "Ġvalent": 8847,
      "8215": 8848,
      "8221": 8849,
      "6180": 8850,
      "6423": 8851,
      "8326": 8852,
      "8325": 8853,
      "9723": 8854,
      "usted": 8855,
      "usions": 8856,
      "usale": 8857,
      "usual": 8858,
      "ussels": 8859,
      "9426": 8860,
      "9411": 8861,
      "9412": 8862,
      "etration": 8863,
      "etings": 8864,
      "ettes": 8865,
      "Ġja": 8866,
      "Ġjc": 8867,
      "Ġjd": 8868,
      "Ġjj": 8869,
      "Ġjm": 8870,
      "Ġjp": 8871,
      "Ġjr": 8872,
      "Ġjs": 8873,
      "Ġjar": 8874,
      "Ġjet": 8875,
      "Ġjum": 8876,
      "Ġjay": 8877,
      "Ġjpe": 8878,
      "Ġjag": 8879,
      "Ġjok": 8880,
      "Ġjill": 8881,
      "Ġjess": 8882,
      "Ġjets": 8883,
      "Ġjord": 8884,
      "Ġjade": 8885,
      "Ġjail": 8886,
      "Ġjane": 8887,
      "Ġjones": 8888,
      "Ġjason": 8889,
      "Ġjels": 8890,
      "Ġjake": 8891,
      "Ġjaz": 8892,
      "Ġjury": 8893,
      "Ġjune": 8894,
      "Ġjpg": 8895,
      "Ġjump": 8896,
      "Ġjvc": 8897,
      "Ġjesse": 8898,
      "Ġjaco": 8899,
      "Ġjames": 8900,
      "Ġjurisdiction": 8901,
      "Ġjesus": 8902,
      "Ġexit": 8903,
      "Ġexport": 8904,
      "Ġexch": 8905,
      "Ġexists": 8906,
      "Ġexchan": 8907,
      "Ġexports": 8908,
      "Ġexpected": 8909,
      "Ġexisted": 8910,
      "Ġexpects": 8911,
      "Ġexcuse": 8912,
      "Ġextent": 8913,
      "Ġexpedia": 8914,
      "Ġexternal": 8915,
      "Ġexciting": 8916,
      "Ġexhaust": 8917,
      "Ġexotic": 8918,
      "Ġexterior": 8919,
      "Ġexhibit": 8920,
      "Ġexistence": 8921,
      "9548": 8922,
      "9599": 8923,
      "asy": 8924,
      "asions": 8925,
      "asma": 8926,
      "ashers": 8927,
      "asgow": 8928,
      "Ġdid": 8929,
      "Ġdim": 8930,
      "Ġdip": 8931,
      "Ġdiy": 8932,
      "Ġdice": 8933,
      "Ġdive": 8934,
      "Ġdial": 8935,
      "Ġdied": 8936,
      "Ġdiverse": 8937,
      "Ġdies": 8938,
      "Ġdiet": 8939,
      "Ġdiary": 8940,
      "Ġdish": 8941,
      "Ġdiving": 8942,
      "Ġdiana": 8943,
      "Ġdiane": 8944,
      "Ġdivision": 8945,
      "Ġdipl": 8946,
      "Ġdivisions": 8947,
      "Ġdietary": 8948,
      "Ġdiabe": 8949,
      "Ġdiversity": 8950,
      "Ġdiameter": 8951,
      "geted": 8952,
      "gests": 8953,
      "gerous": 8954,
      "gebra": 8955,
      "imal": 8956,
      "imate": 8957,
      "imony": 8958,
      "chants": 8959,
      "chtens": 8960,
      "amas": 8961,
      "amber": 8962,
      "ampton": 8963,
      "amaha": 8964,
      "elve": 8965,
      "elance": 8966,
      "elds": 8967,
      "ellow": 8968,
      "Ġcod": 8969,
      "Ġcole": 8970,
      "Ġcove": 8971,
      "Ġcoin": 8972,
      "Ġcode": 8973,
      "Ġcoat": 8974,
      "Ġcover": 8975,
      "Ġcoated": 8976,
      "Ġcoff": 8977,
      "Ġcoding": 8978,
      "Ġcovers": 8979,
      "Ġcoins": 8980,
      "Ġcoating": 8981,
      "Ġcoach": 8982,
      "Ġcomes": 8983,
      "Ġcosts": 8984,
      "Ġcohen": 8985,
      "Ġcouri": 8986,
      "Ġcoaches": 8987,
      "Ġcovered": 8988,
      "Ġcodes": 8989,
      "Ġcould": 8990,
      "Ġcoaching": 8991,
      "Ġcoverage": 8992,
      "Ġcoura": 8993,
      "Ġcounts": 8994,
      "Ġcoleman": 8995,
      "Ġcovering": 8996,
      "Ġcogni": 8997,
      "Ġcooler": 8998,
      "Ġcocktail": 8999,
      "Ġcooper": 9000,
      "utal": 9001,
      "uting": 9002,
      "utation": 9003,
      "utral": 9004,
      "utory": 9005,
      "utheast": 9006,
      "Ġka": 9007,
      "Ġkb": 9008,
      "Ġkg": 9009,
      "Ġkm": 9010,
      "Ġko": 9011,
      "Ġks": 9012,
      "Ġkw": 9013,
      "Ġky": 9014,
      "Ġkick": 9015,
      "Ġkde": 9016,
      "Ġkate": 9017,
      "Ġkim": 9018,
      "Ġkir": 9019,
      "Ġkay": 9020,
      "Ġkne": 9021,
      "Ġkings": 9022,
      "Ġkru": 9023,
      "Ġkod": 9024,
      "Ġkong": 9025,
      "Ġkits": 9026,
      "Ġkno": 9027,
      "Ġkai": 9028,
      "Ġkati": 9029,
      "Ġkaz": 9030,
      "Ġkids": 9031,
      "Ġkij": 9032,
      "Ġkara": 9033,
      "Ġkind": 9034,
      "Ġknew": 9035,
      "Ġkyle": 9036,
      "Ġkurt": 9037,
      "Ġkansas": 9038,
      "Ġkathy": 9039,
      "Ġkuwa": 9040,
      "Ġklein": 9041,
      "Ġkatrina": 9042,
      "Ġkilome": 9043,
      "Ġchad": 9044,
      "Ġchase": 9045,
      "Ġchat": 9046,
      "Ġchine": 9047,
      "Ġchain": 9048,
      "Ġchry": 9049,
      "Ġchub": 9050,
      "Ġchances": 9051,
      "Ġchamb": 9052,
      "Ġchains": 9053,
      "Ġchina": 9054,
      "Ġchass": 9055,
      "Ġchris": 9056,
      "Ġchicks": 9057,
      "Ġchrome": 9058,
      "Ġchocol": 9059,
      "Ġchaos": 9060,
      "Ġchuck": 9061,
      "Ġchorus": 9062,
      "Ġchristop": 9063,
      "Ġchamber": 9064,
      "Ġsue": 9065,
      "Ġsuse": 9066,
      "Ġsure": 9067,
      "Ġsuit": 9068,
      "Ġsuch": 9069,
      "Ġsuits": 9070,
      "Ġsuite": 9071,
      "Ġsuited": 9072,
      "Ġsupre": 9073,
      "Ġsucking": 9074,
      "Ġsuites": 9075,
      "Ġsurely": 9076,
      "Ġsuitable": 9077,
      "Ġsudan": 9078,
      "Ġsuzuki": 9079,
      "Ġsuicide": 9080,
      "law": 9081,
      "laide": 9082,
      "lative": 9083,
      "lavia": 9084,
      "cii": 9085,
      "cians": 9086,
      "cially": 9087,
      "cises": 9088,
      "abling": 9089,
      "abwe": 9090,
      "abulary": 9091,
      "abilia": 9092,
      "uren": 9093,
      "urement": 9094,
      "Ġsea": 9095,
      "Ġseo": 9096,
      "Ġseq": 9097,
      "Ġsean": 9098,
      "Ġseal": 9099,
      "Ġsent": 9100,
      "Ġseed": 9101,
      "Ġsection": 9102,
      "Ġsees": 9103,
      "Ġseen": 9104,
      "Ġseas": 9105,
      "Ġseven": 9106,
      "Ġsept": 9107,
      "Ġsections": 9108,
      "Ġsector": 9109,
      "Ġseating": 9110,
      "Ġsemes": 9111,
      "Ġseats": 9112,
      "Ġseller": 9113,
      "Ġsectors": 9114,
      "Ġseem": 9115,
      "Ġsevent": 9116,
      "Ġseeds": 9117,
      "Ġsega": 9118,
      "Ġseaf": 9119,
      "Ġsemi": 9120,
      "Ġsemic": 9121,
      "Ġsellers": 9122,
      "Ġsegment": 9123,
      "Ġseasons": 9124,
      "Ġsealed": 9125,
      "Ġsegments": 9126,
      "Ġsewing": 9127,
      "Ġsexually": 9128,
      "0870": 9129,
      "0850": 9130,
      "0814": 9131,
      "0818": 9132,
      "0822": 9133,
      "0874": 9134,
      "0851": 9135,
      "0841": 9136,
      "Ġcombo": 9137,
      "Ġcoming": 9138,
      "Ġcomment": 9139,
      "Ġcomic": 9140,
      "Ġcomments": 9141,
      "Ġcomics": 9142,
      "Ġcommentary": 9143,
      "Ġcommented": 9144,
      "ird": 9145,
      "iring": 9146,
      "uma": 9147,
      "uming": 9148,
      "umns": 9149,
      "umph": 9150,
      "umstances": 9151,
      "Ġenb": 9152,
      "Ġenters": 9153,
      "Ġends": 9154,
      "Ġending": 9155,
      "Ġency": 9156,
      "Ġenvel": 9157,
      "Ġended": 9158,
      "Ġenough": 9159,
      "Ġenables": 9160,
      "Ġenroll": 9161,
      "Ġenzy": 9162,
      "Ġentitled": 9163,
      "Ġensemble": 9164,
      "Ġenormous": 9165,
      "Ġendif": 9166,
      "Ġenrolled": 9167,
      "Ġenforcement": 9168,
      "Ġenabling": 9169,
      "lock": 9170,
      "lose": 9171,
      "look": 9172,
      "losed": 9173,
      "logs": 9174,
      "lime": 9175,
      "liers": 9176,
      "liest": 9177,
      "lified": 9178,
      "liances": 9179,
      "liott": 9180,
      "lifier": 9181,
      "livan": 9182,
      "0924": 9183,
      "0978": 9184,
      "0911": 9185,
      "0955": 9186,
      "0942": 9187,
      "0989": 9188,
      "0560": 9189,
      "0514": 9190,
      "0533": 9191,
      "0577": 9192,
      "0749": 9193,
      "0775": 9194,
      "Ġled": 9195,
      "Ġlee": 9196,
      "Ġleo": 9197,
      "Ġleu": 9198,
      "Ġlean": 9199,
      "Ġlets": 9200,
      "Ġlens": 9201,
      "Ġleone": 9202,
      "Ġleast": 9203,
      "Ġleads": 9204,
      "Ġleather": 9205,
      "Ġleading": 9206,
      "Ġleeds": 9207,
      "Ġleban": 9208,
      "Ġlemon": 9209,
      "Ġleaf": 9210,
      "Ġleave": 9211,
      "Ġleasing": 9212,
      "Ġlecture": 9213,
      "Ġlevy": 9214,
      "Ġlectures": 9215,
      "Ġleague": 9216,
      "Ġlevit": 9217,
      "Ġlewis": 9218,
      "Ġleisure": 9219,
      "0490": 9220,
      "0440": 9221,
      "0445": 9222,
      "0625": 9223,
      "0647": 9224,
      "0699": 9225,
      "0678": 9226,
      "0633": 9227,
      "ppy": 9228,
      "ppines": 9229,
      "pphire": 9230,
      "Ġtea": 9231,
      "Ġtel": 9232,
      "Ġtear": 9233,
      "Ġtent": 9234,
      "Ġteam": 9235,
      "Ġteles": 9236,
      "Ġtell": 9237,
      "Ġtens": 9238,
      "Ġteens": 9239,
      "Ġtears": 9240,
      "Ġteach": 9241,
      "Ġtests": 9242,
      "Ġtend": 9243,
      "Ġteams": 9244,
      "Ġtelling": 9245,
      "Ġteaches": 9246,
      "Ġtells": 9247,
      "Ġtender": 9248,
      "Ġteaching": 9249,
      "Ġtested": 9250,
      "Ġmae": 9251,
      "Ġmai": 9252,
      "Ġmap": 9253,
      "Ġmax": 9254,
      "Ġmale": 9255,
      "Ġmath": 9256,
      "Ġmaine": 9257,
      "Ġmales": 9258,
      "Ġmaps": 9259,
      "Ġmaking": 9260,
      "Ġmaced": 9261,
      "Ġmails": 9262,
      "Ġmatern": 9263,
      "Ġmakes": 9264,
      "Ġmaple": 9265,
      "Ġmaker": 9266,
      "Ġmauri": 9267,
      "Ġmailed": 9268,
      "Ġmapping": 9269,
      "Ġmakers": 9270,
      "Ġmaui": 9271,
      "Ġmazda": 9272,
      "Ġmaiden": 9273,
      "osing": 9274,
      "osure": 9275,
      "osals": 9276,
      "osits": 9277,
      "osium": 9278,
      "oslavia": 9279,
      "0150": 9280,
      "0110": 9281,
      "0129": 9282,
      "0119": 9283,
      "0137": 9284,
      "oga": 9285,
      "ogne": 9286,
      "derick": 9287,
      "ida": 9288,
      "idad": 9289,
      "idance": 9290,
      "idated": 9291,
      "idden": 9292,
      "antom": 9293,
      "Ġmeter": 9294,
      "Ġmeters": 9295,
      "Ġmeal": 9296,
      "Ġmeat": 9297,
      "Ġmeant": 9298,
      "Ġmeans": 9299,
      "Ġmemp": 9300,
      "Ġmeals": 9301,
      "Ġmeets": 9302,
      "Ġmega": 9303,
      "Ġmeyer": 9304,
      "Ġmental": 9305,
      "Ġmeeting": 9306,
      "Ġmeditation": 9307,
      "inea": 9308,
      "inem": 9309,
      "inent": 9310,
      "oustic": 9311,
      "0280": 9312,
      "0210": 9313,
      "0217": 9314,
      "0216": 9315,
      "Ġshame": 9316,
      "Ġshall": 9317,
      "Ġshot": 9318,
      "Ġshine": 9319,
      "Ġshap": 9320,
      "Ġshak": 9321,
      "Ġshore": 9322,
      "Ġshang": 9323,
      "Ġshade": 9324,
      "Ġshown": 9325,
      "Ġshops": 9326,
      "Ġshots": 9327,
      "Ġshake": 9328,
      "Ġshades": 9329,
      "Ġshared": 9330,
      "Ġsharing": 9331,
      "Ġshorts": 9332,
      "Ġshape": 9333,
      "Ġshark": 9334,
      "Ġshakes": 9335,
      "Ġshapes": 9336,
      "Ġshorter": 9337,
      "Ġshannon": 9338,
      "Ġthu": 9339,
      "Ġthy": 9340,
      "Ġthan": 9341,
      "Ġthing": 9342,
      "Ġthat": 9343,
      "Ġthus": 9344,
      "Ġthou": 9345,
      "Ġthings": 9346,
      "Ġthru": 9347,
      "Ġthong": 9348,
      "Ġthail": 9349,
      "Ġthai": 9350,
      "Ġthurs": 9351,
      "Ġthats": 9352,
      "Ġthank": 9353,
      "Ġthose": 9354,
      "Ġthought": 9355,
      "Ġthongs": 9356,
      "Ġthunder": 9357,
      "Ġthriller": 9358,
      "0313": 9359,
      "lesale": 9360,
      "lesho": 9361,
      "lesterol": 9362,
      "pex": 9363,
      "pest": 9364,
      "peare": 9365,
      "perate": 9366,
      "pecially": 9367,
      "Ġprev": 9368,
      "Ġprefi": 9369,
      "Ġpredic": 9370,
      "Ġprecip": 9371,
      "Ġprescrib": 9372,
      "Ġpreston": 9373,
      "Ġpressing": 9374,
      "Ġprescription": 9375,
      "Ġprelim": 9376,
      "Ġprecis": 9377,
      "Ġprefers": 9378,
      "Ġpressed": 9379,
      "Ġprecious": 9380,
      "Ġprevention": 9381,
      "Ġpresence": 9382,
      "Ġpresents": 9383,
      "Ġpresented": 9384,
      "Ġpremium": 9385,
      "Ġpretty": 9386,
      "Ġpreceding": 9387,
      "Ġarch": 9388,
      "Ġarts": 9389,
      "Ġarms": 9390,
      "Ġarmen": 9391,
      "Ġarrow": 9392,
      "Ġarres": 9393,
      "Ġarmed": 9394,
      "Ġarbor": 9395,
      "Ġarising": 9396,
      "Ġarctic": 9397,
      "Ġarray": 9398,
      "Ġarlington": 9399,
      "Ġarrest": 9400,
      "Ġargent": 9401,
      "Ġaruba": 9402,
      "Ġarkansas": 9403,
      "Ġarnold": 9404,
      "Ġtry": 9405,
      "Ġtrick": 9406,
      "Ġtrance": 9407,
      "Ġtrue": 9408,
      "Ġtrying": 9409,
      "Ġtrading": 9410,
      "Ġtrades": 9411,
[...]
