{
  "version": "1.0",
  "truncation": null,
  "padding": null,
  "added_tokens": [
    {
      "id": 0,
      "content": "<pad>",
      "single_word": false,
      "lstrip": false,
      "rstrip": false,
      "normalized": false,
      "special": true
    },
    {
      "id": 1,
      "content": "<unk>",
      "single_word": false,
      "lstrip": false,
      "rstrip": false,
      "normalized": false,
      "special": true
    },
    {
      "id": 2,
      "content": "<s>",
      "single_word": false,
      "lstrip": false,
      "rstrip": false,
      "normalized": false,
      "special": true
    },
    {
      "id": 3,
      "content": "</s>",
      "single_word": false,
      "lstrip": false,
      "rstrip": false,
      "normalized": false,
      "special": true
    },
    {
      "id": 4,
      "content": "<sep>",
      "single_word": false,
      "lstrip": false,
      "rstrip": false,
      "normalized": false,
      "special": true
    },
    {
      "id": 5,
      "content": "{",
      "single_word": false,
      "lstrip": false,
      "rstrip": false,
      "normalized": false,
      "special": true
    },
    {
      "id": 6,
      "content": "}",
      "single_word": false,
      "lstrip": false,
      "rstrip": false,
      "normalized": false,
      "special": true
    },
    {
      "id": 7,
      "content": "[",
      "single_word": false,
      "lstrip": false,
      "rstrip": false,
      "normalized": false,
      "special": true
    },
    {
      "id": 8,
      "content": "]",
      "single_word": false,
      "lstrip": false,
      "rstrip": false,
      "normalized": false,
      "special": true
    },
    {
      "id": 9,
      "content": ":",
      "single_word": false,
      "lstrip": false,
      "rstrip": false,
      "normalized": false,
      "special": true
    },
    {
      "id": 10,
      "content": ",",
      "single_word": false,
      "lstrip": false,
      "rstrip": false,
      "normalized": false,
      "special": true
    },
    {
      "id": 11,
      "content": ", ",
      "single_word": false,
      "lstrip": false,
      "rstrip": false,
      "normalized": false,
      "special": true
    },
    {
      "id": 12,
      "content": ": ",
      "single_word": false,
      "lstrip": false,
      "rstrip": false,
      "normalized": false,
      "special": true
    },
    {
      "id": 13,
      "content": "]}",
      "single_word": false,
      "lstrip": false,
      "rstrip": false,
      "normalized": false,
      "special": true
    },
    {
      "id": 14,
      "content": "commandLanguage",
      "single_word": false,
      "lstrip": false,
      "rstrip": false,
      "normalized": false,
      "special": true
    },
    {
      "id": 15,
      "content": "errors",
      "single_word": false,
      "lstrip": false,
      "rstrip": false,
      "normalized": false,
      "special": true
    },
    {
      "id": 16,
      "content": "commands",
      "single_word": false,
      "lstrip": false,
      "rstrip": false,
      "normalized": false,
      "special": true
    },
    {
      "id": 17,
      "content": "parameters",
      "single_word": false,
      "lstrip": false,
      "rstrip": false,
      "normalized": false,
      "special": true
    },
    {
      "id": 18,
      "content": "name",
      "single_word": false,
      "lstrip": false,
      "rstrip": false,
      "normalized": false,
      "special": true
    },
    {
      "id": 19,
      "content": "description",
      "single_word": false,
      "lstrip": false,
      "rstrip": false,
      "normalized": false,
      "special": true
    },
    {
      "id": 20,
      "content": "distance",
      "single_word": false,
      "lstrip": false,
      "rstrip": false,
      "normalized": false,
      "special": true
    },
    {
      "id": 21,
      "content": "acceleration",
      "single_word": false,
      "lstrip": false,
      "rstrip": false,
      "normalized": false,
      "special": true
    },
    {
      "id": 22,
      "content": "angle",
      "single_word": false,
      "lstrip": false,
      "rstrip": false,
      "normalized": false,
      "special": true
    },
    {
      "id": 23,
      "content": "direction",
      "single_word": false,
      "lstrip": false,
      "rstrip": false,
      "normalized": false,
      "special": true
    },
    {
      "id": 24,
      "content": "INVALID_COMMAND",
      "single_word": false,
      "lstrip": false,
      "rstrip": false,
      "normalized": false,
      "special": true
    },
    {
      "id": 25,
      "content": "MISSING_PARAMETER",
      "single_word": false,
      "lstrip": false,
      "rstrip": false,
      "normalized": false,
      "special": true
    },
    {
      "id": 26,
      "content": "INVALID_PARAMETER_TYPE",
      "single_word": false,
      "lstrip": false,
      "rstrip": false,
      "normalized": false,
      "special": true
    },
    {
      "id": 27,
      "content": "OUT_OF_RANGE",
      "single_word": false,
      "lstrip": false,
      "rstrip": false,
      "normalized": false,
      "special": true
    },
    {
      "id": 28,
      "content": "SYNTAX_ERROR",
      "single_word": false,
      "lstrip": false,
      "rstrip": false,
      "normalized": false,
      "special": true
    },
    {
      "id": 29,
      "content": "UNSUPPORTED_UNIT",
      "single_word": false,
      "lstrip": false,
      "rstrip": false,
      "normalized": false,
      "special": true
    },
    {
      "id": 30,
      "content": "%",
      "single_word": false,
      "lstrip": false,
      "rstrip": false,
      "normalized": false,
      "special": true
    },
    {
      "id": 31,
      "content": "0",
      "single_word": false,
      "lstrip": false,
      "rstrip": false,
      "normalized": false,
      "special": true
    },
    {
      "id": 32,
      "content": "1",
      "single_word": false,
      "lstrip": false,
      "rstrip": false,
      "normalized": false,
      "special": true
    },
    {
      "id": 33,
      "content": "2",
      "single_word": false,
      "lstrip": false,
      "rstrip": false,
      "normalized": false,
      "special": true
    },
    {
      "id": 34,
      "content": "3",
      "single_word": false,
      "lstrip": false,
      "rstrip": false,
      "normalized": false,
      "special": true
    },
    {
      "id": 35,
      "content": "4",
      "single_word": false,
      "lstrip": false,
      "rstrip": false,
      "normalized": false,
      "special": true
    },
    {
      "id": 36,
      "content": "5",
      "single_word": false,
      "lstrip": false,
      "rstrip": false,
      "normalized": false,
      "special": true
    },
    {
      "id": 37,
      "content": "6",
      "single_word": false,
      "lstrip": false,
      "rstrip": false,
      "normalized": false,
      "special": true
    },
    {
      "id": 38,
      "content": "7",
      "single_word": false,
      "lstrip": false,
      "rstrip": false,
      "normalized": false,
      "special": true
    },
    {
      "id": 39,
      "content": "8",
      "single_word": false,
      "lstrip": false,
      "rstrip": false,
      "normalized": false,
      "special": true
    },
    {
      "id": 40,
      "content": "9",
      "single_word": false,
      "lstrip": false,
      "rstrip": false,
      "normalized": false,
      "special": true
    },
    {
      "id": 41,
      "content": "m",
      "single_word": false,
      "lstrip": false,
      "rstrip": false,
      "normalized": false,
      "special": true
    },
    {
      "id": 42,
      "content": "-1",
      "single_word": false,
      "lstrip": false,
      "rstrip": false,
      "normalized": false,
      "special": true
    },
    {
      "id": 43,
      "content": "-2",
      "single_word": false,
      "lstrip": false,
      "rstrip": false,
      "normalized": false,
      "special": true
    },
    {
      "id": 44,
      "content": "-3",
      "single_word": false,
      "lstrip": false,
      "rstrip": false,
      "normalized": false,
      "special": true
    },
    {
      "id": 45,
      "content": "-4",
      "single_word": false,
      "lstrip": false,
      "rstrip": false,
      "normalized": false,
      "special": true
    },
    {
      "id": 46,
      "content": "-5",
      "single_word": false,
      "lstrip": false,
      "rstrip": false,
      "normalized": false,
      "special": true
    },
    {
      "id": 47,
      "content": "-6",
      "single_word": false,
      "lstrip": false,
      "rstrip": false,
      "normalized": false,
      "special": true
    },
    {
      "id": 48,
      "content": "-7",
      "single_word": false,
      "lstrip": false,
      "rstrip": false,
      "normalized": false,
      "special": true
    },
    {
      "id": 49,
      "content": "-8",
      "single_word": false,
      "lstrip": false,
      "rstrip": false,
      "normalized": false,
      "special": true
    },
    {
      "id": 50,
      "content": "-9",
      "single_word": false,
      "lstrip": false,
      "rstrip": false,
      "normalized": false,
      "special": true
    },
    {
      "id": 51,
      "content": "10",
      "single_word": false,
      "lstrip": false,
      "rstrip": false,
      "normalized": false,
      "special": true
    },
    {
      "id": 52,
      "content": "11",
      "single_word": false,
      "lstrip": false,
      "rstrip": false,
      "normalized": false,
      "special": true
    },
    {
      "id": 53,
      "content": "12",
      "single_word": false,
      "lstrip": false,
      "rstrip": false,
      "normalized": false,
      "special": true
    },
    {
      "id": 54,
      "content": "13",
      "single_word": false,
      "lstrip": false,
      "rstrip": false,
      "normalized": false,
      "special": true
    },
    {
      "id": 55,
      "content": "14",
      "single_word": false,
      "lstrip": false,
      "rstrip": false,
      "normalized": false,
      "special": true
    },
    {
      "id": 56,
      "content": "15",
      "single_word": false,
      "lstrip": false,
      "rstrip": false,
      "normalized": false,
      "special": true
    },
    {
      "id": 57,
      "content": "16",
      "single_word": false,
      "lstrip": false,
      "rstrip": false,
      "normalized": false,
      "special": true
    },
    {
      "id": 58,
      "content": "17",
      "single_word": false,
      "lstrip": false,
      "rstrip": false,
      "normalized": false,
      "special": true
    },
    {
      "id": 59,
      "content": "18",
      "single_word": false,
      "lstrip": false,
      "rstrip": false,
      "normalized": false,
      "special": true
    },
    {
      "id": 60,
      "content": "19",
      "single_word": false,
      "lstrip": false,
      "rstrip": false,
      "normalized": false,
      "special": true
    },
    {
      "id": 61,
      "content": "20",
      "single_word": false,
      "lstrip": false,
      "rstrip": false,
      "normalized": false,
      "special": true
    },
    {
      "id": 62,
      "content": "21",
      "single_word": false,
      "lstrip": false,
      "rstrip": false,
      "normalized": false,
      "special": true
    },
    {
      "id": 63,
      "content": "22",
      "single_word": false,
      "lstrip": false,
      "rstrip": false,
      "normalized": false,
      "special": true
    },
    {
      "id": 64,
      "content": "23",
      "single_word": false,
      "lstrip": false,
      "rstrip": false,
      "normalized": false,
      "special": true
    },
    {
      "id": 65,
      "content": "24",
      "single_word": false,
      "lstrip": false,
      "rstrip": false,
      "normalized": false,
      "special": true
    },
    {
      "id": 66,
      "content": "25",
      "single_word": false,
      "lstrip": false,
      "rstrip": false,
      "normalized": false,
      "special": true
    },
    {
      "id": 67,
      "content": "26",
      "single_word": false,
      "lstrip": false,
      "rstrip": false,
      "normalized": false,
      "special": true
    },
    {
      "id": 68,
      "content": "27",
      "single_word": false,
      "lstrip": false,
      "rstrip": false,
      "normalized": false,
      "special": true
    },
    {
      "id": 69,
      "content": "28",
      "single_word": false,
      "lstrip": false,
      "rstrip": false,
      "normalized": false,
      "special": true
    },
    {
      "id": 70,
      "content": "29",
      "single_word": false,
      "lstrip": false,
      "rstrip": false,
      "normalized": false,
      "special": true
    },
    {
      "id": 71,
      "content": "30",
      "single_word": false,
      "lstrip": false,
      "rstrip": false,
      "normalized": false,
      "special": true
    },
    {
      "id": 72,
      "content": "31",
      "single_word": false,
      "lstrip": false,
      "rstrip": false,
      "normalized": false,
      "special": true
    },
    {
      "id": 73,
      "content": "32",
      "single_word": false,
      "lstrip": false,
      "rstrip": false,
      "normalized": false,
      "special": true
    },
    {
      "id": 74,
      "content": "33",
      "single_word": false,
      "lstrip": false,
      "rstrip": false,
      "normalized": false,
      "special": true
    },
    {
      "id": 75,
      "content": "34",
      "single_word": false,
      "lstrip": false,
      "rstrip": false,
      "normalized": false,
      "special": true
    },
    {
      "id": 76,
      "content": "35",
      "single_word": false,
      "lstrip": false,
      "rstrip": false,
      "normalized": false,
      "special": true
    },
    {
      "id": 77,
      "content": "36",
      "single_word": false,
      "lstrip": false,
      "rstrip": false,
      "normalized": false,
      "special": true
    },
    {
      "id": 78,
      "content": "37",
      "single_word": false,
      "lstrip": false,
      "rstrip": false,
      "normalized": false,
      "special": true
    },
    {
      "id": 79,
      "content": "38",
      "single_word": false,
      "lstrip": false,
      "rstrip": false,
      "normalized": false,
      "special": true
    },
    {
      "id": 80,
      "content": "39",
      "single_word": false,
      "lstrip": false,
      "rstrip": false,
      "normalized": false,
      "special": true
    },
    {
      "id": 81,
      "content": "40",
      "single_word": false,
      "lstrip": false,
      "rstrip": false,
      "normalized": false,
      "special": true
    },
    {
      "id": 82,
      "content": "41",
      "single_word": false,
      "lstrip": false,
      "rstrip": false,
      "normalized": false,
      "special": true
    },
    {
      "id": 83,
      "content": "42",
      "single_word": false,
      "lstrip": false,
      "rstrip": false,
      "normalized": false,
      "special": true
    },
    {
      "id": 84,
      "content": "43",
      "single_word": false,
      "lstrip": false,
      "rstrip": false,
      "normalized": false,
      "special": true
    },
    {
      "id": 85,
      "content": "44",
      "single_word": false,
      "lstrip": false,
      "rstrip": false,
      "normalized": false,
      "special": true
    },
    {
      "id": 86,
      "content": "45",
      "single_word": false,
      "lstrip": false,
      "rstrip": false,
      "normalized": false,
      "special": true
    },
    {
      "id": 87,
      "content": "46",
      "single_word": false,
      "lstrip": false,
      "rstrip": false,
      "normalized": false,
      "special": true
    },
    {
      "id": 88,
      "content": "47",
      "single_word": false,
      "lstrip": false,
      "rstrip": false,
      "normalized": false,
      "special": true
    },
    {
      "id": 89,
      "content": "48",
      "single_word": false,
      "lstrip": false,
      "rstrip": false,
      "normalized": false,
      "special": true
    },
    {
      "id": 90,
      "content": "49",
      "single_word": false,
      "lstrip": false,
      "rstrip": false,
      "normalized": false,
      "special": true
    },
    {
      "id": 91,
      "content": "50",
      "single_word": false,
      "lstrip": false,
      "rstrip": false,
      "normalized": false,
      "special": true
    },
    {
      "id": 92,
      "content": "51",
      "single_word": false,
      "lstrip": false,
      "rstrip": false,
      "normalized": false,
      "special": true
    },
    {
      "id": 93,
      "content": "52",
      "single_word": false,
      "lstrip": false,
      "rstrip": false,
      "normalized": false,
      "special": true
    },
    {
      "id": 94,
      "content": "53",
      "single_word": false,
      "lstrip": false,
      "rstrip": false,
      "normalized": false,
      "special": true
    },
    {
      "id": 95,
      "content": "54",
      "single_word": false,
      "lstrip": false,
      "rstrip": false,
      "normalized": false,
      "special": true
    },
    {
      "id": 96,
      "content": "55",
      "single_word": false,
      "lstrip": false,
      "rstrip": false,
      "normalized": false,
      "special": true
    },
    {
      "id": 97,
      "content": "56",
      "single_word": false,
      "lstrip": false,
      "rstrip": false,
      "normalized": false,
      "special": true
    },
    {
      "id": 98,
      "content": "57",
      "single_word": false,
      "lstrip": false,
      "rstrip": false,
      "normalized": false,
      "special": true
    },
    {
      "id": 99,
      "content": "58",
      "single_word": false,
      "lstrip": false,
      "rstrip": false,
      "normalized": false,
      "special": true
    },
    {
      "id": 100,
      "content": "59",
      "single_word": false,
      "lstrip": false,
      "rstrip": false,
      "normalized": false,
      "special": true
    },
    {
      "id": 101,
      "content": "60",
      "single_word": false,
      "lstrip": false,
      "rstrip": false,
      "normalized": false,
      "special": true
    },
    {
      "id": 102,
      "content": "61",
      "single_word": false,
      "lstrip": false,
      "rstrip": false,
      "normalized": false,
      "special": true
    },
    {
      "id": 103,
      "content": "62",
      "single_word": false,
      "lstrip": false,
      "rstrip": false,
      "normalized": false,
      "special": true
    },
    {
      "id": 104,
      "content": "63",
      "single_word": false,
      "lstrip": false,
      "rstrip": false,
      "normalized": false,
      "special": true
    },
    {
      "id": 105,
      "content": "64",
      "single_word": false,
      "lstrip": false,
      "rstrip": false,
      "normalized": false,
      "special": true
    },
    {
      "id": 106,
      "content": "65",
      "single_word": false,
      "lstrip": false,
      "rstrip": false,
      "normalized": false,
      "special": true
    },
    {
      "id": 107,
      "content": "66",
      "single_word": false,
      "lstrip": false,
      "rstrip": false,
      "normalized": false,
      "special": true
    },
    {
      "id": 108,
      "content": "67",
      "single_word": false,
      "lstrip": false,
      "rstrip": false,
      "normalized": false,
      "special": true
    },
    {
      "id": 109,
      "content": "68",
      "single_word": false,
      "lstrip": false,
      "rstrip": false,
      "normalized": false,
      "special": true
    },
    {
      "id": 110,
      "content": "69",
      "single_word": false,
      "lstrip": false,
      "rstrip": false,
      "normalized": false,
      "special": true
    },
    {
      "id": 111,
      "content": "70",
      "single_word": false,
      "lstrip": false,
      "rstrip": false,
      "normalized": false,
      "special": true
    },
    {
      "id": 112,
      "content": "71",
      "single_word": false,
      "lstrip": false,
      "rstrip": false,
      "normalized": false,
      "special": true
    },
    {
      "id": 113,
      "content": "72",
      "single_word": false,
      "lstrip": false,
      "rstrip": false,
      "normalized": false,
      "special": true
    },
    {
      "id": 114,
      "content": "73",
      "single_word": false,
      "lstrip": false,
      "rstrip": false,
      "normalized": false,
      "special": true
    },
    {
      "id": 115,
      "content": "74",
      "single_word": false,
      "lstrip": false,
      "rstrip": false,
      "normalized": false,
      "special": true
    },
    {
      "id": 116,
      "content": "75",
      "single_word": false,
      "lstrip": false,
      "rstrip": false,
      "normalized": false,
      "special": true
    },
    {
      "id": 117,
      "content": "76",
      "single_word": false,
      "lstrip": false,
      "rstrip": false,
      "normalized": false,
      "special": true
    },
    {
      "id": 118,
      "content": "77",
      "single_word": false,
      "lstrip": false,
      "rstrip": false,
      "normalized": false,
      "special": true
    },
    {
      "id": 119,
      "content": "78",
      "single_word": false,
      "lstrip": false,
      "rstrip": false,
      "normalized": false,
      "special": true
    },
    {
      "id": 120,
      "content": "79",
      "single_word": false,
      "lstrip": false,
      "rstrip": false,
      "normalized": false,
      "special": true
    },
    {
      "id": 121,
      "content": "80",
      "single_word": false,
      "lstrip": false,
      "rstrip": false,
      "normalized": false,
      "special": true
    },
    {
      "id": 122,
      "content": "81",
      "single_word": false,
      "lstrip": false,
      "rstrip": false,
      "normalized": false,
      "special": true
    },
    {
      "id": 123,
      "content": "82",
      "single_word": false,
      "lstrip": false,
      "rstrip": false,
      "normalized": false,
      "special": true
    },
    {
      "id": 124,
      "content": "83",
      "single_word": false,
      "lstrip": false,
      "rstrip": false,
      "normalized": false,
      "special": true
    },
    {
      "id": 125,
      "content": "84",
      "single_word": false,
      "lstrip": false,
      "rstrip": false,
      "normalized": false,
      "special": true
    },
    {
      "id": 126,
      "content": "85",
      "single_word": false,
      "lstrip": false,
      "rstrip": false,
      "normalized": false,
      "special": true
    },
    {
      "id": 127,
      "content": "86",
      "single_word": false,
      "lstrip": false,
      "rstrip": false,
      "normalized": false,
      "special": true
    },
    {
      "id": 128,
      "content": "87",
      "single_word": false,
      "lstrip": false,
      "rstrip": false,
      "normalized": false,
      "special": true
    },
    {
      "id": 129,
      "content": "88",
      "single_word": false,
      "lstrip": false,
      "rstrip": false,
      "normalized": false,
      "special": true
    },
    {
      "id": 130,
      "content": "89",
      "single_word": false,
      "lstrip": false,
      "rstrip": false,
      "normalized": false,
      "special": true
    },
    {
      "id": 131,
      "content": "90",
      "single_word": false,
      "lstrip": false,
      "rstrip": false,
      "normalized": false,
      "special": true
    },
    {
      "id": 132,
      "content": "91",
      "single_word": false,
      "lstrip": false,
      "rstrip": false,
      "normalized": false,
      "special": true
    },
    {
      "id": 133,
      "content": "92",
      "single_word": false,
      "lstrip": false,
      "rstrip": false,
      "normalized": false,
      "special": true
    },
    {
      "id": 134,
      "content": "93",
      "single_word": false,
      "lstrip": false,
      "rstrip": false,
      "normalized": false,
      "special": true
    },
    {
      "id": 135,
      "content": "94",
      "single_word": false,
      "lstrip": false,
      "rstrip": false,
      "normalized": false,
      "special": true
    },
    {
      "id": 136,
      "content": "95",
      "single_word": false,
      "lstrip": false,
      "rstrip": false,
      "normalized": false,
      "special": true
    },
    {
      "id": 137,
      "content": "96",
      "single_word": false,
      "lstrip": false,
      "rstrip": false,
      "normalized": false,
      "special": true
    },
    {
      "id": 138,
      "content": "97",
      "single_word": false,
      "lstrip": false,
      "rstrip": false,
      "normalized": false,
      "special": true
    },
    {
      "id": 139,
      "content": "98",
      "single_word": false,
      "lstrip": false,
      "rstrip": false,
      "normalized": false,
      "special": true
    },
    {
      "id": 140,
      "content": "99",
      "single_word": false,
      "lstrip": false,
      "rstrip": false,
      "normalized": false,
      "special": true
    },
    {
      "id": 141,
      "content": "cm",
      "single_word": false,
      "lstrip": false,
      "rstrip": false,
      "normalized": false,
      "special": true
    },
    {
      "id": 142,
      "content": "ft",
      "single_word": false,
      "lstrip": false,
      "rstrip": false,
      "normalized": false,
      "special": true
    },
    {
      "id": 143,
      "content": "in",
      "single_word": false,
      "lstrip": false,
      "rstrip": false,
      "normalized": false,
      "special": true
    },
    {
      "id": 144,
      "content": "km",
      "single_word": false,
      "lstrip": false,
      "rstrip": false,
      "normalized": false,
      "special": true
    },
    {
      "id": 145,
      "content": "mm",
      "single_word": false,
      "lstrip": false,
      "rstrip": false,
      "normalized": false,
      "special": true
    },
    {
      "id": 146,
      "content": "-10",
      "single_word": false,
      "lstrip": false,
      "rstrip": false,
      "normalized": false,
      "special": true
    },
    {
      "id": 147,
      "content": "-11",
      "single_word": false,
      "lstrip": false,
      "rstrip": false,
      "normalized": false,
      "special": true
    },
    {
      "id": 148,
      "content": "-12",
      "single_word": false,
      "lstrip": false,
      "rstrip": false,
      "normalized": false,
      "special": true
    },
    {
      "id": 149,
      "content": "-13",
      "single_word": false,
      "lstrip": false,
      "rstrip": false,
      "normalized": false,
      "special": true
    },
    {
      "id": 150,
      "content": "-14",
      "single_word": false,
      "lstrip": false,
      "rstrip": false,
      "normalized": false,
      "special": true
    },
    {
      "id": 151,
      "content": "-15",
      "single_word": false,
      "lstrip": false,
      "rstrip": false,
      "normalized": false,
      "special": true
    },
    {
      "id": 152,
      "content": "-16",
      "single_word": false,
      "lstrip": false,
      "rstrip": false,
      "normalized": false,
      "special": true
    },
    {
      "id": 153,
      "content": "-17",
      "single_word": false,
      "lstrip": false,
      "rstrip": false,
      "normalized": false,
      "special": true
    },
    {
      "id": 154,
      "content": "-18",
      "single_word": false,
      "lstrip": false,
      "rstrip": false,
      "normalized": false,
      "special": true
    },
    {
      "id": 155,
      "content": "-19",
      "single_word": false,
      "lstrip": false,
      "rstrip": false,
      "normalized": false,
      "special": true
    },
    {
      "id": 156,
      "content": "-20",
      "single_word": false,
      "lstrip": false,
      "rstrip": false,
      "normalized": false,
      "special": true
    },
    {
      "id": 157,
      "content": "-21",
      "single_word": false,
      "lstrip": false,
      "rstrip": false,
      "normalized": false,
      "special": true
    },
    {
      "id": 158,
      "content": "-22",
      "single_word": false,
      "lstrip": false,
      "rstrip": false,
      "normalized": false,
      "special": true
    },
    {
      "id": 159,
      "content": "-23",
      "single_word": false,
      "lstrip": false,
      "rstrip": false,
      "normalized": false,
      "special": true
    },
    {
      "id": 160,
      "content": "-24",
      "single_word": false,
      "lstrip": false,
      "rstrip": false,
      "normalized": false,
      "special": true
    },
    {
      "id": 161,
      "content": "-25",
      "single_word": false,
      "lstrip": false,
      "rstrip": false,
      "normalized": false,
      "special": true
    },
    {
      "id": 162,
      "content": "-26",
      "single_word": false,
      "lstrip": false,
      "rstrip": false,
      "normalized": false,
      "special": true
    },
    {
      "id": 163,
      "content": "-27",
      "single_word": false,
      "lstrip": false,
      "rstrip": false,
      "normalized": false,
      "special": true
    },
    {
      "id": 164,
      "content": "-28",
      "single_word": false,
      "lstrip": false,
      "rstrip": false,
      "normalized": false,
      "special": true
    },
    {
      "id": 165,
      "content": "-29",
      "single_word": false,
      "lstrip": false,
      "rstrip": false,
      "normalized": false,
      "special": true
    },
    {
      "id": 166,
      "content": "-30",
      "single_word": false,
      "lstrip": false,
      "rstrip": false,
      "normalized": false,
      "special": true
    },
    {
      "id": 167,
      "content": "-31",
      "single_word": false,
      "lstrip": false,
      "rstrip": false,
      "normalized": false,
      "special": true
    },
    {
      "id": 168,
      "content": "-32",
      "single_word": false,
      "lstrip": false,
      "rstrip": false,
      "normalized": false,
      "special": true
    },
    {
      "id": 169,
      "content": "-33",
      "single_word": false,
      "lstrip": false,
      "rstrip": false,
      "normalized": false,
      "special": true
    },
    {
      "id": 170,
      "content": "-34",
      "single_word": false,
      "lstrip": false,
      "rstrip": false,
      "normalized": false,
      "special": true
    },
    {
      "id": 171,
      "content": "-35",
      "single_word": false,
      "lstrip": false,
      "rstrip": false,
      "normalized": false,
      "special": true
    },
    {
      "id": 172,
      "content": "-36",
      "single_word": false,
      "lstrip": false,
      "rstrip": false,
      "normalized": false,
      "special": true
    },
    {
      "id": 173,
      "content": "-37",
      "single_word": false,
      "lstrip": false,
      "rstrip": false,
      "normalized": false,
      "special": true
    },
    {
      "id": 174,
      "content": "-38",
      "single_word": false,
      "lstrip": false,
      "rstrip": false,
      "normalized": false,
      "special": true
    },
    {
      "id": 175,
      "content": "-39",
      "single_word": false,
      "lstrip": false,
      "rstrip": false,
      "normalized": false,
      "special": true
    },
    {
      "id": 176,
      "content": "-40",
      "single_word": false,
      "lstrip": false,
      "rstrip": false,
      "normalized": false,
      "special": true
    },
    {
      "id": 177,
      "content": "-41",
      "single_word": false,
      "lstrip": false,
      "rstrip": false,
      "normalized": false,
      "special": true
    },
    {
      "id": 178,
      "content": "-42",
      "single_word": false,
      "lstrip": false,
      "rstrip": false,
      "normalized": false,
      "special": true
    },
    {
      "id": 179,
      "content": "-43",
      "single_word": false,
      "lstrip": false,
      "rstrip": false,
      "normalized": false,
      "special": true
    },
    {
      "id": 180,
      "content": "-44",
      "single_word": false,
      "lstrip": false,
      "rstrip": false,
      "normalized": false,
      "special": true
    },
    {
      "id": 181,
      "content": "-45",
      "single_word": false,
      "lstrip": false,
      "rstrip": false,
      "normalized": false,
      "special": true
    },
    {
      "id": 182,
      "content": "-46",
      "single_word": false,
      "lstrip": false,
      "rstrip": false,
      "normalized": false,
      "special": true
    },
    {
      "id": 183,
      "content": "-47",
      "single_word": false,
      "lstrip": false,
      "rstrip": false,
      "normalized": false,
      "special": true
    },
    {
      "id": 184,
      "content": "-48",
      "single_word": false,
      "lstrip": false,
      "rstrip": false,
      "normalized": false,
      "special": true
    },
    {
      "id": 185,
      "content": "-49",
      "single_word": false,
      "lstrip": false,
      "rstrip": false,
      "normalized": false,
      "special": true
    },
    {
      "id": 186,
      "content": "-50",
      "single_word": false,
      "lstrip": false,
      "rstrip": false,
      "normalized": false,
      "special": true
    },
    {
      "id": 187,
      "content": "0.5",
      "single_word": false,
      "lstrip": false,
      "rstrip": false,
      "normalized": false,
      "special": true
    },
    {
      "id": 188,
      "content": "1.5",
      "single_word": false,
      "lstrip": false,
      "rstrip": false,
      "normalized": false,
      "special": true
    },
    {
      "id": 189,
      "content": "100",
      "single_word": false,
      "lstrip": false,
      "rstrip": false,
      "normalized": false,
      "special": true
    },
    {
      "id": 190,
      "content": "101",
      "single_word": false,
      "lstrip": false,
      "rstrip": false,
      "normalized": false,
      "special": true
    },
    {
      "id": 191,
      "content": "102",
      "single_word": false,
      "lstrip": false,
      "rstrip": false,
      "normalized": false,
      "special": true
    },
    {
      "id": 192,
      "content": "103",
      "single_word": false,
      "lstrip": false,
      "rstrip": false,
      "normalized": false,
      "special": true
    },
    {
      "id": 193,
      "content": "104",
      "single_word": false,
      "lstrip": false,
      "rstrip": false,
      "normalized": false,
      "special": true
    },
    {
      "id": 194,
      "content": "105",
      "single_word": false,
      "lstrip": false,
      "rstrip": false,
      "normalized": false,
      "special": true
    },
    {
      "id": 195,
      "content": "106",
      "single_word": false,
      "lstrip": false,
      "rstrip": false,
      "normalized": false,
      "special": true
    },
    {
      "id": 196,
      "content": "107",
      "single_word": false,
      "lstrip": false,
      "rstrip": false,
      "normalized": false,
      "special": true
    },
    {
      "id": 197,
      "content": "108",
      "single_word": false,
      "lstrip": false,
      "rstrip": false,
      "normalized": false,
      "special": true
    },
    {
      "id": 198,
      "content": "109",
      "single_word": false,
      "lstrip": false,
      "rstrip": false,
      "normalized": false,
      "special": true
    },
    {
      "id": 199,
      "content": "110",
      "single_word": false,
      "lstrip": false,
      "rstrip": false,
      "normalized": false,
      "special": true
    },
    {
      "id": 200,
      "content": "111",
      "single_word": false,
      "lstrip": false,
      "rstrip": false,
      "normalized": false,
      "special": true
    },
    {
      "id": 201,
      "content": "112",
      "single_word": false,
      "lstrip": false,
      "rstrip": false,
      "normalized": false,
      "special": true
    },
    {
      "id": 202,
      "content": "113",
      "single_word": false,
      "lstrip": false,
      "rstrip": false,
      "normalized": false,
      "special": true
    },
    {
      "id": 203,
      "content": "114",
      "single_word": false,
      "lstrip": false,
      "rstrip": false,
      "normalized": false,
      "special": true
    },
    {
      "id": 204,
      "content": "115",
      "single_word": false,
      "lstrip": false,
      "rstrip": false,
      "normalized": false,
      "special": true
    },
    {
      "id": 205,
      "content": "116",
      "single_word": false,
      "lstrip": false,
      "rstrip": false,
      "normalized": false,
      "special": true
    },
    {
      "id": 206,
      "content": "117",
      "single_word": false,
      "lstrip": false,
      "rstrip": false,
      "normalized": false,
      "special": true
    },
    {
      "id": 207,
      "content": "118",
      "single_word": false,
      "lstrip": false,
      "rstrip": false,
      "normalized": false,
      "special": true
    },
    {
      "id": 208,
      "content": "119",
      "single_word": false,
      "lstrip": false,
      "rstrip": false,
      "normalized": false,
      "special": true
    },
    {
      "id": 209,
      "content": "120",
      "single_word": false,
      "lstrip": false,
      "rstrip": false,
      "normalized": false,
      "special": true
    },
    {
      "id": 210,
      "content": "121",
      "single_word": false,
      "lstrip": false,
      "rstrip": false,
      "normalized": false,
      "special": true
    },
    {
      "id": 211,
      "content": "122",
      "single_word": false,
      "lstrip": false,
      "rstrip": false,
      "normalized": false,
      "special": true
    },
    {
      "id": 212,
      "content": "123",
      "single_word": false,
      "lstrip": false,
      "rstrip": false,
      "normalized": false,
      "special": true
    },
    {
      "id": 213,
      "content": "124",
      "single_word": false,
      "lstrip": false,
      "rstrip": false,
      "normalized": false,
      "special": true
    },
    {
      "id": 214,
      "content": "125",
      "single_word": false,
      "lstrip": false,
      "rstrip": false,
      "normalized": false,
      "special": true
    },
    {
      "id": 215,
      "content": "126",
      "single_word": false,
      "lstrip": false,
      "rstrip": false,
      "normalized": false,
      "special": true
    },
    {
      "id": 216,
      "content": "127",
      "single_word": false,
      "lstrip": false,
      "rstrip": false,
      "normalized": false,
      "special": true
    },
    {
      "id": 217,
      "content": "128",
      "single_word": false,
      "lstrip": false,
      "rstrip": false,
      "normalized": false,
      "special": true
    },
    {
      "id": 218,
      "content": "129",
      "single_word": false,
      "lstrip": false,
      "rstrip": false,
      "normalized": false,
      "special": true
    },
    {
      "id": 219,
      "content": "130",
      "single_word": false,
      "lstrip": false,
      "rstrip": false,
      "normalized": false,
      "special": true
    },
    {
      "id": 220,
      "content": "131",
      "single_word": false,
      "lstrip": false,
      "rstrip": false,
      "normalized": false,
      "special": true
    },
    {
      "id": 221,
      "content": "132",
      "single_word": false,
      "lstrip": false,
      "rstrip": false,
      "normalized": false,
      "special": true
    },
    {
      "id": 222,
      "content": "133",
      "single_word": false,
      "lstrip": false,
      "rstrip": false,
      "normalized": false,
      "special": true
    },
    {
      "id": 223,
      "content": "134",
      "single_word": false,
      "lstrip": false,
      "rstrip": false,
      "normalized": false,
      "special": true
    },
    {
      "id": 224,
      "content": "135",
      "single_word": false,
      "lstrip": false,
      "rstrip": false,
      "normalized": false,
      "special": true
    },
    {
      "id": 225,
      "content": "136",
      "single_word": false,
      "lstrip": false,
      "rstrip": false,
      "normalized": false,
      "special": true
    },
    {
      "id": 226,
      "content": "137",
      "single_word": false,
      "lstrip": false,
      "rstrip": false,
      "normalized": false,
      "special": true
    },
    {
      "id": 227,
      "content": "138",
      "single_word": false,
      "lstrip": false,
      "rstrip": false,
      "normalized": false,
      "special": true
    },
    {
      "id": 228,
      "content": "139",
      "single_word": false,
      "lstrip": false,
      "rstrip": false,
      "normalized": false,
      "special": true
    },
    {
      "id": 229,
      "content": "140",
      "single_word": false,
      "lstrip": false,
      "rstrip": false,
      "normalized": false,
      "special": true
    },
    {
      "id": 230,
      "content": "141",
      "single_word": false,
      "lstrip": false,
      "rstrip": false,
      "normalized": false,
      "special": true
    },
    {
      "id": 231,
      "content": "142",
      "single_word": false,
      "lstrip": false,
      "rstrip": false,
      "normalized": false,
      "special": true
    },
    {
      "id": 232,
      "content": "143",
      "single_word": false,
      "lstrip": false,
      "rstrip": false,
      "normalized": false,
      "special": true
    },
    {
      "id": 233,
      "content": "144",
      "single_word": false,
      "lstrip": false,
      "rstrip": false,
      "normalized": false,
      "special": true
    },
    {
      "id": 234,
      "content": "145",
      "single_word": false,
      "lstrip": false,
      "rstrip": false,
      "normalized": false,
      "special": true
    },
    {
      "id": 235,
      "content": "146",
      "single_word": false,
      "lstrip": false,
      "rstrip": false,
      "normalized": false,
      "special": true
    },
    {
      "id": 236,
      "content": "147",
      "single_word": false,
      "lstrip": false,
      "rstrip": false,
      "normalized": false,
      "special": true
    },
    {
      "id": 237,
      "content": "148",
      "single_word": false,
      "lstrip": false,
      "rstrip": false,
      "normalized": false,
      "special": true
    },
    {
      "id": 238,
      "content": "149",
      "single_word": false,
      "lstrip": false,
      "rstrip": false,
      "normalized": false,
      "special": true
    },
    {
      "id": 239,
      "content": "150",
      "single_word": false,
      "lstrip": false,
      "rstrip": false,
      "normalized": false,
      "special": true
    },
    {
      "id": 240,
      "content": "151",
      "single_word": false,
      "lstrip": false,
      "rstrip": false,
      "normalized": false,
      "special": true
    },
    {
      "id": 241,
      "content": "152",
      "single_word": false,
      "lstrip": false,
      "rstrip": false,
      "normalized": false,
      "special": true
    },
    {
      "id": 242,
      "content": "153",
      "single_word": false,
      "lstrip": false,
      "rstrip": false,
      "normalized": false,
      "special": true
    },
    {
      "id": 243,
      "content": "154",
      "single_word": false,
      "lstrip": false,
      "rstrip": false,
      "normalized": false,
      "special": true
    },
    {
      "id": 244,
      "content": "155",
      "single_word": false,
      "lstrip": false,
      "rstrip": false,
      "normalized": false,
      "special": true
    },
    {
      "id": 245,
      "content": "156",
      "single_word": false,
      "lstrip": false,
      "rstrip": false,
      "normalized": false,
      "special": true
    },
    {
      "id": 246,
      "content": "157",
      "single_word": false,
      "lstrip": false,
      "rstrip": false,
      "normalized": false,
      "special": true
    },
    {
      "id": 247,
      "content": "158",
      "single_word": false,
      "lstrip": false,
      "rstrip": false,
      "normalized": false,
      "special": true
    },
    {
      "id": 248,
      "content": "159",
      "single_word": false,
      "lstrip": false,
      "rstrip": false,
      "normalized": false,
      "special": true
    },
    {
      "id": 249,
      "content": "160",
      "single_word": false,
      "lstrip": false,
      "rstrip": false,
      "normalized": false,
      "special": true
    },
    {
      "id": 250,
      "content": "161",
      "single_word": false,
      "lstrip": false,
      "rstrip": false,
      "normalized": false,
      "special": true
    },
    {
      "id": 251,
      "content": "162",
      "single_word": false,
      "lstrip": false,
      "rstrip": false,
      "normalized": false,
      "special": true
    },
    {
      "id": 252,
      "content": "163",
      "single_word": false,
      "lstrip": false,
      "rstrip": false,
      "normalized": false,
      "special": true
    },
    {
      "id": 253,
      "content": "164",
      "single_word": false,
      "lstrip": false,
      "rstrip": false,
      "normalized": false,
      "special": true
    },
    {
      "id": 254,
      "content": "165",
      "single_word": false,
      "lstrip": false,
      "rstrip": false,
      "normalized": false,
      "special": true
    },
    {
      "id": 255,
      "content": "166",
      "single_word": false,
      "lstrip": false,
      "rstrip": false,
      "normalized": false,
      "special": true
    },
    {
      "id": 256,
      "content": "167",
      "single_word": false,
      "lstrip": false,
      "rstrip": false,
      "normalized": false,
      "special": true
    },
    {
      "id": 257,
      "content": "168",
      "single_word": false,
      "lstrip": false,
      "rstrip": false,
      "normalized": false,
      "special": true
    },
    {
      "id": 258,
      "content": "169",
      "single_word": false,
      "lstrip": false,
      "rstrip": false,
      "normalized": false,
      "special": true
    },
    {
      "id": 259,
      "content": "170",
      "single_word": false,
      "lstrip": false,
      "rstrip": false,
      "normalized": false,
      "special": true
    },
    {
      "id": 260,
      "content": "171",
      "single_word": false,
      "lstrip": false,
      "rstrip": false,
      "normalized": false,
      "special": true
    },
    {
      "id": 261,
      "content": "172",
      "single_word": false,
      "lstrip": false,
      "rstrip": false,
      "normalized": false,
      "special": true
    },
    {
      "id": 262,
      "content": "173",
      "single_word": false,
      "lstrip": false,
      "rstrip": false,
      "normalized": false,
      "special": true
    },
    {
      "id": 263,
      "content": "174",
      "single_word": false,
      "lstrip": false,
      "rstrip": false,
      "normalized": false,
      "special": true
    },
    {
      "id": 264,
      "content": "175",
      "single_word": false,
      "lstrip": false,
      "rstrip": false,
      "normalized": false,
      "special": true
    },
    {
      "id": 265,
      "content": "176",
      "single_word": false,
      "lstrip": false,
      "rstrip": false,
      "normalized": false,
      "special": true
    },
    {
      "id": 266,
      "content": "177",
      "single_word": false,
      "lstrip": false,
      "rstrip": false,
      "normalized": false,
      "special": true
    },
    {
      "id": 267,
      "content": "178",
      "single_word": false,
      "lstrip": false,
      "rstrip": false,
      "normalized": false,
      "special": true
    },
    {
      "id": 268,
      "content": "179",
      "single_word": false,
      "lstrip": false,
      "rstrip": false,
      "normalized": false,
      "special": true
    },
    {
      "id": 269,
      "content": "180",
      "single_word": false,
      "lstrip": false,
      "rstrip": false,
      "normalized": false,
      "special": true
    },
    {
      "id": 270,
      "content": "181",
      "single_word": false,
      "lstrip": false,
      "rstrip": false,
      "normalized": false,
      "special": true
    },
    {
      "id": 271,
      "content": "182",
      "single_word": false,
      "lstrip": false,
      "rstrip": false,
      "normalized": false,
      "special": true
    },
    {
      "id": 272,
      "content": "183",
      "single_word": false,
      "lstrip": false,
      "rstrip": false,
      "normalized": false,
      "special": true
    },
    {
      "id": 273,
      "content": "184",
      "single_word": false,
      "lstrip": false,
      "rstrip": false,
      "normalized": false,
      "special": true
    },
    {
      "id": 274,
      "content": "185",
      "single_word": false,
      "lstrip": false,
      "rstrip": false,
      "normalized": false,
      "special": true
    },
    {
      "id": 275,
      "content": "186",
      "single_word": false,
      "lstrip": false,
      "rstrip": false,
      "normalized": false,
      "special": true
    },
    {
      "id": 276,
      "content": "187",
      "single_word": false,
      "lstrip": false,
      "rstrip": false,
      "normalized": false,
      "special": true
    },
    {
      "id": 277,
      "content": "188",
      "single_word": false,
      "lstrip": false,
      "rstrip": false,
      "normalized": false,
      "special": true
    },
    {
      "id": 278,
      "content": "189",
      "single_word": false,
      "lstrip": false,
      "rstrip": false,
      "normalized": false,
      "special": true
    },
    {
      "id": 279,
      "content": "190",
      "single_word": false,
      "lstrip": false,
      "rstrip": false,
      "normalized": false,
      "special": true
    },
    {
      "id": 280,
      "content": "191",
      "single_word": false,
      "lstrip": false,
      "rstrip": false,
      "normalized": false,
      "special": true
    },
    {
      "id": 281,
      "content": "192",
      "single_word": false,
      "lstrip": false,
      "rstrip": false,
      "normalized": false,
      "special": true
    },
    {
      "id": 282,
      "content": "193",
      "single_word": false,
      "lstrip": false,
      "rstrip": false,
      "normalized": false,
      "special": true
    },
    {
      "id": 283,
      "content": "194",
      "single_word": false,
      "lstrip": false,
      "rstrip": false,
      "normalized": false,
      "special": true
    },
    {
      "id": 284,
      "content": "195",
      "single_word": false,
      "lstrip": false,
      "rstrip": false,
      "normalized": false,
      "special": true
    },
    {
      "id": 285,
      "content": "196",
      "single_word": false,
      "lstrip": false,
      "rstrip": false,
      "normalized": false,
      "special": true
    },
    {
      "id": 286,
      "content": "197",
      "single_word": false,
      "lstrip": false,
      "rstrip": false,
      "normalized": false,
      "special": true
    },
    {
      "id": 287,
      "content": "198",
      "single_word": false,
      "lstrip": false,
      "rstrip": false,
      "normalized": false,
      "special": true
    },
    {
      "id": 288,
      "content": "199",
      "single_word": false,
      "lstrip": false,
      "rstrip": false,
      "normalized": false,
      "special": true
    },
    {
      "id": 289,
      "content": "2.5",
      "single_word": false,
      "lstrip": false,
      "rstrip": false,
      "normalized": false,
      "special": true
    },
    {
      "id": 290,
      "content": "200",
      "single_word": false,
      "lstrip": false,
      "rstrip": false,
      "normalized": false,
      "special": true
    },
    {
      "id": 291,
      "content": "201",
      "single_word": false,
      "lstrip": false,
      "rstrip": false,
      "normalized": false,
      "special": true
    },
    {
      "id": 292,
      "content": "202",
      "single_word": false,
      "lstrip": false,
      "rstrip": false,
      "normalized": false,
      "special": true
    },
    {
      "id": 293,
      "content": "203",
      "single_word": false,
      "lstrip": false,
      "rstrip": false,
      "normalized": false,
      "special": true
    },
    {
      "id": 294,
      "content": "204",
      "single_word": false,
      "lstrip": false,
      "rstrip": false,
      "normalized": false,
      "special": true
    },
    {
      "id": 295,
      "content": "205",
      "single_word": false,
      "lstrip": false,
      "rstrip": false,
      "normalized": false,
      "special": true
    },
    {
      "id": 296,
      "content": "206",
      "single_word": false,
      "lstrip": false,
      "rstrip": false,
      "normalized": false,
      "special": true
    },
    {
      "id": 297,
      "content": "207",
      "single_word": false,
      "lstrip": false,
      "rstrip": false,
      "normalized": false,
      "special": true
    },
    {
      "id": 298,
      "content": "208",
      "single_word": false,
      "lstrip": false,
      "rstrip": false,
      "normalized": false,
      "special": true
    },
    {
      "id": 299,
      "content": "209",
      "single_word": false,
      "lstrip": false,
      "rstrip": false,
      "normalized": false,
      "special": true
    },
    {
      "id": 300,
      "content": "210",
      "single_word": false,
      "lstrip": false,
      "rstrip": false,
      "normalized": false,
      "special": true
    },
    {
      "id": 301,
      "content": "211",
      "single_word": false,
      "lstrip": false,
      "rstrip": false,
      "normalized": false,
      "special": true
    },
    {
      "id": 302,
      "content": "212",
      "single_word": false,
      "lstrip": false,
      "rstrip": false,
      "normalized": false,
      "special": true
    },
    {
      "id": 303,
      "content": "213",
      "single_word": false,
      "lstrip": false,
      "rstrip": false,
      "normalized": false,
      "special": true
    },
    {
      "id": 304,
      "content": "214",
      "single_word": false,
      "lstrip": false,
      "rstrip": false,
      "normalized": false,
      "special": true
    },
    {
      "id": 305,
      "content": "215",
      "single_word": false,
      "lstrip": false,
      "rstrip": false,
      "normalized": false,
      "special": true
    },
    {
      "id": 306,
      "content": "216",
      "single_word": false,
      "lstrip": false,
      "rstrip": false,
      "normalized": false,
      "special": true
    },
    {
      "id": 307,
      "content": "217",
      "single_word": false,
      "lstrip": false,
      "rstrip": false,
      "normalized": false,
      "special": true
    },
    {
      "id": 308,
      "content": "218",
      "single_word": false,
      "lstrip": false,
      "rstrip": false,
      "normalized": false,
      "special": true
    },
    {
      "id": 309,
      "content": "219",
      "single_word": false,
      "lstrip": false,
      "rstrip": false,
      "normalized": false,
      "special": true
    },
    {
      "id": 310,
      "content": "220",
      "single_word": false,
      "lstrip": false,
      "rstrip": false,
      "normalized": false,
      "special": true
    },
    {
      "id": 311,
      "content": "221",
      "single_word": false,
      "lstrip": false,
      "rstrip": false,
      "normalized": false,
      "special": true
    },
    {
      "id": 312,
      "content": "222",
      "single_word": false,
      "lstrip": false,
      "rstrip": false,
      "normalized": false,
      "special": true
    },
    {
      "id": 313,
      "content": "223",
      "single_word": false,
      "lstrip": false,
      "rstrip": false,
      "normalized": false,
      "special": true
    },
    {
      "id": 314,
      "content": "224",
      "single_word": false,
      "lstrip": false,
      "rstrip": false,
      "normalized": false,
      "special": true
    },
    {
      "id": 315,
      "content": "225",
      "single_word": false,
      "lstrip": false,
      "rstrip": false,
      "normalized": false,
      "special": true
    },
    {
      "id": 316,
      "content": "226",
      "single_word": false,
      "lstrip": false,
      "rstrip": false,
      "normalized": false,
      "special": true
    },
    {
      "id": 317,
      "content": "227",
      "single_word": false,
      "lstrip": false,
      "rstrip": false,
      "normalized": false,
      "special": true
    },
    {
      "id": 318,
      "content": "228",
      "single_word": false,
      "lstrip": false,
      "rstrip": false,
      "normalized": false,
      "special": true
    },
    {
      "id": 319,
      "content": "229",
      "single_word": false,
      "lstrip": false,
      "rstrip": false,
      "normalized": false,
      "special": true
    },
    {
      "id": 320,
      "content": "230",
      "single_word": false,
      "lstrip": false,
      "rstrip": false,
      "normalized": false,
      "special": true
    },
    {
      "id": 321,
      "content": "231",
      "single_word": false,
      "lstrip": false,
      "rstrip": false,
      "normalized": false,
      "special": true
    },
    {
      "id": 322,
      "content": "232",
      "single_word": false,
      "lstrip": false,
      "rstrip": false,
      "normalized": false,
      "special": true
    },
    {
      "id": 323,
      "content": "233",
      "single_word": false,
      "lstrip": false,
      "rstrip": false,
      "normalized": false,
      "special": true
    },
    {
      "id": 324,
      "content": "234",
      "single_word": false,
      "lstrip": false,
      "rstrip": false,
      "normalized": false,
      "special": true
    },
    {
      "id": 325,
      "content": "235",
      "single_word": false,
      "lstrip": false,
      "rstrip": false,
      "normalized": false,
      "special": true
    },
    {
      "id": 326,
      "content": "236",
      "single_word": false,
      "lstrip": false,
      "rstrip": false,
      "normalized": false,
      "special": true
    },
    {
      "id": 327,
      "content": "237",
      "single_word": false,
      "lstrip": false,
      "rstrip": false,
      "normalized": false,
      "special": true
    },
    {
      "id": 328,
      "content": "238",
      "single_word": false,
      "lstrip": false,
      "rstrip": false,
      "normalized": false,
      "special": true
    },
    {
      "id": 329,
      "content": "239",
      "single_word": false,
      "lstrip": false,
      "rstrip": false,
      "normalized": false,
      "special": true
    },
    {
      "id": 330,
      "content": "240",
      "single_word": false,
      "lstrip": false,
      "rstrip": false,
      "normalized": false,
      "special": true
    },
    {
      "id": 331,
      "content": "241",
      "single_word": false,
      "lstrip": false,
      "rstrip": false,
      "normalized": false,
      "special": true
    },
    {
      "id": 332,
      "content": "242",
      "single_word": false,
      "lstrip": false,
      "rstrip": false,
      "normalized": false,
      "special": true
    },
    {
      "id": 333,
      "content": "243",
      "single_word": false,
      "lstrip": false,
      "rstrip": false,
      "normalized": false,
      "special": true
    },
    {
      "id": 334,
      "content": "244",
      "single_word": false,
      "lstrip": false,
      "rstrip": false,
      "normalized": false,
      "special": true
    },
    {
      "id": 335,
      "content": "245",
      "single_word": false,
      "lstrip": false,
      "rstrip": false,
      "normalized": false,
      "special": true
    },
    {
      "id": 336,
      "content": "246",
      "single_word": false,
      "lstrip": false,
      "rstrip": false,
      "normalized": false,
      "special": true
    },
    {
      "id": 337,
      "content": "247",
      "single_word": false,
      "lstrip": false,
      "rstrip": false,
      "normalized": false,
      "special": true
    },
    {
      "id": 338,
      "content": "248",
      "single_word": false,
      "lstrip": false,
      "rstrip": false,
      "normalized": false,
      "special": true
    },
    {
      "id": 339,
      "content": "249",
      "single_word": false,
      "lstrip": false,
      "rstrip": false,
      "normalized": false,
      "special": true
    },
    {
      "id": 340,
      "content": "250",
      "single_word": false,
      "lstrip": false,
      "rstrip": false,
      "normalized": false,
      "special": true
    },
    {
      "id": 341,
      "content": "251",
      "single_word": false,
      "lstrip": false,
      "rstrip": false,
      "normalized": false,
      "special": true
    },
    {
      "id": 342,
      "content": "252",
      "single_word": false,
      "lstrip": false,
      "rstrip": false,
      "normalized": false,
      "special": true
    },
    {
      "id": 343,
      "content": "253",
      "single_word": false,
      "lstrip": false,
      "rstrip": false,
      "normalized": false,
      "special": true
    },
    {
      "id": 344,
      "content": "254",
      "single_word": false,
      "lstrip": false,
      "rstrip": false,
      "normalized": false,
      "special": true
    },
    {
      "id": 345,
      "content": "255",
      "single_word": false,
      "lstrip": false,
      "rstrip": false,
      "normalized": false,
      "special": true
    },
    {
      "id": 346,
      "content": "256",
      "single_word": false,
      "lstrip": false,
      "rstrip": false,
      "normalized": false,
      "special": true
    },
    {
      "id": 347,
      "content": "257",
      "single_word": false,
      "lstrip": false,
      "rstrip": false,
      "normalized": false,
      "special": true
    },
    {
      "id": 348,
      "content": "258",
      "single_word": false,
      "lstrip": false,
      "rstrip": false,
      "normalized": false,
      "special": true
    },
    {
      "id": 349,
      "content": "259",
      "single_word": false,
      "lstrip": false,
      "rstrip": false,
      "normalized": false,
      "special": true
    },
    {
      "id": 350,
      "content": "260",
      "single_word": false,
      "lstrip": false,
      "rstrip": false,
      "normalized": false,
      "special": true
    },
    {
      "id": 351,
      "content": "261",
      "single_word": false,
      "lstrip": false,
      "rstrip": false,
      "normalized": false,
      "special": true
    },
    {
      "id": 352,
      "content": "262",
      "single_word": false,
      "lstrip": false,
      "rstrip": false,
      "normalized": false,
      "special": true
    },
    {
      "id": 353,
      "content": "263",
      "single_word": false,
      "lstrip": false,
      "rstrip": false,
      "normalized": false,
      "special": true
    },
    {
      "id": 354,
      "content": "264",
      "single_word": false,
      "lstrip": false,
      "rstrip": false,
      "normalized": false,
      "special": true
    },
    {
      "id": 355,
      "content": "265",
      "single_word": false,
      "lstrip": false,
      "rstrip": false,
      "normalized": false,
      "special": true
    },
    {
      "id": 356,
      "content": "266",
      "single_word": false,
      "lstrip": false,
      "rstrip": false,
      "normalized": false,
      "special": true
    },
    {
      "id": 357,
      "content": "267",
      "single_word": false,
      "lstrip": false,
      "rstrip": false,
      "normalized": false,
      "special": true
    },
    {
      "id": 358,
      "content": "268",
      "single_word": false,
      "lstrip": false,
      "rstrip": false,
      "normalized": false,
      "special": true
    },
    {
      "id": 359,
      "content": "269",
      "single_word": false,
      "lstrip": false,
      "rstrip": false,
      "normalized": false,
      "special": true
    },
    {
      "id": 360,
      "content": "270",
      "single_word": false,
      "lstrip": false,
      "rstrip": false,
      "normalized": false,
      "special": true
    },
    {
      "id": 361,
      "content": "271",
      "single_word": false,
      "lstrip": false,
      "rstrip": false,
      "normalized": false,
      "special": true
    },
    {
      "id": 362,
      "content": "272",
      "single_word": false,
      "lstrip": false,
      "rstrip": false,
      "normalized": false,
      "special": true
    },
    {
      "id": 363,
      "content": "273",
      "single_word": false,
      "lstrip": false,
      "rstrip": false,
      "normalized": false,
      "special": true
    },
    {
      "id": 364,
      "content": "274",
      "single_word": false,
      "lstrip": false,
      "rstrip": false,
      "normalized": false,
      "special": true
    },
    {
      "id": 365,
      "content": "275",
      "single_word": false,
      "lstrip": false,
      "rstrip": false,
      "normalized": false,
      "special": true
    },
    {
      "id": 366,
      "content": "276",
      "single_word": false,
      "lstrip": false,
      "rstrip": false,
      "normalized": false,
      "special": true
    },
    {
      "id": 367,
      "content": "277",
      "single_word": false,
      "lstrip": false,
      "rstrip": false,
      "normalized": false,
      "special": true
    },
    {
      "id": 368,
      "content": "278",
      "single_word": false,
      "lstrip": false,
      "rstrip": false,
      "normalized": false,
      "special": true
    },
    {
      "id": 369,
      "content": "279",
      "single_word": false,
      "lstrip": false,
      "rstrip": false,
      "normalized": false,
      "special": true
    },
    {
      "id": 370,
      "content": "280",
      "single_word": false,
      "lstrip": false,
      "rstrip": false,
      "normalized": false,
      "special": true
    },
    {
      "id": 371,
      "content": "281",
      "single_word": false,
      "lstrip": false,
      "rstrip": false,
      "normalized": false,
      "special": true
    },
    {
      "id": 372,
      "content": "282",
      "single_word": false,
      "lstrip": false,
      "rstrip": false,
      "normalized": false,
      "special": true
    },
    {
      "id": 373,
      "content": "283",
      "single_word": false,
      "lstrip": false,
      "rstrip": false,
      "normalized": false,
      "special": true
    },
    {
      "id": 374,
      "content": "284",
      "single_word": false,
      "lstrip": false,
      "rstrip": false,
      "normalized": false,
      "special": true
    },
    {
      "id": 375,
      "content": "285",
      "single_word": false,
      "lstrip": false,
      "rstrip": false,
      "normalized": false,
      "special": true
    },
    {
      "id": 376,
      "content": "286",
      "single_word": false,
      "lstrip": false,
      "rstrip": false,
      "normalized": false,
      "special": true
    },
    {
      "id": 377,
      "content": "287",
      "single_word": false,
      "lstrip": false,
      "rstrip": false,
      "normalized": false,
      "special": true
    },
    {
      "id": 378,
      "content": "288",
      "single_word": false,
      "lstrip": false,
      "rstrip": false,
      "normalized": false,
      "special": true
    },
    {
      "id": 379,
      "content": "289",
      "single_word": false,
      "lstrip": false,
      "rstrip": false,
      "normalized": false,
      "special": true
    },
    {
      "id": 380,
      "content": "290",
      "single_word": false,
      "lstrip": false,
      "rstrip": false,
      "normalized": false,
      "special": true
    },
    {
      "id": 381,
      "content": "291",
      "single_word": false,
      "lstrip": false,
      "rstrip": false,
      "normalized": false,
      "special": true
    },
    {
      "id": 382,
      "content": "292",
      "single_word": false,
      "lstrip": false,
      "rstrip": false,
      "normalized": false,
      "special": true
    },
    {
      "id": 383,
      "content": "293",
      "single_word": false,
      "lstrip": false,
      "rstrip": false,
      "normalized": false,
      "special": true
    },
    {
      "id": 384,
      "content": "294",
      "single_word": false,
      "lstrip": false,
      "rstrip": false,
      "normalized": false,
      "special": true
    },
    {
      "id": 385,
      "content": "295",
      "single_word": false,
      "lstrip": false,
      "rstrip": false,
      "normalized": false,
      "special": true
    },
    {
      "id": 386,
      "content": "296",
      "single_word": false,
      "lstrip": false,
      "rstrip": false,
      "normalized": false,
      "special": true
    },
    {
      "id": 387,
      "content": "297",
      "single_word": false,
      "lstrip": false,
      "rstrip": false,
      "normalized": false,
      "special": true
    },
    {
      "id": 388,
      "content": "298",
      "single_word": false,
      "lstrip": false,
      "rstrip": false,
      "normalized": false,
      "special": true
    },
    {
      "id": 389,
      "content": "299",
      "single_word": false,
      "lstrip": false,
      "rstrip": false,
      "normalized": false,
      "special": true
    },
    {
      "id": 390,
      "content": "3.5",
      "single_word": false,
      "lstrip": false,
      "rstrip": false,
      "normalized": false,
      "special": true
    },
    {
      "id": 391,
      "content": "300",
      "single_word": false,
      "lstrip": false,
      "rstrip": false,
      "normalized": false,
      "special": true
    },
    {
      "id": 392,
      "content": "301",
      "single_word": false,
      "lstrip": false,
      "rstrip": false,
      "normalized": false,
      "special": true
    },
    {
      "id": 393,
      "content": "302",
      "single_word": false,
      "lstrip": false,
      "rstrip": false,
      "normalized": false,
      "special": true
    },
    {
      "id": 394,
      "content": "303",
      "single_word": false,
      "lstrip": false,
      "rstrip": false,
      "normalized": false,
      "special": true
    },
    {
      "id": 395,
      "content": "304",
      "single_word": false,
      "lstrip": false,
      "rstrip": false,
      "normalized": false,
      "special": true
    },
    {
      "id": 396,
      "content": "305",
      "single_word": false,
      "lstrip": false,
      "rstrip": false,
      "normalized": false,
      "special": true
    },
    {
      "id": 397,
      "content": "306",
      "single_word": false,
      "lstrip": false,
      "rstrip": false,
      "normalized": false,
      "special": true
    },
    {
      "id": 398,
      "content": "307",
      "single_word": false,
      "lstrip": false,
      "rstrip": false,
      "normalized": false,
      "special": true
    },
    {
      "id": 399,
      "content": "308",
      "single_word": false,
      "lstrip": false,
      "rstrip": false,
      "normalized": false,
      "special": true
    },
    {
      "id": 400,
      "content": "309",
      "single_word": false,
      "lstrip": false,
      "rstrip": false,
      "normalized": false,
      "special": true
    },
    {
      "id": 401,
      "content": "310",
      "single_word": false,
      "lstrip": false,
      "rstrip": false,
      "normalized": false,
      "special": true
    },
    {
      "id": 402,
      "content": "311",
      "single_word": false,
      "lstrip": false,
      "rstrip": false,
      "normalized": false,
      "special": true
    },
    {
      "id": 403,
      "content": "312",
      "single_word": false,
      "lstrip": false,
      "rstrip": false,
      "normalized": false,
      "special": true
    },
    {
      "id": 404,
      "content": "313",
      "single_word": false,
      "lstrip": false,
      "rstrip": false,
      "normalized": false,
      "special": true
    },
    {
      "id": 405,
      "content": "314",
      "single_word": false,
      "lstrip": false,
      "rstrip": false,
      "normalized": false,
      "special": true
    },
    {
      "id": 406,
      "content": "315",
      "single_word": false,
      "lstrip": false,
      "rstrip": false,
      "normalized": false,
      "special": true
    },
    {
      "id": 407,
      "content": "316",
      "single_word": false,
      "lstrip": false,
      "rstrip": false,
      "normalized": false,
      "special": true
    },
    {
      "id": 408,
      "content": "317",
      "single_word": false,
      "lstrip": false,
      "rstrip": false,
      "normalized": false,
      "special": true
    },
    {
      "id": 409,
      "content": "318",
      "single_word": false,
      "lstrip": false,
      "rstrip": false,
      "normalized": false,
      "special": true
    },
    {
      "id": 410,
      "content": "319",
      "single_word": false,
      "lstrip": false,
      "rstrip": false,
      "normalized": false,
      "special": true
    },
    {
      "id": 411,
      "content": "320",
      "single_word": false,
      "lstrip": false,
      "rstrip": false,
      "normalized": false,
      "special": true
    },
    {
      "id": 412,
      "content": "321",
      "single_word": false,
      "lstrip": false,
      "rstrip": false,
      "normalized": false,
      "special": true
    },
    {
      "id": 413,
      "content": "322",
      "single_word": false,
      "lstrip": false,
      "rstrip": false,
      "normalized": false,
      "special": true
    },
    {
      "id": 414,
      "content": "323",
      "single_word": false,
      "lstrip": false,
      "rstrip": false,
      "normalized": false,
      "special": true
    },
    {
      "id": 415,
      "content": "324",
      "single_word": false,
      "lstrip": false,
      "rstrip": false,
      "normalized": false,
      "special": true
    },
    {
      "id": 416,
      "content": "325",
      "single_word": false,
      "lstrip": false,
      "rstrip": false,
      "normalized": false,
      "special": true
    },
    {
      "id": 417,
      "content": "326",
      "single_word": false,
      "lstrip": false,
      "rstrip": false,
      "normalized": false,
      "special": true
    },
    {
      "id": 418,
      "content": "327",
      "single_word": false,
      "lstrip": false,
      "rstrip": false,
      "normalized": false,
      "special": true
    },
    {
      "id": 419,
      "content": "328",
      "single_word": false,
      "lstrip": false,
      "rstrip": false,
      "normalized": false,
      "special": true
    },
    {
      "id": 420,
      "content": "329",
      "single_word": false,
      "lstrip": false,
      "rstrip": false,
      "normalized": false,
      "special": true
    },
    {
      "id": 421,
      "content": "330",
      "single_word": false,
      "lstrip": false,
      "rstrip": false,
      "normalized": false,
      "special": true
    },
    {
      "id": 422,
      "content": "331",
      "single_word": false,
      "lstrip": false,
      "rstrip": false,
      "normalized": false,
      "special": true
    },
    {
      "id": 423,
      "content": "332",
      "single_word": false,
      "lstrip": false,
      "rstrip": false,
      "normalized": false,
      "special": true
    },
    {
      "id": 424,
      "content": "333",
      "single_word": false,
      "lstrip": false,
      "rstrip": false,
      "normalized": false,
      "special": true
    },
    {
      "id": 425,
      "content": "334",
      "single_word": false,
      "lstrip": false,
      "rstrip": false,
      "normalized": false,
      "special": true
    },
    {
      "id": 426,
      "content": "335",
      "single_word": false,
      "lstrip": false,
      "rstrip": false,
      "normalized": false,
      "special": true
    },
    {
      "id": 427,
      "content": "336",
      "single_word": false,
      "lstrip": false,
      "rstrip": false,
      "normalized": false,
      "special": true
    },
    {
      "id": 428,
      "content": "337",
      "single_word": false,
      "lstrip": false,
      "rstrip": false,
      "normalized": false,
      "special": true
    },
    {
      "id": 429,
      "content": "338",
      "single_word": false,
      "lstrip": false,
      "rstrip": false,
      "normalized": false,
      "special": true
    },
    {
      "id": 430,
      "content": "339",
      "single_word": false,
      "lstrip": false,
      "rstrip": false,
      "normalized": false,
      "special": true
    },
    {
      "id": 431,
      "content": "340",
      "single_word": false,
      "lstrip": false,
      "rstrip": false,
      "normalized": false,
      "special": true
    },
    {
      "id": 432,
      "content": "341",
      "single_word": false,
      "lstrip": false,
      "rstrip": false,
      "normalized": false,
      "special": true
    },
    {
      "id": 433,
      "content": "342",
      "single_word": false,
      "lstrip": false,
      "rstrip": false,
      "normalized": false,
      "special": true
    },
    {
      "id": 434,
      "content": "343",
      "single_word": false,
      "lstrip": false,
      "rstrip": false,
      "normalized": false,
      "special": true
    },
    {
      "id": 435,
      "content": "344",
      "single_word": false,
      "lstrip": false,
      "rstrip": false,
      "normalized": false,
      "special": true
    },
    {
      "id": 436,
      "content": "345",
      "single_word": false,
      "lstrip": false,
      "rstrip": false,
      "normalized": false,
      "special": true
    },
    {
      "id": 437,
      "content": "346",
      "single_word": false,
      "lstrip": false,
      "rstrip": false,
      "normalized": false,
      "special": true
    },
    {
      "id": 438,
      "content": "347",
      "single_word": false,
      "lstrip": false,
      "rstrip": false,
      "normalized": false,
      "special": true
    },
    {
      "id": 439,
      "content": "348",
      "single_word": false,
      "lstrip": false,
      "rstrip": false,
      "normalized": false,
      "special": true
    },
    {
      "id": 440,
      "content": "349",
      "single_word": false,
      "lstrip": false,
      "rstrip": false,
      "normalized": false,
      "special": true
    },
    {
      "id": 441,
      "content": "350",
      "single_word": false,
      "lstrip": false,
      "rstrip": false,
      "normalized": false,
      "special": true
    },
    {
      "id": 442,
      "content": "351",
      "single_word": false,
      "lstrip": false,
      "rstrip": false,
      "normalized": false,
      "special": true
    },
    {
      "id": 443,
      "content": "352",
      "single_word": false,
      "lstrip": false,
      "rstrip": false,
      "normalized": false,
      "special": true
    },
    {
      "id": 444,
      "content": "353",
      "single_word": false,
      "lstrip": false,
      "rstrip": false,
      "normalized": false,
      "special": true
    },
    {
      "id": 445,
      "content": "354",
      "single_word": false,
      "lstrip": false,
      "rstrip": false,
      "normalized": false,
      "special": true
    },
    {
      "id": 446,
      "content": "355",
      "single_word": false,
      "lstrip": false,
      "rstrip": false,
      "normalized": false,
      "special": true
    },
    {
      "id": 447,
      "content": "356",
      "single_word": false,
      "lstrip": false,
      "rstrip": false,
      "normalized": false,
      "special": true
    },
    {
      "id": 448,
      "content": "357",
      "single_word": false,
      "lstrip": false,
      "rstrip": false,
      "normalized": false,
      "special": true
    },
    {
      "id": 449,
      "content": "358",
      "single_word": false,
      "lstrip": false,
      "rstrip": false,
      "normalized": false,
      "special": true
    },
    {
      "id": 450,
      "content": "359",
      "single_word": false,
      "lstrip": false,
      "rstrip": false,
      "normalized": false,
      "special": true
    },
    {
      "id": 451,
      "content": "360",
      "single_word": false,
      "lstrip": false,
      "rstrip": false,
      "normalized": false,
      "special": true
    },
    {
      "id": 452,
      "content": "4.5",
      "single_word": false,
      "lstrip": false,
      "rstrip": false,
      "normalized": false,
      "special": true
    },
    {
      "id": 453,
      "content": "400",
      "single_word": false,
      "lstrip": false,
      "rstrip": false,
      "normalized": false,
      "special": true
    },
    {
      "id": 454,
      "content": "5.5",
      "single_word": false,
      "lstrip": false,
      "rstrip": false,
      "normalized": false,
      "special": true
    },
    {
      "id": 455,
      "content": "500",
      "single_word": false,
      "lstrip": false,
      "rstrip": false,
      "normalized": false,
      "special": true
    },
    {
      "id": 456,
      "content": "6.5",
      "single_word": false,
      "lstrip": false,
      "rstrip": false,
      "normalized": false,
      "special": true
    },
    {
      "id": 457,
      "content": "600",
      "single_word": false,
      "lstrip": false,
      "rstrip": false,
      "normalized": false,
      "special": true
    },
    {
      "id": 458,
      "content": "7.5",
      "single_word": false,
      "lstrip": false,
      "rstrip": false,
      "normalized": false,
      "special": true
    },
    {
      "id": 459,
      "content": "700",
      "single_word": false,
      "lstrip": false,
      "rstrip": false,
      "normalized": false,
      "special": true
    },
    {
      "id": 460,
      "content": "8.5",
      "single_word": false,
      "lstrip": false,
      "rstrip": false,
      "normalized": false,
      "special": true
    },
    {
      "id": 461,
      "content": "800",
      "single_word": false,
      "lstrip": false,
      "rstrip": false,
      "normalized": false,
      "special": true
    },
    {
      "id": 462,
      "content": "9.5",
      "single_word": false,
      "lstrip": false,
      "rstrip": false,
      "normalized": false,
      "special": true
    },
    {
      "id": 463,
      "content": "900",
      "single_word": false,
      "lstrip": false,
      "rstrip": false,
      "normalized": false,
      "special": true
    },
    {
      "id": 464,
      "content": "deg",
      "single_word": false,
      "lstrip": false,
      "rstrip": false,
      "normalized": false,
      "special": true
    },
    {
      "id": 465,
      "content": "m/s",
      "single_word": false,
      "lstrip": false,
      "rstrip": false,
      "normalized": false,
      "special": true
    },
    {
      "id": 466,
      "content": "rad",
      "single_word": false,
      "lstrip": false,
      "rstrip": false,
      "normalized": false,
      "special": true
    },
    {
      "id": 467,
      "content": "0.25",
      "single_word": false,
      "lstrip": false,
      "rstrip": false,
      "normalized": false,
      "special": true
    },
    {
      "id": 468,
      "content": "0.75",
      "single_word": false,
      "lstrip": false,
      "rstrip": false,
      "normalized": false,
      "special": true
    },
    {
      "id": 469,
      "content": "1.25",
      "single_word": false,
      "lstrip": false,
      "rstrip": false,
      "normalized": false,
      "special": true
    },
    {
      "id": 470,
      "content": "1.75",
      "single_word": false,
      "lstrip": false,
      "rstrip": false,
      "normalized": false,
      "special": true
    },
    {
      "id": 471,
      "content": "10.5",
      "single_word": false,
      "lstrip": false,
      "rstrip": false,
      "normalized": false,
      "special": true
    },
    {
      "id": 472,
      "content": "1000",
      "single_word": false,
      "lstrip": false,
      "rstrip": false,
      "normalized": false,
      "special": true
    },
    {
      "id": 473,
      "content": "11.5",
      "single_word": false,
      "lstrip": false,
      "rstrip": false,
      "normalized": false,
      "special": true
    },
    {
      "id": 474,
      "content": "12.5",
      "single_word": false,
      "lstrip": false,
      "rstrip": false,
      "normalized": false,
      "special": true
    },
    {
      "id": 475,
      "content": "13.5",
      "single_word": false,
      "lstrip": false,
      "rstrip": false,
      "normalized": false,
      "special": true
    },
    {
      "id": 476,
      "content": "14.5",
      "single_word": false,
      "lstrip": false,
      "rstrip": false,
      "normalized": false,
      "special": true
    },
    {
      "id": 477,
      "content": "15.5",
      "single_word": false,
      "lstrip": false,
      "rstrip": false,
      "normalized": false,
      "special": true
    },
    {
      "id": 478,
      "content": "16.5",
      "single_word": false,
      "lstrip": false,
      "rstrip": false,
      "normalized": false,
      "special": true
    },
    {
      "id": 479,
      "content": "17.5",
      "single_word": false,
      "lstrip": false,
      "rstrip": false,
      "normalized": false,
      "special": true
    },
    {
      "id": 480,
      "content": "18.5",
      "single_word": false,
      "lstrip": false,
      "rstrip": false,
      "normalized": false,
      "special": true
    },
    {
      "id": 481,
      "content": "19.5",
      "single_word": false,
      "lstrip": false,
      "rstrip": false,
      "normalized": false,
      "special": true
    },
    {
      "id": 482,
      "content": "2.25",
      "single_word": false,
      "lstrip": false,
      "rstrip": false,
      "normalized": false,
      "special": true
    },
    {
      "id": 483,
      "content": "2.75",
      "single_word": false,
      "lstrip": false,
      "rstrip": false,
      "normalized": false,
      "special": true
    },
    {
      "id": 484,
      "content": "20.5",
      "single_word": false,
      "lstrip": false,
      "rstrip": false,
      "normalized": false,
      "special": true
    },
    {
      "id": 485,
      "content": "21.5",
      "single_word": false,
      "lstrip": false,
      "rstrip": false,
      "normalized": false,
      "special": true
    },
    {
      "id": 486,
      "content": "22.5",
      "single_word": false,
      "lstrip": false,
      "rstrip": false,
      "normalized": false,
      "special": true
    },
    {
      "id": 487,
      "content": "23.5",
      "single_word": false,
      "lstrip": false,
      "rstrip": false,
      "normalized": false,
      "special": true
    },
    {
      "id": 488,
      "content": "24.5",
      "single_word": false,
      "lstrip": false,
      "rstrip": false,
      "normalized": false,
      "special": true
    },
    {
      "id": 489,
      "content": "25.5",
      "single_word": false,
      "lstrip": false,
      "rstrip": false,
      "normalized": false,
      "special": true
    },
    {
      "id": 490,
      "content": "26.5",
      "single_word": false,
      "lstrip": false,
      "rstrip": false,
      "normalized": false,
      "special": true
    },
    {
      "id": 491,
      "content": "27.5",
      "single_word": false,
      "lstrip": false,
      "rstrip": false,
      "normalized": false,
      "special": true
    },
    {
      "id": 492,
      "content": "28.5",
      "single_word": false,
      "lstrip": false,
      "rstrip": false,
      "normalized": false,
      "special": true
    },
    {
      "id": 493,
      "content": "29.5",
      "single_word": false,
      "lstrip": false,
      "rstrip": false,
      "normalized": false,
      "special": true
    },
    {
      "id": 494,
      "content": "3.25",
      "single_word": false,
      "lstrip": false,
      "rstrip": false,
      "normalized": false,
      "special": true
    },
    {
      "id": 495,
      "content": "3.75",
      "single_word": false,
      "lstrip": false,
      "rstrip": false,
      "normalized": false,
      "special": true
    },
    {
      "id": 496,
      "content": "30.5",
      "single_word": false,
      "lstrip": false,
      "rstrip": false,
      "normalized": false,
      "special": true
    },
    {
      "id": 497,
      "content": "31.5",
      "single_word": false,
      "lstrip": false,
      "rstrip": false,
      "normalized": false,
      "special": true
    },
    {
      "id": 498,
      "content": "32.5",
      "single_word": false,
      "lstrip": false,
      "rstrip": false,
      "normalized": false,
      "special": true
    },
    {
      "id": 499,
      "content": "33.5",
      "single_word": false,
      "lstrip": false,
      "rstrip": false,
      "normalized": false,
      "special": true
    },
    {
      "id": 500,
      "content": "34.5",
      "single_word": false,
      "lstrip": false,
      "rstrip": false,
      "normalized": false,
      "special": true
    },
    {
      "id": 501,
      "content": "35.5",
      "single_word": false,
      "lstrip": false,
      "rstrip": false,
      "normalized": false,
      "special": true
    },
    {
      "id": 502,
      "content": "36.5",
      "single_word": false,
      "lstrip": false,
      "rstrip": false,
      "normalized": false,
      "special": true
    },
    {
      "id": 503,
      "content": "37.5",
      "single_word": false,
      "lstrip": false,
      "rstrip": false,
      "normalized": false,
      "special": true
    },
    {
      "id": 504,
      "content": "38.5",
      "single_word": false,
      "lstrip": false,
      "rstrip": false,
      "normalized": false,
      "special": true
    },
    {
      "id": 505,
      "content": "39.5",
      "single_word": false,
      "lstrip": false,
      "rstrip": false,
      "normalized": false,
      "special": true
    },
    {
      "id": 506,
      "content": "4.25",
      "single_word": false,
      "lstrip": false,
      "rstrip": false,
      "normalized": false,
      "special": true
    },
    {
      "id": 507,
      "content": "4.75",
      "single_word": false,
      "lstrip": false,
      "rstrip": false,
      "normalized": false,
      "special": true
    },
    {
      "id": 508,
      "content": "40.5",
      "single_word": false,
      "lstrip": false,
      "rstrip": false,
      "normalized": false,
      "special": true
    },
    {
      "id": 509,
      "content": "41.5",
      "single_word": false,
      "lstrip": false,
      "rstrip": false,
      "normalized": false,
      "special": true
    },
    {
      "id": 510,
      "content": "42.5",
      "single_word": false,
      "lstrip": false,
      "rstrip": false,
      "normalized": false,
      "special": true
    },
    {
      "id": 511,
      "content": "43.5",
      "single_word": false,
      "lstrip": false,
      "rstrip": false,
      "normalized": false,
      "special": true
    },
    {
      "id": 512,
      "content": "44.5",
      "single_word": false,
      "lstrip": false,
      "rstrip": false,
      "normalized": false,
      "special": true
    },
    {
      "id": 513,
      "content": "45.5",
      "single_word": false,
      "lstrip": false,
      "rstrip": false,
      "normalized": false,
      "special": true
    },
    {
      "id": 514,
      "content": "46.5",
      "single_word": false,
      "lstrip": false,
      "rstrip": false,
      "normalized": false,
      "special": true
    },
    {
      "id": 515,
      "content": "47.5",
      "single_word": false,
      "lstrip": false,
      "rstrip": false,
      "normalized": false,
      "special": true
    },
    {
      "id": 516,
      "content": "48.5",
      "single_word": false,
      "lstrip": false,
      "rstrip": false,
      "normalized": false,
      "special": true
    },
    {
      "id": 517,
      "content": "49.5",
      "single_word": false,
      "lstrip": false,
      "rstrip": false,
      "normalized": false,
      "special": true
    },
    {
      "id": 518,
      "content": "5.25",
      "single_word": false,
      "lstrip": false,
      "rstrip": false,
      "normalized": false,
      "special": true
    },
    {
      "id": 519,
      "content": "5.75",
      "single_word": false,
      "lstrip": false,
      "rstrip": false,
      "normalized": false,
      "special": true
    },
    {
      "id": 520,
      "content": "50.5",
      "single_word": false,
      "lstrip": false,
      "rstrip": false,
      "normalized": false,
      "special": true
    },
    {
      "id": 521,
      "content": "6.25",
      "single_word": false,
      "lstrip": false,
      "rstrip": false,
      "normalized": false,
      "special": true
    },
    {
      "id": 522,
      "content": "6.75",
      "single_word": false,
      "lstrip": false,
      "rstrip": false,
      "normalized": false,
      "special": true
    },
    {
      "id": 523,
      "content": "7.25",
      "single_word": false,
      "lstrip": false,
      "rstrip": false,
      "normalized": false,
      "special": true
    },
    {
      "id": 524,
      "content": "7.75",
      "single_word": false,
      "lstrip": false,
      "rstrip": false,
      "normalized": false,
      "special": true
    },
    {
      "id": 525,
      "content": "8.25",
      "single_word": false,
      "lstrip": false,
      "rstrip": false,
      "normalized": false,
      "special": true
    },
    {
      "id": 526,
      "content": "8.75",
      "single_word": false,
      "lstrip": false,
      "rstrip": false,
      "normalized": false,
      "special": true
    },
    {
      "id": 527,
      "content": "9.25",
      "single_word": false,
      "lstrip": false,
      "rstrip": false,
      "normalized": false,
      "special": true
    },
    {
      "id": 528,
      "content": "9.75",
      "single_word": false,
      "lstrip": false,
      "rstrip": false,
      "normalized": false,
      "special": true
    },
    {
      "id": 529,
      "content": "cm/s",
      "single_word": false,
      "lstrip": false,
      "rstrip": false,
      "normalized": false,
      "special": true
    },
    {
      "id": 530,
      "content": "feet",
      "single_word": false,
      "lstrip": false,
      "rstrip": false,
      "normalized": false,
      "special": true
    },
    {
      "id": 531,
      "content": "foot",
      "single_word": false,
      "lstrip": false,
      "rstrip": false,
      "normalized": false,
      "special": true
    },
    {
      "id": 532,
      "content": "ft/s",
      "single_word": false,
      "lstrip": false,
      "rstrip": false,
      "normalized": false,
      "special": true
    },
    {
      "id": 533,
      "content": "grad",
      "single_word": false,
      "lstrip": false,
      "rstrip": false,
      "normalized": false,
      "special": true
    },
    {
      "id": 534,
      "content": "in/s",
      "single_word": false,
      "lstrip": false,
      "rstrip": false,
      "normalized": false,
      "special": true
    },
    {
      "id": 535,
      "content": "inch",
      "single_word": false,
      "lstrip": false,
      "rstrip": false,
      "normalized": false,
      "special": true
    },
    {
      "id": 536,
      "content": "km/h",
      "single_word": false,
      "lstrip": false,
      "rstrip": false,
      "normalized": false,
      "special": true
    },
    {
      "id": 537,
      "content": "mm/s",
      "single_word": false,
      "lstrip": false,
      "rstrip": false,
      "normalized": false,
      "special": true
    },
    {
      "id": 538,
      "content": "10.25",
      "single_word": false,
      "lstrip": false,
      "rstrip": false,
      "normalized": false,
      "special": true
    },
    {
      "id": 539,
      "content": "10.75",
      "single_word": false,
      "lstrip": false,
      "rstrip": false,
      "normalized": false,
      "special": true
    },
    {
      "id": 540,
      "content": "11.25",
      "single_word": false,
      "lstrip": false,
      "rstrip": false,
      "normalized": false,
      "special": true
    },
    {
      "id": 541,
      "content": "11.75",
      "single_word": false,
      "lstrip": false,
      "rstrip": false,
      "normalized": false,
      "special": true
    },
    {
      "id": 542,
      "content": "12.25",
      "single_word": false,
      "lstrip": false,
      "rstrip": false,
      "normalized": false,
      "special": true
    },
    {
      "id": 543,
      "content": "12.75",
      "single_word": false,
      "lstrip": false,
      "rstrip": false,
      "normalized": false,
      "special": true
    },
    {
      "id": 544,
      "content": "13.25",
      "single_word": false,
      "lstrip": false,
      "rstrip": false,
      "normalized": false,
      "special": true
    },
    {
      "id": 545,
      "content": "13.75",
      "single_word": false,
      "lstrip": false,
      "rstrip": false,
      "normalized": false,
      "special": true
    },
    {
      "id": 546,
      "content": "14.25",
      "single_word": false,
      "lstrip": false,
      "rstrip": false,
      "normalized": false,
      "special": true
    },
    {
      "id": 547,
      "content": "14.75",
      "single_word": false,
      "lstrip": false,
      "rstrip": false,
      "normalized": false,
      "special": true
    },
    {
      "id": 548,
      "content": "15.25",
      "single_word": false,
      "lstrip": false,
      "rstrip": false,
      "normalized": false,
      "special": true
    },
    {
      "id": 549,
      "content": "15.75",
      "single_word": false,
      "lstrip": false,
      "rstrip": false,
      "normalized": false,
      "special": true
    },
    {
      "id": 550,
      "content": "16.25",
      "single_word": false,
      "lstrip": false,
      "rstrip": false,
      "normalized": false,
      "special": true
    },
    {
      "id": 551,
      "content": "16.75",
      "single_word": false,
      "lstrip": false,
      "rstrip": false,
      "normalized": false,
      "special": true
    },
    {
      "id": 552,
      "content": "17.25",
      "single_word": false,
      "lstrip": false,
      "rstrip": false,
      "normalized": false,
      "special": true
    },
    {
      "id": 553,
      "content": "17.75",
      "single_word": false,
      "lstrip": false,
      "rstrip": false,
      "normalized": false,
      "special": true
    },
    {
      "id": 554,
      "content": "18.25",
      "single_word": false,
      "lstrip": false,
      "rstrip": false,
      "normalized": false,
      "special": true
    },
    {
      "id": 555,
      "content": "18.75",
      "single_word": false,
      "lstrip": false,
      "rstrip": false,
      "normalized": false,
      "special": true
    },
    {
      "id": 556,
      "content": "19.25",
      "single_word": false,
      "lstrip": false,
      "rstrip": false,
      "normalized": false,
      "special": true
    },
    {
      "id": 557,
      "content": "19.75",
      "single_word": false,
      "lstrip": false,
      "rstrip": false,
      "normalized": false,
      "special": true
    },
    {
      "id": 558,
      "content": "20.25",
      "single_word": false,
      "lstrip": false,
      "rstrip": false,
      "normalized": false,
      "special": true
    },
    {
      "id": 559,
      "content": "20.75",
      "single_word": false,
      "lstrip": false,
      "rstrip": false,
      "normalized": false,
      "special": true
    },
    {
      "id": 560,
      "content": "21.25",
      "single_word": false,
      "lstrip": false,
      "rstrip": false,
      "normalized": false,
      "special": true
    },
    {
      "id": 561,
      "content": "21.75",
      "single_word": false,
      "lstrip": false,
      "rstrip": false,
      "normalized": false,
      "special": true
    },
    {
      "id": 562,
      "content": "22.25",
      "single_word": false,
      "lstrip": false,
      "rstrip": false,
      "normalized": false,
      "special": true
    },
    {
      "id": 563,
      "content": "22.75",
      "single_word": false,
      "lstrip": false,
      "rstrip": false,
      "normalized": false,
      "special": true
    },
    {
      "id": 564,
      "content": "23.25",
      "single_word": false,
      "lstrip": false,
      "rstrip": false,
      "normalized": false,
      "special": true
    },
    {
      "id": 565,
      "content": "23.75",
      "single_word": false,
      "lstrip": false,
      "rstrip": false,
      "normalized": false,
      "special": true
    },
    {
      "id": 566,
      "content": "24.25",
      "single_word": false,
      "lstrip": false,
      "rstrip": false,
      "normalized": false,
      "special": true
    },
    {
      "id": 567,
      "content": "24.75",
      "single_word": false,
      "lstrip": false,
      "rstrip": false,
      "normalized": false,
      "special": true
    },
    {
      "id": 568,
      "content": "25.25",
      "single_word": false,
      "lstrip": false,
      "rstrip": false,
      "normalized": false,
      "special": true
    },
    {
      "id": 569,
      "content": "25.75",
      "single_word": false,
      "lstrip": false,
      "rstrip": false,
      "normalized": false,
      "special": true
    },
    {
      "id": 570,
      "content": "26.25",
      "single_word": false,
      "lstrip": false,
      "rstrip": false,
      "normalized": false,
      "special": true
    },
    {
      "id": 571,
      "content": "26.75",
      "single_word": false,
      "lstrip": false,
      "rstrip": false,
      "normalized": false,
      "special": true
    },
    {
      "id": 572,
      "content": "27.25",
      "single_word": false,
      "lstrip": false,
      "rstrip": false,
      "normalized": false,
      "special": true
    },
    {
      "id": 573,
      "content": "27.75",
      "single_word": false,
      "lstrip": false,
      "rstrip": false,
      "normalized": false,
      "special": true
    },
    {
      "id": 574,
      "content": "28.25",
      "single_word": false,
      "lstrip": false,
      "rstrip": false,
      "normalized": false,
      "special": true
    },
    {
      "id": 575,
      "content": "28.75",
      "single_word": false,
      "lstrip": false,
      "rstrip": false,
      "normalized": false,
      "special": true
    },
    {
      "id": 576,
      "content": "29.25",
      "single_word": false,
      "lstrip": false,
      "rstrip": false,
      "normalized": false,
      "special": true
    },
    {
      "id": 577,
      "content": "29.75",
      "single_word": false,
      "lstrip": false,
      "rstrip": false,
      "normalized": false,
      "special": true
    },
    {
      "id": 578,
      "content": "30.25",
      "single_word": false,
      "lstrip": false,
      "rstrip": false,
      "normalized": false,
      "special": true
    },
    {
      "id": 579,
      "content": "30.75",
      "single_word": false,
      "lstrip": false,
      "rstrip": false,
      "normalized": false,
      "special": true
    },
    {
      "id": 580,
      "content": "31.25",
      "single_word": false,
      "lstrip": false,
      "rstrip": false,
      "normalized": false,
      "special": true
    },
    {
      "id": 581,
      "content": "31.75",
      "single_word": false,
      "lstrip": false,
      "rstrip": false,
      "normalized": false,
      "special": true
    },
    {
      "id": 582,
      "content": "32.25",
      "single_word": false,
      "lstrip": false,
      "rstrip": false,
      "normalized": false,
      "special": true
    },
    {
      "id": 583,
      "content": "32.75",
      "single_word": false,
      "lstrip": false,
      "rstrip": false,
      "normalized": false,
      "special": true
    },
    {
      "id": 584,
      "content": "33.25",
      "single_word": false,
      "lstrip": false,
      "rstrip": false,
      "normalized": false,
      "special": true
    },
    {
      "id": 585,
      "content": "33.75",
      "single_word": false,
      "lstrip": false,
      "rstrip": false,
      "normalized": false,
      "special": true
    },
    {
      "id": 586,
      "content": "34.25",
      "single_word": false,
      "lstrip": false,
      "rstrip": false,
      "normalized": false,
      "special": true
    },
    {
      "id": 587,
      "content": "34.75",
      "single_word": false,
      "lstrip": false,
      "rstrip": false,
      "normalized": false,
      "special": true
    },
    {
      "id": 588,
      "content": "35.25",
      "single_word": false,
      "lstrip": false,
      "rstrip": false,
      "normalized": false,
      "special": true
    },
    {
      "id": 589,
      "content": "35.75",
      "single_word": false,
      "lstrip": false,
      "rstrip": false,
      "normalized": false,
      "special": true
    },
    {
      "id": 590,
      "content": "36.25",
      "single_word": false,
      "lstrip": false,
      "rstrip": false,
      "normalized": false,
      "special": true
    },
    {
      "id": 591,
      "content": "36.75",
      "single_word": false,
      "lstrip": false,
      "rstrip": false,
      "normalized": false,
      "special": true
    },
    {
      "id": 592,
      "content": "37.25",
      "single_word": false,
      "lstrip": false,
      "rstrip": false,
      "normalized": false,
      "special": true
    },
    {
      "id": 593,
      "content": "37.75",
      "single_word": false,
      "lstrip": false,
      "rstrip": false,
      "normalized": false,
      "special": true
    },
    {
      "id": 594,
      "content": "38.25",
      "single_word": false,
      "lstrip": false,
      "rstrip": false,
      "normalized": false,
      "special": true
    },
    {
      "id": 595,
      "content": "38.75",
      "single_word": false,
      "lstrip": false,
      "rstrip": false,
      "normalized": false,
      "special": true
    },
    {
      "id": 596,
      "content": "39.25",
      "single_word": false,
      "lstrip": false,
      "rstrip": false,
      "normalized": false,
      "special": true
    },
    {
      "id": 597,
      "content": "39.75",
      "single_word": false,
      "lstrip": false,
      "rstrip": false,
      "normalized": false,
      "special": true
    },
    {
      "id": 598,
      "content": "40.25",
      "single_word": false,
      "lstrip": false,
      "rstrip": false,
      "normalized": false,
      "special": true
    },
    {
      "id": 599,
      "content": "40.75",
      "single_word": false,
      "lstrip": false,
      "rstrip": false,
      "normalized": false,
      "special": true
    },
    {
      "id": 600,
      "content": "41.25",
      "single_word": false,
      "lstrip": false,
      "rstrip": false,
      "normalized": false,
      "special": true
    },
    {
      "id": 601,
      "content": "41.75",
      "single_word": false,
      "lstrip": false,
      "rstrip": false,
      "normalized": false,
      "special": true
    },
    {
      "id": 602,
      "content": "42.25",
      "single_word": false,
      "lstrip": false,
      "rstrip": false,
      "normalized": false,
      "special": true
    },
    {
      "id": 603,
      "content": "42.75",
      "single_word": false,
      "lstrip": false,
      "rstrip": false,
      "normalized": false,
      "special": true
    },
    {
      "id": 604,
      "content": "43.25",
      "single_word": false,
      "lstrip": false,
      "rstrip": false,
      "normalized": false,
      "special": true
    },
    {
      "id": 605,
      "content": "43.75",
      "single_word": false,
      "lstrip": false,
      "rstrip": false,
      "normalized": false,
      "special": true
    },
    {
      "id": 606,
      "content": "44.25",
      "single_word": false,
      "lstrip": false,
      "rstrip": false,
      "normalized": false,
      "special": true
    },
    {
      "id": 607,
      "content": "44.75",
      "single_word": false,
      "lstrip": false,
      "rstrip": false,
      "normalized": false,
      "special": true
    },
    {
      "id": 608,
      "content": "45.25",
      "single_word": false,
      "lstrip": false,
      "rstrip": false,
      "normalized": false,
      "special": true
    },
    {
      "id": 609,
      "content": "45.75",
      "single_word": false,
      "lstrip": false,
      "rstrip": false,
      "normalized": false,
      "special": true
    },
    {
      "id": 610,
      "content": "46.25",
      "single_word": false,
      "lstrip": false,
      "rstrip": false,
      "normalized": false,
      "special": true
    },
    {
      "id": 611,
      "content": "46.75",
      "single_word": false,
      "lstrip": false,
      "rstrip": false,
      "normalized": false,
      "special": true
    },
    {
      "id": 612,
      "content": "47.25",
      "single_word": false,
      "lstrip": false,
      "rstrip": false,
      "normalized": false,
      "special": true
    },
    {
      "id": 613,
      "content": "47.75",
      "single_word": false,
      "lstrip": false,
      "rstrip": false,
      "normalized": false,
      "special": true
    },
    {
      "id": 614,
      "content": "48.25",
      "single_word": false,
      "lstrip": false,
      "rstrip": false,
      "normalized": false,
      "special": true
    },
    {
      "id": 615,
      "content": "48.75",
      "single_word": false,
      "lstrip": false,
      "rstrip": false,
      "normalized": false,
      "special": true
    },
    {
      "id": 616,
      "content": "49.25",
      "single_word": false,
      "lstrip": false,
      "rstrip": false,
      "normalized": false,
      "special": true
    },
    {
      "id": 617,
      "content": "49.75",
      "single_word": false,
      "lstrip": false,
      "rstrip": false,
      "normalized": false,
      "special": true
    },
    {
      "id": 618,
      "content": "50.25",
      "single_word": false,
      "lstrip": false,
      "rstrip": false,
      "normalized": false,
      "special": true
    },
    {
      "id": 619,
      "content": "50.75",
      "single_word": false,
      "lstrip": false,
      "rstrip": false,
      "normalized": false,
      "special": true
    },
    {
      "id": 620,
      "content": "deg/s",
      "single_word": false,
      "lstrip": false,
      "rstrip": false,
      "normalized": false,
      "special": true
    },
    {
      "id": 621,
      "content": "m/s^2",
      "single_word": false,
      "lstrip": false,
      "rstrip": false,
      "normalized": false,
      "special": true
    },
    {
      "id": 622,
      "content": "meter",
      "single_word": false,
      "lstrip": false,
      "rstrip": false,
      "normalized": false,
      "special": true
    },
    {
      "id": 623,
      "content": "rad/s",
      "single_word": false,
      "lstrip": false,
      "rstrip": false,
      "normalized": false,
      "special": true
    },
    {
      "id": 624,
      "content": "cm/s^2",
      "single_word": false,
      "lstrip": false,
      "rstrip": false,
      "normalized": false,
      "special": true
    },
    {
      "id": 625,
      "content": "degree",
      "single_word": false,
      "lstrip": false,
      "rstrip": false,
      "normalized": false,
      "special": true
    },
    {
      "id": 626,
      "content": "mm/s^2",
      "single_word": false,
      "lstrip": false,
      "rstrip": false,
      "normalized": false,
      "special": true
    },
    {
      "id": 627,
      "content": "radian",
      "single_word": false,
      "lstrip": false,
      "rstrip": false,
      "normalized": false,
      "special": true
    },
    {
      "id": 628,
      "content": "deg/s^2",
      "single_word": false,
      "lstrip": false,
      "rstrip": false,
      "normalized": false,
      "special": true
    },
    {
      "id": 629,
      "content": "percent",
      "single_word": false,
      "lstrip": false,
      "rstrip": false,
      "normalized": false,
      "special": true
    },
    {
      "id": 630,
      "content": "rad/s^2",
      "single_word": false,
      "lstrip": false,
      "rstrip": false,
      "normalized": false,
      "special": true
    },
    {
      "id": 631,
      "content": "kilometer",
      "single_word": false,
      "lstrip": false,
      "rstrip": false,
      "normalized": false,
      "special": true
    },
    {
      "id": 632,
      "content": "centimeter",
      "single_word": false,
      "lstrip": false,
      "rstrip": false,
      "normalized": false,
      "special": true
    },
    {
      "id": 633,
      "content": "millimeter",
      "single_word": false,
      "lstrip": false,
      "rstrip": false,
      "normalized": false,
      "special": true
    }
  ],
  "normalizer": {
    "type": "Sequence",
    "normalizers": [
      {
        "type": "Lowercase"
      },
      {
        "type": "Replace",
        "pattern": {
          "String": "[^\\x00-\\x7F]+"
        },
        "content": ""
      }
    ]
  },
  "pre_tokenizer": {
    "type": "ByteLevel",
    "add_prefix_space": true,
    "trim_offsets": true,
    "use_regex": true
  },
  "post_processor": {
    "type": "TemplateProcessing",
    "single": [
      {
        "SpecialToken": {
          "id": "<s>",
          "type_id": 0
        }
      },
      {
        "Sequence": {
          "id": "A",
          "type_id": 0
        }
      },
      {
        "SpecialToken": {
          "id": "</s>",
          "type_id": 0
        }
      }
    ],
    "pair": [
      {
        "SpecialToken": {
          "id": "<s>",
          "type_id": 0
        }
      },
      {
        "Sequence": {
          "id": "A",
          "type_id": 0
        }
      },
      {
        "SpecialToken": {
          "id": "</s>",
          "type_id": 0
        }
      },
      {
        "SpecialToken": {
          "id": "<sep>",
          "type_id": 0
        }
      },
      {
        "Sequence": {
          "id": "B",
          "type_id": 0
        }
      },
      {
        "SpecialToken": {
          "id": "</s>",
          "type_id": 0
        }
      }
    ],
    "special_tokens": {
      "</s>": {
        "id": "</s>",
        "ids": [
          0
        ],
        "tokens": [
          "</s>"
        ]
      },
      "<s>": {
        "id": "<s>",
        "ids": [
          0
        ],
        "tokens": [
          "<s>"
        ]
      },
      "<sep>": {
        "id": "<sep>",
        "ids": [
          0
        ],
        "tokens": [
          "<sep>"
        ]
      }
    }
  },
  "decoder": {
    "type": "ByteLevel",
    "add_prefix_space": true,
    "trim_offsets": true,
    "use_regex": true
  },
  "model": {
    "type": "BPE",
    "dropout": null,
    "unk_token": "<unk>",
    "continuing_subword_prefix": "▁",
    "end_of_word_suffix": null,
    "fuse_unk": false,
    "byte_fallback": false,
    "vocab": {
      "<pad>": 0,
      "<unk>": 1,
      "<s>": 2,
      "</s>": 3,
      "<sep>": 4,
      "{": 5,
      "}": 6,
      "[": 7,
      "]": 8,
      ":": 9,
      ",": 10,
      ", ": 11,
      ": ": 12,
      "]}": 13,
      "commandLanguage": 14,
      "errors": 15,
      "commands": 16,
      "parameters": 17,
      "name": 18,
      "description": 19,
      "distance": 20,
      "acceleration": 21,
      "angle": 22,
      "direction": 23,
      "INVALID_COMMAND": 24,
      "MISSING_PARAMETER": 25,
      "INVALID_PARAMETER_TYPE": 26,
      "OUT_OF_RANGE": 27,
      "SYNTAX_ERROR": 28,
      "UNSUPPORTED_UNIT": 29,
      "%": 30,
      "0": 31,
      "1": 32,
      "2": 33,
      "3": 34,
      "4": 35,
      "5": 36,
      "6": 37,
      "7": 38,
      "8": 39,
      "9": 40,
      "m": 41,
      "-1": 42,
      "-2": 43,
      "-3": 44,
      "-4": 45,
      "-5": 46,
      "-6": 47,
      "-7": 48,
      "-8": 49,
      "-9": 50,
      "10": 51,
      "11": 52,
      "12": 53,
      "13": 54,
      "14": 55,
      "15": 56,
      "16": 57,
      "17": 58,
      "18": 59,
      "19": 60,
      "20": 61,
      "21": 62,
      "22": 63,
      "23": 64,
      "24": 65,
      "25": 66,
      "26": 67,
      "27": 68,
      "28": 69,
      "29": 70,
      "30": 71,
      "31": 72,
      "32": 73,
      "33": 74,
      "34": 75,
      "35": 76,
      "36": 77,
      "37": 78,
      "38": 79,
      "39": 80,
      "40": 81,
      "41": 82,
      "42": 83,
      "43": 84,
      "44": 85,
      "45": 86,
      "46": 87,
      "47": 88,
      "48": 89,
      "49": 90,
      "50": 91,
      "51": 92,
      "52": 93,
      "53": 94,
      "54": 95,
      "55": 96,
      "56": 97,
      "57": 98,
      "58": 99,
      "59": 100,
      "60": 101,
      "61": 102,
      "62": 103,
      "63": 104,
      "64": 105,
      "65": 106,
      "66": 107,
      "67": 108,
      "68": 109,
      "69": 110,
      "70": 111,
      "71": 112,
      "72": 113,
      "73": 114,
      "74": 115,
      "75": 116,
      "76": 117,
      "77": 118,
      "78": 119,
      "79": 120,
      "80": 121,
      "81": 122,
      "82": 123,
      "83": 124,
      "84": 125,
      "85": 126,
      "86": 127,
      "87": 128,
      "88": 129,
      "89": 130,
      "90": 131,
      "91": 132,
      "92": 133,
      "93": 134,
      "94": 135,
      "95": 136,
      "96": 137,
      "97": 138,
      "98": 139,
      "99": 140,
      "cm": 141,
      "ft": 142,
      "in": 143,
      "km": 144,
      "mm": 145,
      "-10": 146,
      "-11": 147,
      "-12": 148,
      "-13": 149,
      "-14": 150,
      "-15": 151,
      "-16": 152,
      "-17": 153,
      "-18": 154,
      "-19": 155,
      "-20": 156,
      "-21": 157,
      "-22": 158,
      "-23": 159,
      "-24": 160,
      "-25": 161,
      "-26": 162,
      "-27": 163,
      "-28": 164,
      "-29": 165,
      "-30": 166,
      "-31": 167,
      "-32": 168,
      "-33": 169,
      "-34": 170,
      "-35": 171,
      "-36": 172,
      "-37": 173,
      "-38": 174,
      "-39": 175,
      "-40": 176,
      "-41": 177,
      "-42": 178,
      "-43": 179,
      "-44": 180,
      "-45": 181,
      "-46": 182,
      "-47": 183,
      "-48": 184,
      "-49": 185,
      "-50": 186,
      "0.5": 187,
      "1.5": 188,
      "100": 189,
      "101": 190,
      "102": 191,
      "103": 192,
      "104": 193,
      "105": 194,
      "106": 195,
      "107": 196,
      "108": 197,
      "109": 198,
      "110": 199,
      "111": 200,
      "112": 201,
      "113": 202,
      "114": 203,
      "115": 204,
      "116": 205,
      "117": 206,
      "118": 207,
      "119": 208,
      "120": 209,
      "121": 210,
      "122": 211,
      "123": 212,
      "124": 213,
      "125": 214,
      "126": 215,
      "127": 216,
      "128": 217,
      "129": 218,
      "130": 219,
      "131": 220,
      "132": 221,
      "133": 222,
      "134": 223,
      "135": 224,
      "136": 225,
      "137": 226,
      "138": 227,
      "139": 228,
      "140": 229,
      "141": 230,
      "142": 231,
      "143": 232,
      "144": 233,
      "145": 234,
      "146": 235,
      "147": 236,
      "148": 237,
      "149": 238,
      "150": 239,
      "151": 240,
      "152": 241,
      "153": 242,
      "154": 243,
      "155": 244,
      "156": 245,
      "157": 246,
      "158": 247,
      "159": 248,
      "160": 249,
      "161": 250,
      "162": 251,
      "163": 252,
      "164": 253,
      "165": 254,
      "166": 255,
      "167": 256,
      "168": 257,
      "169": 258,
      "170": 259,
      "171": 260,
      "172": 261,
      "173": 262,
      "174": 263,
      "175": 264,
      "176": 265,
      "177": 266,
      "178": 267,
      "179": 268,
      "180": 269,
      "181": 270,
      "182": 271,
      "183": 272,
      "184": 273,
      "185": 274,
      "186": 275,
      "187": 276,
      "188": 277,
      "189": 278,
      "190": 279,
      "191": 280,
      "192": 281,
      "193": 282,
      "194": 283,
      "195": 284,
      "196": 285,
      "197": 286,
      "198": 287,
      "199": 288,
      "2.5": 289,
      "200": 290,
      "201": 291,
      "202": 292,
      "203": 293,
      "204": 294,
      "205": 295,
      "206": 296,
      "207": 297,
      "208": 298,
      "209": 299,
      "210": 300,
      "211": 301,
      "212": 302,
      "213": 303,
      "214": 304,
      "215": 305,
      "216": 306,
      "217": 307,
      "218": 308,
      "219": 309,
      "220": 310,
      "221": 311,
      "222": 312,
      "223": 313,
      "224": 314,
      "225": 315,
      "226": 316,
      "227": 317,
      "228": 318,
      "229": 319,
      "230": 320,
      "231": 321,
      "232": 322,
      "233": 323,
      "234": 324,
      "235": 325,
      "236": 326,
      "237": 327,
      "238": 328,
      "239": 329,
      "240": 330,
      "241": 331,
      "242": 332,
      "243": 333,
      "244": 334,
      "245": 335,
      "246": 336,
      "247": 337,
      "248": 338,
      "249": 339,
      "250": 340,
      "251": 341,
      "252": 342,
      "253": 343,
      "254": 344,
      "255": 345,
      "256": 346,
      "257": 347,
      "258": 348,
      "259": 349,
      "260": 350,
      "261": 351,
      "262": 352,
      "263": 353,
      "264": 354,
      "265": 355,
      "266": 356,
      "267": 357,
      "268": 358,
      "269": 359,
      "270": 360,
      "271": 361,
      "272": 362,
      "273": 363,
      "274": 364,
      "275": 365,
      "276": 366,
      "277": 367,
      "278": 368,
      "279": 369,
      "280": 370,
      "281": 371,
      "282": 372,
      "283": 373,
      "284": 374,
      "285": 375,
      "286": 376,
      "287": 377,
      "288": 378,
      "289": 379,
      "290": 380,
      "291": 381,
      "292": 382,
      "293": 383,
      "294": 384,
      "295": 385,
      "296": 386,
      "297": 387,
      "298": 388,
      "299": 389,
      "3.5": 390,
      "300": 391,
      "301": 392,
      "302": 393,
      "303": 394,
      "304": 395,
      "305": 396,
      "306": 397,
      "307": 398,
      "308": 399,
      "309": 400,
      "310": 401,
      "311": 402,
      "312": 403,
      "313": 404,
      "314": 405,
      "315": 406,
      "316": 407,
      "317": 408,
      "318": 409,
      "319": 410,
      "320": 411,
      "321": 412,
      "322": 413,
      "323": 414,
      "324": 415,
      "325": 416,
      "326": 417,
      "327": 418,
      "328": 419,
      "329": 420,
      "330": 421,
      "331": 422,
      "332": 423,
      "333": 424,
      "334": 425,
      "335": 426,
      "336": 427,
      "337": 428,
      "338": 429,
      "339": 430,
      "340": 431,
      "341": 432,
      "342": 433,
      "343": 434,
      "344": 435,
      "345": 436,
      "346": 437,
      "347": 438,
      "348": 439,
      "349": 440,
      "350": 441,
      "351": 442,
      "352": 443,
      "353": 444,
      "354": 445,
      "355": 446,
      "356": 447,
      "357": 448,
      "358": 449,
      "359": 450,
      "360": 451,
      "4.5": 452,
      "400": 453,
      "5.5": 454,
      "500": 455,
      "6.5": 456,
      "600": 457,
      "7.5": 458,
      "700": 459,
      "8.5": 460,
      "800": 461,
      "9.5": 462,
      "900": 463,
      "deg": 464,
      "m/s": 465,
      "rad": 466,
      "0.25": 467,
      "0.75": 468,
      "1.25": 469,
      "1.75": 470,
      "10.5": 471,
      "1000": 472,
      "11.5": 473,
      "12.5": 474,
      "13.5": 475,
      "14.5": 476,
      "15.5": 477,
      "16.5": 478,
      "17.5": 479,
      "18.5": 480,
      "19.5": 481,
      "2.25": 482,
      "2.75": 483,
      "20.5": 484,
      "21.5": 485,
      "22.5": 486,
      "23.5": 487,
      "24.5": 488,
      "25.5": 489,
      "26.5": 490,
      "27.5": 491,
      "28.5": 492,
      "29.5": 493,
      "3.25": 494,
      "3.75": 495,
      "30.5": 496,
      "31.5": 497,
      "32.5": 498,
      "33.5": 499,
      "34.5": 500,
      "35.5": 501,
      "36.5": 502,
      "37.5": 503,
      "38.5": 504,
      "39.5": 505,
      "4.25": 506,
      "4.75": 507,
      "40.5": 508,
      "41.5": 509,
      "42.5": 510,
      "43.5": 511,
      "44.5": 512,
      "45.5": 513,
      "46.5": 514,
      "47.5": 515,
      "48.5": 516,
      "49.5": 517,
      "5.25": 518,
      "5.75": 519,
      "50.5": 520,
      "6.25": 521,
      "6.75": 522,
      "7.25": 523,
      "7.75": 524,
      "8.25": 525,
      "8.75": 526,
      "9.25": 527,
      "9.75": 528,
      "cm/s": 529,
      "feet": 530,
      "foot": 531,
      "ft/s": 532,
      "grad": 533,
      "in/s": 534,
      "inch": 535,
      "km/h": 536,
      "mm/s": 537,
      "10.25": 538,
      "10.75": 539,
      "11.25": 540,
      "11.75": 541,
      "12.25": 542,
      "12.75": 543,
      "13.25": 544,
      "13.75": 545,
      "14.25": 546,
      "14.75": 547,
      "15.25": 548,
      "15.75": 549,
      "16.25": 550,
      "16.75": 551,
      "17.25": 552,
      "17.75": 553,
      "18.25": 554,
      "18.75": 555,
      "19.25": 556,
      "19.75": 557,
      "20.25": 558,
      "20.75": 559,
      "21.25": 560,
      "21.75": 561,
      "22.25": 562,
      "22.75": 563,
      "23.25": 564,
      "23.75": 565,
      "24.25": 566,
      "24.75": 567,
      "25.25": 568,
      "25.75": 569,
      "26.25": 570,
      "26.75": 571,
      "27.25": 572,
      "27.75": 573,
      "28.25": 574,
      "28.75": 575,
      "29.25": 576,
      "29.75": 577,
      "30.25": 578,
      "30.75": 579,
      "31.25": 580,
      "31.75": 581,
      "32.25": 582,
      "32.75": 583,
      "33.25": 584,
      "33.75": 585,
      "34.25": 586,
      "34.75": 587,
      "35.25": 588,
      "35.75": 589,
      "36.25": 590,
      "36.75": 591,
      "37.25": 592,
      "37.75": 593,
      "38.25": 594,
      "38.75": 595,
      "39.25": 596,
      "39.75": 597,
      "40.25": 598,
      "40.75": 599,
      "41.25": 600,
      "41.75": 601,
      "42.25": 602,
      "42.75": 603,
      "43.25": 604,
      "43.75": 605,
      "44.25": 606,
      "44.75": 607,
      "45.25": 608,
      "45.75": 609,
      "46.25": 610,
      "46.75": 611,
      "47.25": 612,
      "47.75": 613,
      "48.25": 614,
      "48.75": 615,
      "49.25": 616,
      "49.75": 617,
      "50.25": 618,
      "50.75": 619,
      "deg/s": 620,
      "m/s^2": 621,
      "meter": 622,
      "rad/s": 623,
      "cm/s^2": 624,
      "degree": 625,
      "mm/s^2": 626,
      "radian": 627,
      "deg/s^2": 628,
      "percent": 629,
      "rad/s^2": 630,
      "kilometer": 631,
      "centimeter": 632,
      "millimeter": 633,
      "\"": 634,
      "-": 635,
      ".": 636,
      "/": 637,
      "^": 638,
      "a": 639,
      "b": 640,
      "c": 641,
      "d": 642,
      "e": 643,
      "f": 644,
      "g": 645,
      "h": 646,
      "i": 647,
      "j": 648,
      "k": 649,
      "l": 650,
      "n": 651,
      "o": 652,
      "p": 653,
      "q": 654,
      "r": 655,
      "s": 656,
      "t": 657,
      "u": 658,
      "v": 659,
      "w": 660,
      "x": 661,
      "y": 662,
      "z": 663,
      "Ġ": 664,
      "▁r": 665,
      "▁e": 666,
      "▁a": 667,
      "▁l": 668,
      "▁y": 669,
      "▁i": 670,
      "▁n": 671,
      "▁v": 672,
      "▁s": 673,
      "▁o": 674,
      "▁m": 675,
      "▁t": 676,
      "▁9": 677,
      "▁3": 678,
      "▁2": 679,
      "▁5": 680,
      "▁0": 681,
      "▁1": 682,
      "▁8": 683,
      "▁4": 684,
      "▁7": 685,
      "▁6": 686,
      "▁w": 687,
      "▁d": 688,
      "▁b": 689,
      "▁k": 690,
      "▁c": 691,
      "▁g": 692,
      "▁u": 693,
      "▁h": 694,
      "▁f": 695,
      "▁x": 696,
      "▁p": 697,
      "▁q": 698,
      "▁z": 699,
      "▁j": 700,
      "▁,": 701,
      "▁{": 702,
      "▁\"": 703,
      "▁:": 704,
      "▁%": 705,
      "▁}": 706,
      "▁-": 707,
      "Ġc": 708,
      "Ġs": 709,
      "Ġcm": 710,
      "▁le": 711,
      "Ġr": 712,
      "\":": 713,
      "Ġa": 714,
      "▁ly": 715,
      "▁ar": 716,
      "▁te": 717,
      "Ġ\"": 718,
      "▁an": 719,
      "▁ce": 720,
      "▁ft": 721,
      "Ġp": 722,
      "▁ad": 723,
      "Ġ1": 724,
      "Ġ{": 725,
      "Ġt": 726,
      "Ġ{\"": 727,
      "Ġm": 728,
      "Ġ2": 729,
      "Ġ4": 730,
      "Ġ3": 731,
      "▁ck": 732,
      "▁on": 733,
      "▁ve": 734,
      "▁se": 735,
      "Ġst": 736,
      "▁ig": 737,
      "▁igh": 738,
      "▁ight": 739,
      "▁he": 740,
      "▁or": 741,
      "▁in": 742,
      "▁me": 743,
      "▁qu": 744,
      "▁ra": 745,
      "Ġqu": 746,
      "▁ick": 747,
      "Ġquick": 748,
      "Ġquickly": 749,
      "Ġle": 750,
      "Ġmo": 751,
      "Ġleft": 752,
      "Ġmove": 753,
      "▁ase": 754,
      "Ġright": 755,
      "▁is": 756,
      "▁ard": 757,
      "▁om": 758,
      "▁rs": 759,
      "\",": 760,
      "▁and": 761,
      "▁ame": 762,
      "▁ters": 763,
      "▁omm": 764,
      "▁ommand": 765,
      "▁arame": 766,
      "▁arameters": 767,
      "command": 768,
      "▁ance": 769,
      "Ġf": 770,
      "Ġple": 771,
      "Ġplease": 772,
      "▁ift": 773,
      "▁ti": 774,
      "Ġre": 775,
      "▁tion": 776,
      "Ġste": 777,
      "Ġthe": 778,
      "Ġb": 779,
      "▁de": 780,
      "Ġrad": 781,
      "Ġto": 782,
      "Ġstead": 783,
      "▁raf": 784,
      "Ġ5": 785,
      "▁ro": 786,
      "Ġ6": 787,
      "Ġ9": 788,
      "Ġ8": 789,
      "Ġ7": 790,
      "▁er": 791,
      "▁ist": 792,
      "Ġstraf": 793,
      "Ġfor": 794,
      "▁re": 795,
      "▁istance": 796,
      "Ġin": 797,
      "Ġcon": 798,
      "▁ily": 799,
      "▁al": 800,
      "Ġsteadily": 801,
      "}}": 802,
      "▁nt": 803,
      "▁ward": 804,
      "Ġsl": 805,
      "▁op": 806,
      "▁ner": 807,
      "Ġman": 808,
      "Ġmanner": 809,
      "Ġat": 810,
      "Ġ0": 811,
      "Ġsw": 812,
      "▁ate": 813,
      "▁ef": 814,
      "Ġswift": 815,
      "▁ot": 816,
      "▁ack": 817,
      "Ġsh": 818,
      "▁ng": 819,
      "Ġshift": 820,
      "▁ide": 821,
      "▁head": 822,
      "▁ed": 823,
      "Ġstrafe": 824,
      "Ġslide": 825,
      "Ġg": 826,
      "Ġpro": 827,
      "Ġproce": 828,
      "Ġproceed": 829,
      "▁ort": 830,
      "Ġgo": 831,
      "▁ngle": 832,
      "▁bo": 833,
      "▁board": 834,
      "▁arboard": 835,
      "Ġpa": 836,
      "00": 837,
      "Ġpace": 838,
      "▁ration": 839,
      "Ġstop": 840,
      "▁cce": 841,
      "▁leration": 842,
      "▁cceleration": 843,
      "Ġcons": 844,
      "▁iste": 845,
      "▁otate": 846,
      "Ġconsiste": 847,
      "Ġconsistent": 848,
      "Ġport": 849,
      "Ġstarboard": 850,
      "Ġw": 851,
      "▁it": 852,
      "▁}}": 853,
      "▁ction": 854,
      "▁ire": 855,
      "▁irection": 856,
      "▁ith": 857,
      "Ġwith": 858,
      "▁at": 859,
      "Ġahead": 860,
      "Ġback": 861,
      "▁ul": 862,
      "▁ing": 863,
      "▁ver": 864,
      "▁reat": 865,
      "Ġret": 866,
      "Ġretreat": 867,
      "Ġad": 868,
      "▁verse": 869,
      "Ġreverse": 870,
      "Ġadv": 871,
      "Ġrece": 872,
      "Ġadvance": 873,
      "Ġrecede": 874,
      "▁ri": 875,
      "▁st": 876,
      "▁lle": 877,
      "Ġcont": 878,
      "Ġcal": 879,
      "Ġcontro": 880,
      "▁lled": 881,
      "Ġcalm": 882,
      "Ġcalmly": 883,
      "Ġcontrolled": 884,
      "Ġbri": 885,
      "Ġbrief": 886,
      "Ġbriefly": 887,
      "Ġby": 888,
      "st": 889,
      "Ġangle": 890,
      "Ġfa": 891,
      "Ġcar": 892,
      "Ġfast": 893,
      "▁ully": 894,
      "▁efully": 895,
      "Ġcarefully": 896,
      "▁ur": 897,
      "Ġswiftly": 898,
      "Ġstrafing": 899,
      "Ġsp": 900,
      "▁urn": 901,
      "Ġspin": 902,
      "le": 903,
      "left": 904,
      "right": 905,
      "Ġturn": 906,
      "Ġrotate": 907,
      "Ġh": 908,
      "▁29": 909,
      "▁19": 910,
      "▁78": 911,
      "▁58": 912,
      "▁26": 913,
      "▁34": 914,
      "▁79": 915,
      "▁74": 916,
      "▁ment": 917,
      "▁59": 918,
      "▁18": 919,
      "▁56": 920,
      "▁14": 921,
      "▁39": 922,
      "▁38": 923,
      "▁50": 924,
      "▁36": 925,
      "▁70": 926,
      "▁16": 927,
      "▁28": 928,
      "Ġacceleration": 929,
      "▁10": 930,
      "▁20": 931,
      "▁24": 932,
      "▁30": 933,
      "▁54": 934,
      "▁76": 935,
      "\"}}": 936,
      "▁alt": 937,
      "Ġce": 938,
      "Ġhalt": 939,
      "Ġmovement": 940,
      "Ġcease": 941,
      "Ġ14": 942,
      "Ġ46": 943,
      "Ġ16": 944,
      "Ġ28": 945,
      "Ġ19": 946,
      "Ġ39": 947,
      "Ġ26": 948,
      "Ġ49": 949,
      "Ġ44": 950,
      "Ġ18": 951,
      "Ġ40": 952,
      "Ġ30": 953,
      "Ġ24": 954,
      "Ġ10": 955,
      "Ġ36": 956,
      "Ġ20": 957,
      "Ġ29": 958,
      "Ġ38": 959,
      "Ġ34": 960,
      "Ġ48": 961,
      "Ġl": 962,
      "Ġforward": 963,
      "▁25": 964,
      "Ġbackward": 965,
      "▁27": 966,
      "for": 967,
      "forward": 968,
      "▁13": 969,
      "▁23": 970,
      "▁17": 971,
      "rotate": 972,
      "Ġ{}}": 973,
      "stop": 974,
      "▁15": 975,
      "back": 976,
      "Ġd": 977,
      "Ġo": 978,
      "▁ow": 979,
      "▁53": 980,
      "Ġca": 981,
      "▁57": 982,
      "Ġtoward": 983,
      "▁ution": 984,
      "Ġsteady": 985,
      "▁arg": 986,
      "Ġof": 987,
      "Ġcaution": 988,
      "Ġslow": 989,
      "Ġslowly": 990,
      "Ġhead": 991,
      "▁all": 992,
      "▁37": 993,
      "Ġlarg": 994,
      "Ġlarger": 995,
      "Ġstep": 996,
      "▁11": 997,
      "Ġsm": 998,
      "▁22": 999,
      "Ġsmall": 1000,
      "▁77": 1001,
      "▁33": 1002,
      "▁55": 1003,
      "Ġdirection": 1004,
      "Ġrate": 1005,
      "▁21": 1006,
      "▁35": 1007,
      "▁iv": 1008,
      "▁12": 1009,
      "▁75": 1010,
      "Ġpiv": 1011,
      "Ġpivot": 1012,
      "▁73": 1013,
      "▁44": 1014,
      "▁66": 1015,
      "▁99": 1016,
      "▁88": 1017,
      "▁51": 1018,
      "▁52": 1019,
      "▁71": 1020,
      "▁72": 1021,
      "▁32": 1022,
      "▁31": 1023,
      "▁90": 1024,
      "▁80": 1025,
      "▁40": 1026,
      "▁60": 1027,
      "Ġ-": 1028,
      "▁48": 1029,
      "▁49": 1030,
      "▁46": 1031,
      "▁rafe": 1032,
      "strafe": 1033,
      "Ġ70": 1034,
      "Ġ90": 1035,
      "Ġ60": 1036,
      "Ġ50": 1037,
      "Ġ80": 1038,
      "▁86": 1039,
      "▁89": 1040,
      "▁69": 1041,
      "Ġde": 1042,
      "Ġ69": 1043,
      "Ġ99": 1044,
      "Ġ89": 1045,
      "Ġ59": 1046,
      "Ġ79": 1047,
      "Ġ56": 1048,
      "Ġ66": 1049,
      "Ġ96": 1050,
      "▁84": 1051,
      "Ġ86": 1052,
      "Ġ76": 1053,
      "Ġ58": 1054,
      "Ġ78": 1055,
      "Ġ88": 1056,
      "Ġ68": 1057,
      "Ġ98": 1058,
      "Ġ94": 1059,
      "Ġ54": 1060,
      "Ġ74": 1061,
      "Ġ84": 1062,
      "Ġ64": 1063,
      "▁ular": 1064,
      "Ġe": 1065,
      "Ġang": 1066,
      "Ġdeg": 1067,
      "Ġangular": 1068,
      "Ġ37": 1069,
      "Ġ17": 1070,
      "Ġ27": 1071,
      "Ġ43": 1072,
      "Ġ33": 1073,
      "Ġ23": 1074,
      "Ġ13": 1075,
      "Ġ47": 1076,
      "Ġ11": 1077,
      "Ġ25": 1078,
      "starboard": 1079,
      "Ġ35": 1080,
      "port": 1081,
      "Ġ15": 1082,
      "Ġ42": 1083,
      "Ġ31": 1084,
      "Ġ45": 1085,
      "Ġ41": 1086,
      "Ġ32": 1087,
      "Ġ21": 1088,
      "Ġ22": 1089,
      "▁64": 1090,
      "Ġ12": 1091,
      "▁68": 1092,
      "▁00": 1093,
      "Ġ87": 1094,
      "Ġ57": 1095,
      "▁98": 1096,
      "▁96": 1097,
      "Ġ93": 1098,
      "Ġ53": 1099,
      "Ġ65": 1100,
      "Ġ77": 1101,
      "▁es": 1102,
      "Ġ67": 1103,
      "Ġ97": 1104,
      "Ġ63": 1105,
      "▁94": 1106,
      "Ġ55": 1107,
      "Ġ83": 1108,
      "Ġ73": 1109,
      "Ġ85": 1110,
      "Ġ75": 1111,
      "Ġ95": 1112,
      "Ġ91": 1113,
      "Ġ52": 1114,
      "Ġ61": 1115,
      "Ġ51": 1116,
      "Ġ82": 1117,
      "Ġ92": 1118,
      "Ġ71": 1119,
      "Ġ62": 1120,
      "Ġ81": 1121,
      "Ġ72": 1122,
      "▁ic": 1123,
      "▁04": 1124,
      "▁09": 1125,
      "▁en": 1126,
      "▁06": 1127,
      "▁08": 1128,
      "Ġn": 1129,
      "▁ation": 1130,
      "▁ol": 1131,
      "▁42": 1132,
      "▁41": 1133,
      "▁il": 1134,
      "▁43": 1135,
      "▁45": 1136,
      "▁47": 1137,
      "▁un": 1138,
      "▁87": 1139,
      "▁83": 1140,
      "▁82": 1141,
      "▁81": 1142,
      "Ġ478": 1143,
      "▁61": 1144,
      "▁85": 1145,
      "▁62": 1146,
      "▁63": 1147,
      "▁65": 1148,
      "▁67": 1149,
      "▁97": 1150,
      "▁91": 1151,
      "Ġ158": 1152,
      "▁95": 1153,
      "▁92": 1154,
      "Ġ138": 1155,
      "Ġ258": 1156,
      "▁93": 1157,
      "▁05": 1158,
      "Ġ474": 1159,
      "Ġ420": 1160,
      "Ġ314": 1161,
      "Ġ129": 1162,
      "▁02": 1163,
      "Ġ234": 1164,
      "Ġ216": 1165,
      "▁01": 1166,
      "Ġ229": 1167,
      "Ġ270": 1168,
      "Ġ259": 1169,
      "▁03": 1170,
      "Ġ178": 1171,
      "Ġ329": 1172,
      "Ġ126": 1173,
      "Ġ139": 1174,
      "Ġ236": 1175,
      "▁07": 1176,
      "Ġ279": 1177,
      "Ġ250": 1178,
      "Ġ479": 1179,
      "Ġ359": 1180,
      "Ġ110": 1181,
      "Ġ426": 1182,
      "Ġ176": 1183,
      "Ġ319": 1184,
      "Ġ218": 1185,
      "Ġ174": 1186,
      "Ġ434": 1187,
      "Ġ156": 1188,
      "Ġ374": 1189,
      "Ġ316": 1190,
      "Ġ150": 1191,
      "Ġ358": 1192,
      "Ġ318": 1193,
      "Ġ330": 1194,
      "Ġ119": 1195,
      "Ġ128": 1196,
      "Ġ114": 1197,
      "Ġ254": 1198,
      "Ġ356": 1199,
      "Ġ350": 1200,
      "Ġ439": 1201,
      "Ġ424": 1202,
      "Ġ419": 1203,
      "Ġ130": 1204,
      "Ġ429": 1205,
      "Ġ378": 1206,
      "Ġ274": 1207,
      "Ġ210": 1208,
      "Ġ476": 1209,
      "Ġ339": 1210,
      "Ġ320": 1211,
      "Ġ376": 1212,
      "Ġ179": 1213,
      "Ġ170": 1214,
      "Ġ219": 1215,
      "Ġ456": 1216,
      "Ġ118": 1217,
      "Ġ459": 1218,
      "Ġ470": 1219,
      "Ġ379": 1220,
      "Ġ370": 1221,
      "Ġ136": 1222,
      "Ġ228": 1223,
      "Ġ428": 1224,
      "Ġ120": 1225,
      "Ġ239": 1226,
      "Ġ436": 1227,
      "Ġ328": 1228,
      "Ġ124": 1229,
      "Ġ214": 1230,
      "Ġ326": 1231,
      "Ġ238": 1232,
      "Ġ430": 1233,
      "Ġ310": 1234,
      "Ġ226": 1235,
      "Ġ224": 1236,
      "Ġ438": 1237,
      "Ġ324": 1238,
      "Ġ334": 1239,
      "Ġ278": 1240,
      "Ġ414": 1241,
      "Ġ134": 1242,
      "Ġ458": 1243,
      "Ġ454": 1244,
      "Ġ336": 1245,
      "Ġ154": 1246,
      "Ġ230": 1247,
      "Ġ410": 1248,
      "Ġ159": 1249,
      "Ġ116": 1250,
      "Ġ256": 1251,
      "Ġ450": 1252,
      "Ġ220": 1253,
      "Ġv": 1254,
      "Ġ418": 1255,
      "Ġ276": 1256,
      "Ġ338": 1257,
      "Ġ289": 1258,
      "▁ss": 1259,
      "▁ct": 1260,
      "▁ter": 1261,
      "Ġ209": 1262,
      "Ġ354": 1263,
      "Ġ137": 1264,
      "Ġ460": 1265,
      "Ġ468": 1266,
      "Ġ160": 1267,
      "Ġ190": 1268,
      "Ġ425": 1269,
      "Ġ189": 1270,
      "Ġ253": 1271,
      "Ġ416": 1272,
      "Ġ299": 1273,
      "Ġ227": 1274,
      "Ġ148": 1275,
      "Ġ194": 1276,
      "Ġ260": 1277,
      "Ġ369": 1278,
      "Ġ125": 1279,
      "Ġ113": 1280,
      "Ġ290": 1281,
      "▁et": 1282,
      "Ġ140": 1283,
      "Ġ398": 1284,
      "▁ou": 1285,
      "Ġ277": 1286,
      "Ġ280": 1287,
      "Ġ106": 1288,
      "Ġ400": 1289,
      "Ġ304": 1290,
      "Ġ157": 1291,
      "Ġ146": 1292,
      "Ġ390": 1293,
      "Ġ180": 1294,
      "Ġ100": 1295,
      "Ġ413": 1296,
      "Ġ437": 1297,
      "Ġ268": 1298,
      "Ġ223": 1299,
      "Ġ266": 1300,
      "Ġ490": 1301,
      "Ġ440": 1302,
      "Ġ340": 1303,
      "Ġ489": 1304,
      "Ġ153": 1305,
      "Ġ357": 1306,
      "Ġ166": 1307,
      "Ġ288": 1308,
      "Ġ327": 1309,
      "Ġ196": 1310,
      "Ġ386": 1311,
      "Ġ337": 1312,
      "Ġ496": 1313,
      "Ġ423": 1314,
      "Ġ149": 1315,
      "Ġ296": 1316,
      "Ġ272": 1317,
      "Ġ313": 1318,
      "Ġ409": 1319,
      "Ġ164": 1320,
      "Ġ399": 1321,
      "Ġ269": 1322,
      "Ġ494": 1323,
      "Ġ300": 1324,
      "Ġ366": 1325,
      "Ġ217": 1326,
      "Ġ453": 1327,
      "Ġ169": 1328,
      "Ġ264": 1329,
      "Ġ186": 1330,
      "Ġ177": 1331,
      "Ġ225": 1332,
      "Ġ415": 1333,
      "Ġ464": 1334,
      "Ġ181": 1335,
      "Ġ480": 1336,
      "Ġ469": 1337,
      "Ġ498": 1338,
      "Ġj": 1339,
      "Ġ427": 1340,
      "Ġ317": 1341,
      "Ġ499": 1342,
      "Ġ306": 1343,
      "Ġ360": 1344,
      "Ġex": 1345,
      "Ġ323": 1346,
      "Ġ352": 1347,
      "Ġ168": 1348,
      "Ġ248": 1349,
      "Ġ349": 1350,
      "Ġ127": 1351,
      "Ġ333": 1352,
      "Ġ449": 1353,
      "Ġ404": 1354,
      "Ġ208": 1355,
      "Ġ380": 1356,
      "Ġ215": 1357,
      "Ġ435": 1358,
      "Ġ206": 1359,
      "Ġ298": 1360,
      "Ġ388": 1361,
      "Ġ123": 1362,
      "Ġ237": 1363,
      "Ġ455": 1364,
      "Ġ143": 1365,
      "Ġ199": 1366,
      "Ġ192": 1367,
      "Ġ406": 1368,
      "Ġ104": 1369,
      "Ġ484": 1370,
      "Ġ133": 1371,
      "Ġ477": 1372,
      "Ġ315": 1373,
      "Ġ262": 1374,
      "▁as": 1375,
      "Ġ396": 1376,
      "Ġ447": 1377,
      "Ġ446": 1378,
      "Ġ244": 1379,
      "Ġ222": 1380,
      "Ġ417": 1381,
      "Ġ433": 1382,
      "Ġ377": 1383,
      "Ġ165": 1384,
      "Ġ184": 1385,
      "Ġ408": 1386,
      "Ġ348": 1387,
      "Ġ451": 1388,
      "Ġ325": 1389,
      "Ġ353": 1390,
      "Ġ461": 1391,
      "Ġ467": 1392,
      "Ġ302": 1393,
      "Ġ307": 1394,
      "Ġ200": 1395,
      "Ġ204": 1396,
      "Ġ293": 1397,
      "Ġ385": 1398,
      "Ġ346": 1399,
      "Ġ483": 1400,
      "Ġ135": 1401,
      "Ġ145": 1402,
      "Ġ466": 1403,
      "Ġ161": 1404,
      "Ġ242": 1405,
      "Ġ240": 1406,
      "Ġ364": 1407,
      "Ġ345": 1408,
      "Ġ221": 1409,
      "Ġ117": 1410,
      "Ġ457": 1411,
      "Ġ475": 1412,
      "Ġ141": 1413,
      "Ġ249": 1414,
      "Ġ247": 1415,
      "Ġ365": 1416,
      "Ġ202": 1417,
      "Ġ171": 1418,
      "Ġ471": 1419,
      "Ġ147": 1420,
      "Ġ257": 1421,
      "Ġ284": 1422,
      "Ġ243": 1423,
      "Ġ175": 1424,
      "Ġ463": 1425,
      "Ġ391": 1426,
      "Ġ448": 1427,
      "Ġ182": 1428,
      "Ġ108": 1429,
      "Ġ121": 1430,
      "Ġ375": 1431,
      "Ġ373": 1432,
      "Ġ442": 1433,
      "Ġ309": 1434,
      "Ġ362": 1435,
      "Ġ347": 1436,
      "Ġ465": 1437,
      "Ġ287": 1438,
      "Ġ444": 1439,
      "Ġ308": 1440,
      "Ġ246": 1441,
      "▁ch": 1442,
      "Ġ152": 1443,
      "Ġ351": 1444,
      "Ġ286": 1445,
      "Ġ195": 1446,
      "Ġ394": 1447,
      "Ġ397": 1448,
      "Ġ343": 1449,
      "Ġ485": 1450,
      "Ġ432": 1451,
      "Ġ101": 1452,
      "Ġ363": 1453,
      "Ġ486": 1454,
      "Ġ155": 1455,
      "Ġ213": 1456,
      "Ġ311": 1457,
      "Ġ371": 1458,
      "Ġ281": 1459,
      "Ġ198": 1460,
      "Ġ109": 1461,
      "Ġ295": 1462,
      "08": 1463,
      "Ġ122": 1464,
      "Ġ172": 1465,
      "Ġ275": 1466,
      "Ġ392": 1467,
      "Ġ445": 1468,
      "Ġ294": 1469,
      "Ġ297": 1470,
      "Ġ111": 1471,
      "Ġ233": 1472,
      "Ġ421": 1473,
      "Ġ245": 1474,
      "Ġ384": 1475,
      "Ġ412": 1476,
      "Ġ372": 1477,
      "Ġ197": 1478,
      "Ġ395": 1479,
      "Ġ263": 1480,
      "Ġ103": 1481,
      "Ġ173": 1482,
      "Ġ132": 1483,
      "Ġ211": 1484,
      "Ġ255": 1485,
      "Ġ411": 1486,
      "Ġ144": 1487,
      "Ġ405": 1488,
      "Ġ203": 1489,
      "Ġ383": 1490,
      "Ġ387": 1491,
      "Ġ115": 1492,
      "Ġ162": 1493,
      "Ġ492": 1494,
      "Ġ283": 1495,
      "Ġ185": 1496,
      "Ġ107": 1497,
      "Ġ368": 1498,
      "Ġ341": 1499,
      "Ġ251": 1500,
      "Ġ443": 1501,
      "Ġ305": 1502,
      "Ġ389": 1503,
      "Ġ231": 1504,
      "Ġ452": 1505,
      "Ġ332": 1506,
      "Ġ193": 1507,
      "Ġ402": 1508,
      "Ġ241": 1509,
      "Ġ488": 1510,
      "Ġ487": 1511,
      "Ġ235": 1512,
      "Ġ273": 1513,
      "Ġ462": 1514,
      "Ġ167": 1515,
      "Ġ401": 1516,
      "Ġ291": 1517,
      "Ġ473": 1518,
      "Ġ282": 1519,
      "Ġ497": 1520,
      "▁mp": 1521,
      "Ġ331": 1522,
      "Ġ285": 1523,
      "Ġ495": 1524,
      "Ġ207": 1525,
      "04": 1526,
      "Ġ131": 1527,
      "Ġ355": 1528,
      "Ġ163": 1529,
      "Ġ212": 1530,
      "Ġ335": 1531,
      "Ġ142": 1532,
      "Ġ188": 1533,
      "Ġ367": 1534,
      "Ġ422": 1535,
      "Ġ322": 1536,
      "Ġ491": 1537,
      "Ġ105": 1538,
      "Ġ265": 1539,
      "Ġ342": 1540,
      "Ġ112": 1541,
      "Ġ271": 1542,
      "Ġ472": 1543,
      "Ġ403": 1544,
      "Ġ303": 1545,
      "Ġ382": 1546,
      "Ġ481": 1547,
      "Ġ361": 1548,
      "Ġ344": 1549,
      "Ġ151": 1550,
      "Ġ252": 1551,
      "Ġ321": 1552,
      "Ġ393": 1553,
      "Ġch": 1554,
      "Ġ232": 1555,
      "Ġ261": 1556,
      "Ġ187": 1557,
      "Ġ407": 1558,
      "▁ag": 1559,
      "▁ted": 1560,
      "Ġ431": 1561,
      "Ġ201": 1562,
      "Ġ301": 1563,
      "Ġ205": 1564,
      "Ġ381": 1565,
      "Ġ102": 1566,
      "Ġsu": 1567,
      "Ġ312": 1568,
      "Ġ191": 1569,
      "Ġ292": 1570,
      "▁el": 1571,
      "▁ion": 1572,
      "Ġ493": 1573,
      "Ġ267": 1574,
      "Ġk": 1575,
      "Ġ183": 1576,
      "Ġ482": 1577,
      "09": 1578,
      "▁ut": 1579,
      "Ġ441": 1580,
      "▁us": 1581,
      "06": 1582,
      "▁ers": 1583,
      "▁ab": 1584,
      "▁ci": 1585,
      "07": 1586,
      "▁ir": 1587,
      "▁ure": 1588,
      "▁la": 1589,
      "Ġco": 1590,
      "Ġse": 1591,
      "Ġcom": 1592,
      "▁am": 1593,
      "03": 1594,
      "▁pp": 1595,
      "▁li": 1596,
      "▁os": 1597,
      "▁id": 1598,
      "▁og": 1599,
      "▁ity": 1600,
      "01": 1601,
      "05": 1602,
      "Ġte": 1603,
      "▁um": 1604,
      "▁tic": 1605,
      "Ġan": 1606,
      "Ġen": 1607,
      "Ġi": 1608,
      "▁273": 1609,
      "02": 1610,
      "▁164": 1611,
      "▁135": 1612,
      "▁ie": 1613,
      "▁344": 1614,
      "▁565": 1615,
      "▁ay": 1616,
      "Ġth": 1617,
      "▁584": 1618,
      "▁264": 1619,
      "▁388": 1620,
      "▁301": 1621,
      "▁252": 1622,
      "▁501": 1623,
      "▁201": 1624,
      "▁ant": 1625,
      "▁ine": 1626,
      "▁291": 1627,
      "▁185": 1628,
      "▁391": 1629,
      "▁106": 1630,
      "▁302": 1631,
      "Ġcomp": 1632,
      "▁296": 1633,
      "▁191": 1634,
      "▁194": 1635,
      "▁197": 1636,
      "▁196": 1637,
      "▁261": 1638,
      "▁599": 1639,
      "▁182": 1640,
      "▁568": 1641,
      "▁564": 1642,
      "▁144": 1643,
      "▁396": 1644,
      "▁382": 1645,
      "▁241": 1646,
      "▁253": 1647,
      "▁235": 1648,
      "▁172": 1649,
      "▁152": 1650,
      "▁les": 1651,
      "Ġ578": 1652,
      "Ġ579": 1653,
      "Ġ574": 1654,
      "Ġ536": 1655,
      "Ġ570": 1656,
      "Ġ528": 1657,
      "Ġ554": 1658,
      "Ġ576": 1659,
      "Ġ544": 1660,
      "Ġ566": 1661,
      "Ġ599": 1662,
      "Ġ588": 1663,
      "Ġ590": 1664,
      "Ġ580": 1665,
      "Ġ540": 1666,
      "Ġ560": 1667,
      "Ġ678": 1668,
      "Ġ679": 1669,
      "Ġ674": 1670,
      "Ġ636": 1671,
      "Ġ670": 1672,
      "Ġ628": 1673,
      "Ġ654": 1674,
      "Ġ676": 1675,
      "Ġ644": 1676,
      "Ġ666": 1677,
      "Ġ699": 1678,
      "Ġ688": 1679,
      "Ġ690": 1680,
      "Ġ680": 1681,
      "Ġ640": 1682,
      "Ġ660": 1683,
      "Ġ978": 1684,
      "Ġ979": 1685,
      "Ġ974": 1686,
      "Ġ936": 1687,
      "Ġ970": 1688,
      "Ġ928": 1689,
      "Ġ954": 1690,
      "Ġ976": 1691,
      "Ġ944": 1692,
      "Ġ966": 1693,
      "Ġ999": 1694,
      "Ġ988": 1695,
      "Ġ990": 1696,
      "Ġ980": 1697,
      "Ġ940": 1698,
      "Ġ960": 1699,
      "Ġ878": 1700,
      "Ġ879": 1701,
      "Ġ874": 1702,
      "Ġ836": 1703,
      "Ġ870": 1704,
      "Ġ828": 1705,
      "Ġ854": 1706,
      "Ġ876": 1707,
      "Ġ844": 1708,
      "Ġ866": 1709,
      "Ġ899": 1710,
      "Ġ888": 1711,
      "Ġ890": 1712,
      "Ġ880": 1713,
      "Ġ840": 1714,
      "Ġ860": 1715,
      "Ġ778": 1716,
      "Ġ779": 1717,
      "Ġ774": 1718,
      "Ġ736": 1719,
      "Ġ770": 1720,
      "Ġ728": 1721,
      "Ġ754": 1722,
      "Ġ776": 1723,
      "Ġ744": 1724,
      "Ġ766": 1725,
      "Ġ799": 1726,
      "Ġ788": 1727,
      "Ġ790": 1728,
      "Ġ780": 1729,
      "Ġ740": 1730,
      "Ġ760": 1731,
      "▁297": 1732,
      "▁192": 1733,
      "▁198": 1734,
      "▁595": 1735,
      "▁381": 1736,
      "▁506": 1737,
      "▁303": 1738,
      "▁175": 1739,
      "▁190": 1740,
      "▁345": 1741,
      "▁346": 1742,
      "▁590": 1743,
      "▁561": 1744,
      "▁142": 1745,
      "▁399": 1746,
      "▁389": 1747,
      "▁387": 1748,
      "▁503": 1749,
      "▁505": 1750,
      "▁167": 1751,
      "▁103": 1752,
      "▁306": 1753,
      "▁157": 1754,
      "Ġ558": 1755,
      "Ġ520": 1756,
      "Ġ524": 1757,
      "Ġ658": 1758,
      "Ġ620": 1759,
      "Ġ624": 1760,
      "Ġ958": 1761,
      "Ġ920": 1762,
      "Ġ924": 1763,
      "Ġ858": 1764,
      "Ġ820": 1765,
      "Ġ824": 1766,
      "Ġ758": 1767,
      "Ġ720": 1768,
      "Ġ724": 1769,
      "▁292": 1770,
      "▁298": 1771,
      "▁195": 1772,
      "▁268": 1773,
      "▁591": 1774,
      "▁186": 1775,
      "▁566": 1776,
      "▁384": 1777,
      "▁309": 1778,
      "▁272": 1779,
      "▁131": 1780,
      "▁193": 1781,
      "▁260": 1782,
      "▁188": 1783,
      "▁569": 1784,
      "▁567": 1785,
      "▁395": 1786,
      "▁386": 1787,
      "▁165": 1788,
      "▁133": 1789,
      "▁173": 1790,
      "▁ain": 1791,
      "▁ia": 1792,
      "Ġ514": 1793,
      "Ġ510": 1794,
      "Ġ614": 1795,
      "Ġ610": 1796,
      "Ġ914": 1797,
      "Ġ910": 1798,
      "Ġ814": 1799,
      "Ġ810": 1800,
      "Ġ714": 1801,
      "Ġ710": 1802,
      "▁294": 1803,
      "▁269": 1804,
      "▁343": 1805,
      "▁342": 1806,
      "▁598": 1807,
      "▁594": 1808,
      "▁393": 1809,
      "▁385": 1810,
      "▁500": 1811,
      "▁300": 1812,
      "▁277": 1813,
      "▁153": 1814,
      "▁155": 1815,
      "▁ations": 1816,
      "▁293": 1817,
      "▁199": 1818,
      "▁340": 1819,
      "▁341": 1820,
      "▁183": 1821,
      "▁184": 1822,
      "▁560": 1823,
      "▁390": 1824,
      "▁398": 1825,
      "▁508": 1826,
      "▁504": 1827,
      "▁132": 1828,
      "▁171": 1829,
      "▁151": 1830,
      "Ġpre": 1831,
      "▁tive": 1832,
      "Ġ516": 1833,
      "Ġ616": 1834,
      "Ġ916": 1835,
      "Ġ816": 1836,
      "Ġ716": 1837,
      "▁299": 1838,
      "▁266": 1839,
      "▁392": 1840,
      "▁383": 1841,
      "▁509": 1842,
      "▁304": 1843,
      "▁257": 1844,
      "▁290": 1845,
      "▁262": 1846,
      "▁267": 1847,
      "▁349": 1848,
      "▁347": 1849,
      "▁592": 1850,
      "▁597": 1851,
      "▁189": 1852,
      "▁180": 1853,
      "▁562": 1854,
      "▁380": 1855,
      "▁502": 1856,
      "▁507": 1857,
      "▁271": 1858,
      "▁233": 1859,
      "▁231": 1860,
      "▁237": 1861,
      "▁lo": 1862,
      "Ġar": 1863,
      "Ġtr": 1864,
      "▁348": 1865,
      "▁394": 1866,
      "▁305": 1867,
      "▁265": 1868,
      "▁596": 1869,
      "▁275": 1870,
      "▁222": 1871,
      "▁787": 1872,
      "▁797": 1873,
      "▁747": 1874,
      "▁397": 1875,
      "▁367": 1876,
      "▁307": 1877,
      "▁547": 1878,
      "▁251": 1879,
      "▁111": 1880,
      "▁263": 1881,
      "▁798": 1882,
      "▁796": 1883,
      "▁181": 1884,
      "▁361": 1885,
      "▁289": 1886,
      "▁283": 1887,
      "▁280": 1888,
      "▁308": 1889,
      "▁543": 1890,
      "▁545": 1891,
      "▁ap": 1892,
      "▁ip": 1893,
      "▁ge": 1894,
      "Ġal": 1895,
      "▁295": 1896,
      "▁786": 1897,
      "▁587": 1898,
      "▁187": 1899,
      "▁563": 1900,
      "▁365": 1901,
      "▁703": 1902,
      "▁702": 1903,
      "▁707": 1904,
      "▁288": 1905,
      "▁287": 1906,
      "▁549": 1907,
      "▁255": 1908,
      "▁137": 1909,
      "▁112": 1910,
      "▁784": 1911,
      "▁580": 1912,
      "▁588": 1913,
      "▁792": 1914,
      "▁740": 1915,
      "▁209": 1916,
      "▁203": 1917,
      "▁246": 1918,
      "▁541": 1919,
      "▁548": 1920,
      "▁760": 1921,
      "▁761": 1922,
      "▁232": 1923,
      "▁177": 1924,
      "Ġun": 1925,
      "▁ds": 1926,
      "▁589": 1927,
      "▁794": 1928,
      "▁745": 1929,
      "▁593": 1930,
      "▁149": 1931,
      "▁148": 1932,
      "▁700": 1933,
      "▁708": 1934,
      "▁284": 1935,
      "▁204": 1936,
      "▁248": 1937,
      "▁540": 1938,
      "▁544": 1939,
      "▁763": 1940,
      "▁765": 1941,
      "▁221": 1942,
      "▁789": 1943,
      "▁785": 1944,
      "▁585": 1945,
      "▁586": 1946,
      "▁749": 1947,
      "▁742": 1948,
      "▁141": 1949,
      "▁147": 1950,
      "▁146": 1951,
      "▁362": 1952,
      "▁705": 1953,
      "▁704": 1954,
      "▁706": 1955,
      "▁282": 1956,
      "▁281": 1957,
      "▁109": 1958,
      "▁105": 1959,
      "▁107": 1960,
      "▁208": 1961,
      "▁242": 1962,
      "▁240": 1963,
      "▁546": 1964,
      "Ġhe": 1965,
      "▁782": 1966,
      "▁791": 1967,
      "▁363": 1968,
      "▁366": 1969,
      "▁709": 1970,
      "▁701": 1971,
      "▁162": 1972,
      "▁161": 1973,
      "▁168": 1974,
      "▁102": 1975,
      "▁202": 1976,
      "▁244": 1977,
      "▁769": 1978,
      "▁768": 1979,
      "▁799": 1980,
      "▁793": 1981,
      "▁795": 1982,
      "▁743": 1983,
      "▁741": 1984,
      "▁744": 1985,
      "▁145": 1986,
      "▁140": 1987,
      "▁360": 1988,
      "▁364": 1989,
      "▁108": 1990,
      "▁247": 1991,
      "▁766": 1992,
      "▁575": 1993,
      "▁ans": 1994,
      "▁ors": 1995,
      "▁790": 1996,
      "▁746": 1997,
      "▁160": 1998,
      "▁166": 1999,
      "▁101": 2000,
      "▁104": 2001,
      "▁207": 2002,
      "▁533": 2003,
      "▁212": 2004,
      "▁781": 2005,
      "▁788": 2006,
      "▁582": 2007,
      "▁143": 2008,
      "▁368": 2009,
      "▁169": 2010,
      "▁163": 2011,
      "▁286": 2012,
      "▁245": 2013,
      "▁571": 2014,
      "▁ac": 2015,
      "Ġbe": 2016,
      "Ġ529": 2017,
      "Ġ519": 2018,
      "Ġ526": 2019,
      "Ġ534": 2020,
      "Ġ559": 2021,
      "Ġ518": 2022,
      "Ġ556": 2023,
      "Ġ539": 2024,
      "Ġ538": 2025,
      "Ġ550": 2026,
      "Ġ530": 2027,
      "Ġ629": 2028,
      "Ġ619": 2029,
      "Ġ626": 2030,
      "Ġ634": 2031,
      "Ġ659": 2032,
      "Ġ618": 2033,
      "Ġ656": 2034,
      "Ġ639": 2035,
      "Ġ638": 2036,
      "Ġ650": 2037,
      "Ġ630": 2038,
      "Ġ929": 2039,
      "Ġ919": 2040,
      "Ġ926": 2041,
      "Ġ934": 2042,
      "Ġ959": 2043,
      "Ġ918": 2044,
      "Ġ956": 2045,
      "Ġ939": 2046,
      "Ġ938": 2047,
      "Ġ950": 2048,
      "Ġ930": 2049,
      "Ġ829": 2050,
      "Ġ819": 2051,
      "Ġ826": 2052,
      "Ġ834": 2053,
      "Ġ859": 2054,
      "Ġ818": 2055,
      "Ġ856": 2056,
      "Ġ839": 2057,
      "Ġ838": 2058,
      "Ġ850": 2059,
      "Ġ830": 2060,
      "Ġ729": 2061,
      "Ġ719": 2062,
      "Ġ726": 2063,
      "Ġ734": 2064,
      "Ġ759": 2065,
      "Ġ718": 2066,
      "Ġ756": 2067,
      "Ġ739": 2068,
      "Ġ738": 2069,
      "Ġ750": 2070,
      "Ġ730": 2071,
      "▁581": 2072,
      "▁369": 2073,
      "▁205": 2074,
      "▁206": 2075,
      "▁249": 2076,
      "▁243": 2077,
      "▁764": 2078,
      "Ġdis": 2079,
      "▁531": 2080,
      "▁572": 2081,
      "Ġne": 2082,
      "▁285": 2083,
      "▁ak": 2084,
      "▁780": 2085,
      "▁583": 2086,
      "▁100": 2087,
      "▁767": 2088,
      "▁573": 2089,
      "Ġexp": 2090,
      "Ġ548": 2091,
      "Ġ549": 2092,
      "Ġ546": 2093,
      "Ġ586": 2094,
      "Ġ589": 2095,
      "Ġ569": 2096,
      "Ġ648": 2097,
      "Ġ649": 2098,
      "Ġ646": 2099,
      "Ġ686": 2100,
      "Ġ689": 2101,
      "Ġ669": 2102,
      "Ġ948": 2103,
      "Ġ949": 2104,
      "Ġ946": 2105,
      "Ġ986": 2106,
      "Ġ989": 2107,
      "Ġ969": 2108,
      "Ġ848": 2109,
      "Ġ849": 2110,
      "Ġ846": 2111,
      "Ġ886": 2112,
      "Ġ889": 2113,
      "Ġ869": 2114,
      "Ġ748": 2115,
      "Ġ749": 2116,
      "Ġ746": 2117,
      "Ġ786": 2118,
      "Ġ789": 2119,
      "Ġ769": 2120,
      "▁748": 2121,
      "▁200": 2122,
      "▁542": 2123,
      "▁762": 2124,
      "Ġli": 2125,
      "▁577": 2126,
      "▁783": 2127,
      "▁535": 2128,
      "Ġac": 2129,
      "▁ary": 2130,
      "▁537": 2131,
      "Ġpo": 2132,
      "▁532": 2133,
      "▁ry": 2134,
      "▁551": 2135,
      "Ġme": 2136,
      "▁555": 2137,
      "▁sp": 2138,
      "▁ts": 2139,
      "▁di": 2140,
      "▁373": 2141,
      "▁371": 2142,
      "▁372": 2143,
      "▁ok": 2144,
      "▁du": 2145,
      "Ġsc": 2146,
      "▁der": 2147,
      "▁377": 2148,
      "▁ff": 2149,
      "Ġapp": 2150,
      "Ġpar": 2151,
      "▁375": 2152,
      "▁332": 2153,
      "▁552": 2154,
      "Ġy": 2155,
      "▁ated": 2156,
      "Ġlo": 2157,
      "Ġdi": 2158,
      "Ġ500": 2159,
      "▁333": 2160,
      "▁335": 2161,
      "Ġu": 2162,
      "▁th": 2163,
      "Ġph": 2164,
      "▁age": 2165,
      "▁ru": 2166,
      "▁ub": 2167,
      "Ġro": 2168,
      "▁ally": 2169,
      "▁775": 2170,
      "▁im": 2171,
      "Ġso": 2172,
      "Ġrep": 2173,
      "▁351": 2174,
      "▁iz": 2175,
      "▁ive": 2176,
      "Ġmar": 2177,
      "Ġbo": 2178,
      "▁773": 2179,
      "▁732": 2180,
      "▁ec": 2181,
      "▁ies": 2182,
      "▁ses": 2183,
      "▁ings": 2184,
      "▁771": 2185,
      "▁352": 2186,
      "▁752": 2187,
      "▁331": 2188,
      "▁731": 2189,
      "Ġ700": 2190,
      "Ġ900": 2191,
      "Ġ600": 2192,
      "Ġ800": 2193,
      "Ġor": 2194,
      "▁ib": 2195,
      "▁ns": 2196,
      "Ġtra": 2197,
      "▁sed": 2198,
      "▁her": 2199,
      "▁ill": 2200,
      "Ġop": 2201,
      "▁ent": 2202,
      "▁ces": 2203,
      "▁ments": 2204,
      "▁772": 2205,
      "▁446": 2206,
      "▁751": 2207,
      "Ġpr": 2208,
      "Ġ584": 2209,
      "Ġ684": 2210,
      "Ġ984": 2211,
      "Ġ884": 2212,
      "Ġ784": 2213,
      "▁als": 2214,
      "▁606": 2215,
      "▁able": 2216,
      "Ġper": 2217,
      "Ġ709": 2218,
      "Ġ909": 2219,
      "Ġ609": 2220,
      "Ġ509": 2221,
      "Ġ809": 2222,
      "▁ect": 2223,
      "▁ug": 2224,
      "▁iss": 2225,
      "▁ties": 2226,
      "Ġwe": 2227,
      "▁777": 2228,
      "▁993": 2229,
      "▁885": 2230,
      "▁907": 2231,
      "▁489": 2232,
      "▁und": 2233,
      "▁ous": 2234,
      "▁998": 2235,
      "▁884": 2236,
      "▁484": 2237,
      "▁ile": 2238,
      "▁sh": 2239,
      "▁ph": 2240,
      "▁are": 2241,
      "▁ord": 2242,
      "▁ral": 2243,
      "▁rib": 2244,
      "▁440": 2245,
      "▁665": 2246,
      "▁903": 2247,
      "▁901": 2248,
      "▁409": 2249,
      "▁495": 2250,
      "Ġ706": 2251,
      "Ġ906": 2252,
      "Ġ606": 2253,
      "Ġ506": 2254,
      "Ġ806": 2255,
      "Ġ696": 2256,
      "Ġ996": 2257,
      "Ġ896": 2258,
      "Ġ596": 2259,
      "Ġ796": 2260,
      "▁443": 2261,
      "▁445": 2262,
      "▁660": 2263,
      "▁801": 2264,
      "▁603": 2265,
      "▁od": 2266,
      "▁fic": 2267,
      "▁ish": 2268,
      "▁449": 2269,
      "▁994": 2270,
      "▁900": 2271,
      "▁906": 2272,
      "▁404": 2273,
      "▁487": 2274,
      "▁493": 2275,
      "▁498": 2276,
      "▁467": 2277,
      "▁662": 2278,
      "▁882": 2279,
      "▁808": 2280,
      "▁807": 2281,
      "▁408": 2282,
      "▁604": 2283,
      "Ġ708": 2284,
      "Ġ908": 2285,
      "Ġ608": 2286,
      "Ġ508": 2287,
      "Ġ808": 2288,
      "Ġ698": 2289,
      "Ġ998": 2290,
      "Ġ898": 2291,
      "Ġ598": 2292,
      "Ġ798": 2293,
      "Ġ568": 2294,
      "Ġ668": 2295,
      "Ġ968": 2296,
      "Ġ868": 2297,
      "Ġ768": 2298,
      "▁ust": 2299,
      "Ġma": 2300,
      "▁ven": 2301,
      "▁441": 2302,
      "▁447": 2303,
      "▁663": 2304,
      "▁664": 2305,
      "▁997": 2306,
      "▁803": 2307,
      "▁406": 2308,
      "▁492": 2309,
      "▁491": 2310,
      "Ġsub": 2311,
      "▁ions": 2312,
      "▁ian": 2313,
      "Ġfe": 2314,
      "▁442": 2315,
      "▁889": 2316,
      "▁880": 2317,
      "▁462": 2318,
      "▁647": 2319,
      "▁lic": 2320,
      "▁cu": 2321,
      "Ġpl": 2322,
      "Ġbr": 2323,
      "▁red": 2324,
      "▁669": 2325,
      "▁668": 2326,
      "▁667": 2327,
      "▁990": 2328,
      "▁881": 2329,
      "▁904": 2330,
      "▁809": 2331,
      "▁402": 2332,
      "▁400": 2333,
      "▁481": 2334,
      "▁486": 2335,
      "▁496": 2336,
      "▁465": 2337,
      "Ġ704": 2338,
      "Ġ904": 2339,
      "Ġ604": 2340,
      "Ġ504": 2341,
      "Ġ804": 2342,
      "Ġ694": 2343,
      "Ġ994": 2344,
      "Ġ894": 2345,
      "Ġ594": 2346,
      "Ġ794": 2347,
      "Ġ564": 2348,
      "Ġ664": 2349,
      "Ġ964": 2350,
      "Ġ864": 2351,
      "Ġ764": 2352,
      "▁661": 2353,
      "▁666": 2354,
      "▁996": 2355,
      "▁905": 2356,
      "▁805": 2357,
      "▁806": 2358,
      "▁608": 2359,
      "▁482": 2360,
      "▁485": 2361,
      "▁497": 2362,
      "▁464": 2363,
      "▁ll": 2364,
      "▁ne": 2365,
      "▁cl": 2366,
      "Ġsa": 2367,
      "▁ten": 2368,
      "▁ser": 2369,
      "▁ign": 2370,
      "Ġspe": 2371,
      "Ġla": 2372,
      "▁999": 2373,
      "▁992": 2374,
      "▁887": 2375,
      "▁908": 2376,
      "▁401": 2377,
      "▁609": 2378,
      "▁494": 2379,
      "▁468": 2380,
      "Ġimp": 2381,
      "▁ome": 2382,
      "▁995": 2383,
      "▁991": 2384,
      "▁888": 2385,
      "▁800": 2386,
      "▁403": 2387,
      "▁863": 2388,
      "▁895": 2389,
      "▁est": 2390,
      "▁ys": 2391,
      "▁ting": 2392,
      "▁ke": 2393,
      "▁che": 2394,
      "Ġcl": 2395,
      "▁tes": 2396,
      "Ġrec": 2397,
      "Ġref": 2398,
      "Ġbu": 2399,
      "▁444": 2400,
      "▁909": 2401,
      "▁601": 2402,
      "▁483": 2403,
      "▁896": 2404,
      "Ġno": 2405,
      "▁448": 2406,
      "▁883": 2407,
      "▁405": 2408,
      "▁407": 2409,
      "▁605": 2410,
      "▁469": 2411,
      "▁864": 2412,
      "▁898": 2413,
      "▁691": 2414,
      "▁845": 2415,
      "▁841": 2416,
      "▁ma": 2417,
      "▁ms": 2418,
      "▁min": 2419,
      "▁fi": 2420,
      "Ġche": 2421,
      "▁ang": 2422,
      "▁ons": 2423,
      "Ġ525": 2424,
      "Ġ527": 2425,
      "Ġ513": 2426,
      "Ġ523": 2427,
      "Ġ517": 2428,
      "Ġ515": 2429,
      "Ġ553": 2430,
      "Ġ557": 2431,
      "Ġ537": 2432,
      "Ġ577": 2433,
      "Ġ625": 2434,
      "Ġ627": 2435,
      "Ġ613": 2436,
      "Ġ623": 2437,
      "Ġ617": 2438,
      "Ġ615": 2439,
      "Ġ653": 2440,
      "Ġ657": 2441,
      "Ġ637": 2442,
      "Ġ677": 2443,
      "Ġ925": 2444,
      "Ġ927": 2445,
      "Ġ913": 2446,
      "Ġ923": 2447,
      "Ġ917": 2448,
      "Ġ915": 2449,
      "Ġ953": 2450,
      "Ġ957": 2451,
      "Ġ937": 2452,
      "Ġ977": 2453,
      "Ġ825": 2454,
      "Ġ827": 2455,
      "Ġ813": 2456,
      "Ġ823": 2457,
      "Ġ817": 2458,
      "Ġ815": 2459,
      "Ġ853": 2460,
      "Ġ857": 2461,
      "Ġ837": 2462,
      "Ġ877": 2463,
      "Ġ725": 2464,
      "Ġ727": 2465,
      "Ġ713": 2466,
      "Ġ723": 2467,
      "Ġ717": 2468,
      "Ġ715": 2469,
      "Ġ753": 2470,
      "Ġ757": 2471,
      "Ġ737": 2472,
      "Ġ777": 2473,
      "Ġgu": 2474,
      "▁602": 2475,
      "▁463": 2476,
      "▁869": 2477,
      "▁862": 2478,
      "▁894": 2479,
      "▁ens": 2480,
      "Ġtrans": 2481,
      "Ġfo": 2482,
      "▁461": 2483,
      "▁861": 2484,
      "▁868": 2485,
      "▁695": 2486,
      "▁681": 2487,
      "▁sc": 2488,
      "▁ding": 2489,
      "▁ber": 2490,
      "▁ks": 2491,
      "Ġsur": 2492,
      "▁one": 2493,
      "Ġfl": 2494,
      "Ġbl": 2495,
      "Ġgen": 2496,
      "Ġwor": 2497,
      "▁ric": 2498,
      "▁802": 2499,
      "▁804": 2500,
      "▁600": 2501,
      "▁607": 2502,
      "▁867": 2503,
      "▁893": 2504,
      "▁892": 2505,
      "▁697": 2506,
      "▁842": 2507,
      "▁965": 2508,
      "▁ess": 2509,
      "Ġjo": 2510,
      "▁886": 2511,
      "Ġed": 2512,
      "▁land": 2513,
      "▁vi": 2514,
      "▁ty": 2515,
      "▁pt": 2516,
      "Ġcol": 2517,
      "Ġass": 2518,
      "Ġmin": 2519,
      "Ġinte": 2520,
      "▁902": 2521,
      "▁865": 2522,
      "▁692": 2523,
      "▁694": 2524,
      "▁847": 2525,
      "▁683": 2526,
      "Ġ533": 2527,
      "Ġ633": 2528,
      "Ġ933": 2529,
      "Ġ833": 2530,
      "Ġ733": 2531,
      "▁897": 2532,
      "▁843": 2533,
      "▁642": 2534,
      "▁641": 2535,
      "▁685": 2536,
      "▁983": 2537,
      "▁963": 2538,
      "Ġcor": 2539,
      "Ġcomm": 2540,
      "Ġas": 2541,
      "▁ory": 2542,
      "Ġres": 2543,
      "Ġreg": 2544,
      "Ġbro": 2545,
      "▁687": 2546,
      "▁ical": 2547,
      "▁891": 2548,
      "▁961": 2549,
      "▁ast": 2550,
      "▁ition": 2551,
      "▁na": 2552,
      "▁cy": 2553,
      "▁ue": 2554,
      "▁for": 2555,
      "▁ong": 2556,
      "▁vel": 2557,
      "▁ress": 2558,
      "▁its": 2559,
      "▁ult": 2560,
      "Ġdo": 2561,
      "▁643": 2562,
      "▁987": 2563,
      "Ġ707": 2564,
      "Ġ907": 2565,
      "Ġ607": 2566,
      "Ġ507": 2567,
      "Ġ807": 2568,
      "▁693": 2569,
      "Ġ697": 2570,
      "Ġ997": 2571,
      "Ġ897": 2572,
      "Ġ597": 2573,
      "Ġ797": 2574,
      "Ġ567": 2575,
      "Ġ667": 2576,
      "Ġ967": 2577,
      "Ġ867": 2578,
      "Ġ767": 2579,
      "Ġ587": 2580,
      "Ġ787": 2581,
      "Ġ887": 2582,
      "Ġ687": 2583,
      "Ġ987": 2584,
      "Ġ947": 2585,
      "Ġ547": 2586,
      "Ġ747": 2587,
      "Ġ847": 2588,
      "Ġ647": 2589,
      "▁645": 2590,
      "▁985": 2591,
      "▁967": 2592,
      "▁942": 2593,
      "▁941": 2594,
      "Ġz": 2595,
      "▁ite": 2596,
      "▁ps": 2597,
      "▁ore": 2598,
      "Ġfin": 2599,
      "Ġ555": 2600,
      "Ġ655": 2601,
      "Ġ955": 2602,
      "Ġ855": 2603,
      "Ġ755": 2604,
      "Ġconf": 2605,
      "▁ctions": 2606,
      "Ġha": 2607,
      "▁ence": 2608,
      "▁olog": 2609,
      "Ġ573": 2610,
      "Ġ673": 2611,
      "Ġ973": 2612,
      "Ġ873": 2613,
      "Ġ773": 2614,
      "Ġ703": 2615,
      "Ġ903": 2616,
      "Ġ603": 2617,
      "Ġ503": 2618,
      "Ġ803": 2619,
      "Ġ693": 2620,
      "Ġ993": 2621,
      "Ġ893": 2622,
      "Ġ593": 2623,
      "Ġ793": 2624,
      "Ġ563": 2625,
      "Ġ663": 2626,
      "Ġ963": 2627,
      "Ġ863": 2628,
      "Ġ763": 2629,
      "Ġ583": 2630,
      "Ġ783": 2631,
      "Ġ883": 2632,
      "Ġ683": 2633,
      "Ġ983": 2634,
      "Ġ943": 2635,
      "Ġ543": 2636,
      "Ġ743": 2637,
      "Ġ843": 2638,
      "Ġ643": 2639,
      "Ġve": 2640,
      "▁ale": 2641,
      "▁nce": 2642,
      "▁ton": 2643,
      "Ġab": 2644,
      "Ġpe": 2645,
      "Ġinter": 2646,
      "▁nts": 2647,
      "Ġob": 2648,
      "▁682": 2649,
      "▁982": 2650,
      "▁981": 2651,
      "▁ility": 2652,
      "▁ures": 2653,
      "Ġ535": 2654,
      "Ġ575": 2655,
      "Ġ635": 2656,
      "Ġ675": 2657,
      "Ġ935": 2658,
      "Ġ975": 2659,
      "Ġ835": 2660,
      "Ġ875": 2661,
      "Ġ735": 2662,
      "Ġ775": 2663,
      "Ġ705": 2664,
      "Ġ905": 2665,
      "Ġ605": 2666,
      "Ġ505": 2667,
      "Ġ805": 2668,
      "▁696": 2669,
      "Ġ695": 2670,
      "Ġ995": 2671,
      "Ġ895": 2672,
      "Ġ595": 2673,
      "Ġ795": 2674,
      "Ġ565": 2675,
      "Ġ665": 2676,
      "Ġ965": 2677,
      "Ġ865": 2678,
      "Ġ765": 2679,
      "Ġ585": 2680,
      "Ġ785": 2681,
      "Ġ885": 2682,
      "Ġ685": 2683,
      "Ġ985": 2684,
      "Ġ945": 2685,
      "Ġ545": 2686,
      "Ġ745": 2687,
      "Ġ845": 2688,
      "Ġ645": 2689,
      "▁962": 2690,
      "▁ual": 2691,
      "Ġag": 2692,
      "Ġmon": 2693,
      "▁ved": 2694,
      "▁mer": 2695,
      "▁raph": 2696,
      "▁ates": 2697,
      "▁698": 2698,
      "Ġele": 2699,
      "▁943": 2700,
      "▁945": 2701,
      "Ġchar": 2702,
      "Ġacc": 2703,
      "Ġ511": 2704,
      "Ġ522": 2705,
      "Ġ611": 2706,
      "Ġ622": 2707,
      "Ġ911": 2708,
      "Ġ922": 2709,
      "Ġ811": 2710,
      "Ġ822": 2711,
      "Ġ711": 2712,
      "Ġ722": 2713,
      "▁era": 2714,
      "▁ach": 2715,
      "▁ls": 2716,
      "▁dy": 2717,
      "▁per": 2718,
      "Ġsy": 2719,
      "Ġaut": 2720,
      "Ġpla": 2721,
      "▁ves": 2722,
      "▁ins": 2723,
      "▁tit": 2724,
      "▁ded": 2725,
      "Ġind": 2726,
      "Ġinst": 2727,
      "▁ating": 2728,
      "Ġho": 2729,
      "▁ets": 2730,
      "▁cip": 2731,
      "Ġspeci": 2732,
      "Ġ521": 2733,
      "Ġ551": 2734,
      "Ġ571": 2735,
      "Ġ531": 2736,
      "Ġ621": 2737,
      "Ġ651": 2738,
      "Ġ671": 2739,
      "Ġ631": 2740,
      "Ġ921": 2741,
      "Ġ951": 2742,
      "Ġ971": 2743,
      "Ġ931": 2744,
      "Ġ821": 2745,
      "Ġ851": 2746,
      "Ġ871": 2747,
      "Ġ831": 2748,
      "Ġ721": 2749,
      "Ġ751": 2750,
      "Ġ771": 2751,
      "Ġ731": 2752,
      "Ġ701": 2753,
      "Ġ901": 2754,
      "Ġ601": 2755,
      "Ġ501": 2756,
      "Ġ801": 2757,
      "Ġ691": 2758,
      "Ġ991": 2759,
      "Ġ891": 2760,
      "Ġ591": 2761,
      "Ġ791": 2762,
      "Ġ561": 2763,
      "Ġ661": 2764,
      "Ġ961": 2765,
      "Ġ861": 2766,
      "Ġ761": 2767,
      "Ġ581": 2768,
      "Ġ781": 2769,
      "Ġ881": 2770,
      "Ġ681": 2771,
      "Ġ981": 2772,
      "Ġ941": 2773,
      "Ġ541": 2774,
      "Ġ741": 2775,
      "Ġ841": 2776,
      "Ġ641": 2777,
      "▁947": 2778,
      "▁ai": 2779,
      "▁ling": 2780,
      "▁io": 2781,
      "▁ix": 2782,
      "▁ble": 2783,
      "▁king": 2784,
      "Ġpri": 2785,
      "Ġmed": 2786,
      "▁int": 2787,
      "▁ines": 2788,
      "▁men": 2789,
      "Ġbel": 2790,
      "Ġ512": 2791,
      "Ġ552": 2792,
      "Ġ572": 2793,
      "Ġ532": 2794,
      "Ġ612": 2795,
      "Ġ652": 2796,
      "Ġ672": 2797,
      "Ġ632": 2798,
      "Ġ912": 2799,
      "Ġ952": 2800,
      "Ġ972": 2801,
      "Ġ932": 2802,
      "Ġ812": 2803,
      "Ġ852": 2804,
      "Ġ872": 2805,
      "Ġ832": 2806,
      "Ġ712": 2807,
      "Ġ752": 2808,
      "Ġ772": 2809,
      "Ġ732": 2810,
      "Ġinc": 2811,
      "Ġhar": 2812,
      "Ġ702": 2813,
      "Ġ902": 2814,
      "Ġ602": 2815,
      "Ġ502": 2816,
      "Ġ802": 2817,
      "Ġdef": 2818,
      "Ġ692": 2819,
      "Ġ992": 2820,
      "Ġ892": 2821,
      "Ġ592": 2822,
      "Ġ792": 2823,
      "Ġ562": 2824,
      "Ġ662": 2825,
      "Ġ962": 2826,
      "Ġ862": 2827,
      "Ġ762": 2828,
      "Ġ582": 2829,
      "Ġ782": 2830,
      "Ġ882": 2831,
      "Ġ682": 2832,
      "Ġ982": 2833,
      "Ġ942": 2834,
      "Ġ542": 2835,
      "Ġ742": 2836,
      "Ġ842": 2837,
      "Ġ642": 2838,
      "▁iew": 2839,
      "Ġdisc": 2840,
      "Ġter": 2841,
      "▁ran": 2842,
      "▁av": 2843,
      "▁ities": 2844,
      "▁ning": 2845,
      "▁gh": 2846,
      "▁ute": 2847,
      "▁par": 2848,
      "▁led": 2849,
      "▁ars": 2850,
      "▁ade": 2851,
      "Ġmat": 2852,
      "▁tim": 2853,
      "▁ders": 2854,
      "Ġinf": 2855,
      "Ġout": 2856,
      "Ġdes": 2857,
      "▁end": 2858,
      "Ġnew": 2859,
      "▁ree": 2860,
      "Ġis": 2861,
      "▁ail": 2862,
      "▁low": 2863,
      "▁ise": 2864,
      "▁val": 2865,
      "▁oc": 2866,
      "▁mar": 2867,
      "▁tor": 2868,
      "▁gan": 2869,
      "▁ho": 2870,
      "Ġsk": 2871,
      "Ġser": 2872,
      "Ġmet": 2873,
      "▁hed": 2874,
      "▁mes": 2875,
      "Ġresp": 2876,
      "▁tions": 2877,
      "▁row": 2878,
      "Ġins": 2879,
      "Ġge": 2880,
      "▁rip": 2881,
      "Ġhol": 2882,
      "▁ics": 2883,
      "Ġsupp": 2884,
      "Ġcolle": 2885,
      "▁ake": 2886,
      "Ġprom": 2887,
      "▁ology": 2888,
      "▁nti": 2889,
      "▁act": 2890,
      "▁ative": 2891,
      "▁ice": 2892,
      "▁ial": 2893,
      "▁no": 2894,
      "▁vis": 2895,
      "▁mb": 2896,
      "▁man": 2897,
      "▁mit": 2898,
      "▁ud": 2899,
      "▁up": 2900,
      "Ġcla": 2901,
      "Ġsol": 2902,
      "Ġacce": 2903,
      "▁ari": 2904,
      "▁ced": 2905,
      "Ġpol": 2906,
      "▁vest": 2907,
      "▁med": 2908,
      "Ġgra": 2909,
      "Ġwar": 2910,
      "▁ath": 2911,
      "Ġdist": 2912,
      "Ġoc": 2913,
      "Ġdem": 2914,
      "▁ich": 2915,
      "▁ctor": 2916,
      "Ġup": 2917,
      "Ġgr": 2918,
      "Ġver": 2919,
      "Ġus": 2920,
      "▁fer": 2921,
      "Ġcou": 2922,
      "Ġsen": 2923,
      "Ġpub": 2924,
      "▁vers": 2925,
      "▁sent": 2926,
      "▁ists": 2927,
      "▁res": 2928,
      "▁alle": 2929,
      "Ġatt": 2930,
      "Ġgre": 2931,
      "▁ries": 2932,
      "Ġhand": 2933,
      "Ġdra": 2934,
      "▁000": 2935,
      "▁ough": 2936,
      "Ġke": 2937,
      "▁tical": 2938,
      "Ġim": 2939,
      "Ġorgan": 2940,
      "▁ugh": 2941,
      "Ġweb": 2942,
      "▁009": 2943,
      "▁003": 2944,
      "▁002": 2945,
      "▁005": 2946,
      "▁001": 2947,
      "▁008": 2948,
      "▁004": 2949,
      "▁007": 2950,
      "▁006": 2951,
      "▁043": 2952,
      "▁042": 2953,
      "▁045": 2954,
      "▁041": 2955,
      "▁047": 2956,
      "▁093": 2957,
      "▁092": 2958,
      "▁095": 2959,
      "▁091": 2960,
      "▁097": 2961,
      "▁063": 2962,
      "▁062": 2963,
      "▁065": 2964,
      "▁061": 2965,
      "▁067": 2966,
      "▁083": 2967,
      "▁082": 2968,
      "▁085": 2969,
      "▁081": 2970,
      "▁087": 2971,
      "Ġide": 2972,
      "▁ace": 2973,
      "▁amp": 2974,
      "▁yp": 2975,
      "▁ying": 2976,
      "▁iti": 2977,
      "▁ners": 2978,
      "▁son": 2979,
      "▁to": 2980,
      "▁tle": 2981,
      "▁tain": 2982,
      "▁cing": 2983,
      "▁ges": 2984,
      "▁ude": 2985,
      "▁hip": 2986,
      "▁ful": 2987,
      "Ġcle": 2988,
      "Ġaff": 2989,
      "Ġpers": 2990,
      "Ġtre": 2991,
      "Ġmer": 2992,
      "▁ond": 2993,
      "▁hes": 2994,
      "Ġleg": 2995,
      "Ġfun": 2996,
      "Ġrem": 2997,
      "Ġbra": 2998,
      "Ġinvest": 2999,
      "Ġconce": 3000,
      "Ġprodu": 3001,
      "Ġlog": 3002,
      "▁own": 3003,
      "Ġdec": 3004,
      "Ġdep": 3005,
      "Ġear": 3006,
      "Ġeng": 3007,
      "Ġemp": 3008,
      "Ġval": 3009,
      "Ġchr": 3010,
      "Ġkn": 3011,
      "Ġsec": 3012,
      "▁ograph": 3013,
      "▁tics": 3014,
      "▁ants": 3015,
      "▁loy": 3016,
      "▁fied": 3017,
      "▁form": 3018,
      "Ġef": 3019,
      "▁ld": 3020,
      "▁line": 3021,
      "▁ving": 3022,
      "▁sse": 3023,
      "▁day": 3024,
      "▁co": 3025,
      "▁gra": 3026,
      "Ġshe": 3027,
      "Ġsign": 3028,
      "▁ana": 3029,
      "▁ank": 3030,
      "Ġpra": 3031,
      "Ġpen": 3032,
      "Ġpos": 3033,
      "▁ony": 3034,
      "▁ined": 3035,
      "Ġmode": 3036,
      "▁tiv": 3037,
      "Ġrel": 3038,
      "Ġrest": 3039,
      "Ġbi": 3040,
      "Ġbar": 3041,
      "Ġbre": 3042,
      "Ġint": 3043,
      "▁ope": 3044,
      "▁ots": 3045,
      "▁orts": 3046,
      "Ġwin": 3047,
      "▁ats": 3048,
      "Ġhu": 3049,
      "Ġhigh": 3050,
      "Ġlu": 3051,
      "Ġvi": 3052,
      "Ġvo": 3053,
      "Ġvis": 3054,
      "Ġexce": 3055,
      "▁ages": 3056,
      "▁ured": 3057,
      "▁umb": 3058,
      "▁ays": 3059,
      "Ġdiff": 3060,
      "▁ective": 3061,
      "Ġprin": 3062,
      "▁ches": 3063,
      "Ġwork": 3064,
      "▁ring": 3065,
      "▁ny": 3066,
      "▁ned": 3067,
      "▁ness": 3068,
      "▁view": 3069,
      "▁cted": 3070,
      "▁ually": 3071,
      "▁pri": 3072,
      "Ġcre": 3073,
      "▁let": 3074,
      "Ġam": 3075,
      "▁ane": 3076,
      "▁cen": 3077,
      "Ġpack": 3078,
      "Ġti": 3079,
      "Ġtri": 3080,
      "▁cks": 3081,
      "▁ones": 3082,
      "Ġstu": 3083,
      "Ġstre": 3084,
      "▁here": 3085,
      "▁rate": 3086,
      "Ġfi": 3087,
      "Ġfra": 3088,
      "Ġfre": 3089,
      "Ġfol": 3090,
      "Ġrequ": 3091,
      "Ġben": 3092,
      "▁rodu": 3093,
      "▁ality": 3094,
      "▁ops": 3095,
      "▁ott": 3096,
      "▁oth": 3097,
      "Ġprov": 3098,
      "Ġwh": 3099,
      "▁ired": 3100,
      "▁ller": 3101,
      "Ġdon": 3102,
      "Ġdiv": 3103,
      "Ġdevel": 3104,
      "Ġem": 3105,
      "Ġequ": 3106,
      "▁ational": 3107,
      "▁ild": 3108,
      "Ġvol": 3109,
      "▁out": 3110,
      "Ġsee": 3111,
      "Ġtech": 3112,
      "Ġdisp": 3113,
      "Ġexper": 3114,
      "Ġappro": 3115,
      "Ġgene": 3116,
      "Ġx": 3117,
      "▁aly": 3118,
      "▁yl": 3119,
      "▁ium": 3120,
      "▁nd": 3121,
      "▁ose": 3122,
      "▁we": 3123,
      "▁ware": 3124,
      "▁by": 3125,
      "▁ctive": 3126,
      "▁use": 3127,
      "▁ume": 3128,
      "▁urs": 3129,
      "▁ump": 3130,
      "▁ural": 3131,
      "▁fe": 3132,
      "▁pe": 3133,
      "▁ject": 3134,
      "Ġcan": 3135,
      "Ġcop": 3136,
      "Ġcat": 3137,
      "Ġcir": 3138,
      "▁ler": 3139,
      "▁less": 3140,
      "Ġtw": 3141,
      "Ġmag": 3142,
      "Ġmain": 3143,
      "▁sel": 3144,
      "▁ights": 3145,
      "▁ink": 3146,
      "▁ract": 3147,
      "▁ards": 3148,
      "▁den": 3149,
      "Ġinv": 3150,
      "Ġgro": 3151,
      "▁book": 3152,
      "Ġwa": 3153,
      "▁itor": 3154,
      "▁ator": 3155,
      "▁very": 3156,
      "Ġdri": 3157,
      "Ġel": 3158,
      "Ġec": 3159,
      "▁ences": 3160,
      "Ġje": 3161,
      "▁ason": 3162,
      "▁uts": 3163,
      "▁ability": 3164,
      "Ġtex": 3165,
      "Ġtemp": 3166,
      "▁ient": 3167,
      "Ġpost": 3168,
      "Ġparti": 3169,
      "Ġloc": 3170,
      "Ġphot": 3171,
      "▁ruct": 3172,
      "▁ize": 3173,
      "▁ized": 3174,
      "▁ected": 3175,
      "▁ible": 3176,
      "▁ission": 3177,
      "▁scrib": 3178,
      "Ġit": 3179,
      "Ġur": 3180,
      "▁ron": 3181,
      "▁em": 3182,
      "▁ep": 3183,
      "▁ah": 3184,
      "▁ited": 3185,
      "▁ni": 3186,
      "▁net": 3187,
      "▁our": 3188,
      "▁ming": 3189,
      "▁wor": 3190,
      "▁da": 3191,
      "▁bs": 3192,
      "▁cle": 3193,
      "▁cul": 3194,
      "▁ger": 3195,
      "▁ues": 3196,
      "▁fy": 3197,
      "▁ze": 3198,
      "Ġcra": 3199,
      "Ġcri": 3200,
      "Ġcur": 3201,
      "Ġcli": 3202,
      "Ġclo": 3203,
      "Ġcust": 3204,
      "Ġsi": 3205,
      "Ġsat": 3206,
      "Ġsim": 3207,
      "▁lex": 3208,
      "Ġra": 3209,
      "Ġav": 3210,
      "Ġaf": 3211,
      "Ġair": 3212,
      "▁teri": 3213,
      "Ġpur": 3214,
      "Ġpow": 3215,
      "▁ads": 3216,
      "Ġta": 3217,
      "Ġmi": 3218,
      "Ġmus": 3219,
      "▁vent": 3220,
      "Ġstar": 3221,
      "▁hen": 3222,
      "▁hers": 3223,
      "▁orm": 3224,
      "▁ases": 3225,
      "▁ison": 3226,
      "▁ished": 3227,
      "▁ances": 3228,
      "▁tional": 3229,
      "Ġbas": 3230,
      "▁ali": 3231,
      "▁ater": 3232,
      "Ġshow": 3233,
      "Ġprote": 3234,
      "Ġpat": 3235,
      "Ġpass": 3236,
      "Ġconst": 3237,
      "Ġwal": 3238,
      "Ġwel": 3239,
      "▁ston": 3240,
      "Ġcontin": 3241,
      "▁uring": 3242,
      "Ġhou": 3243,
      "Ġlab": 3244,
      "Ġda": 3245,
      "Ġdu": 3246,
      "Ġdire": 3247,
      "Ġev": 3248,
      "▁ils": 3249,
      "Ġvari": 3250,
      "Ġext": 3251,
      "Ġexam": 3252,
      "▁ash": 3253,
      "▁els": 3254,
      "▁cial": 3255,
      "Ġcoun": 3256,
      "▁amb": 3257,
      "Ġany": 3258,
      "Ġarch": 3259,
      "Ġscre": 3260,
      "Ġye": 3261,
      "Ġsome": 3262,
      "Ġrepre": 3263,
      "Ġmark": 3264,
      "▁fication": 3265,
      "Ġplan": 3266,
      "▁serv": 3267,
      "▁ched": 3268,
      "Ġrefer": 3269,
      "Ġcorre": 3270,
      "Ġasse": 3271,
      "Ġelect": 3272,
      "Ġinstru": 3273,
      "Ġclass": 3274,
      "Ġocc": 3275,
      "Ġdevelop": 3276,
      "▁cent": 3277,
      "Ġgrad": 3278,
      "Ġon": 3279,
      "Ġer": 3280,
      "▁ror": 3281,
      "▁lish": 3282,
      "▁nn": 3283,
      "▁ture": 3284,
      "▁ther": 3285,
      "▁way": 3286,
      "▁be": 3287,
      "▁bin": 3288,
      "▁cti": 3289,
      "▁gr": 3290,
      "▁get": 3291,
      "▁port": 3292,
      "Ġcer": 3293,
      "Ġsal": 3294,
      "Ġsing": 3295,
      "Ġset": 3296,
      "Ġrou": 3297,
      "Ġau": 3298,
      "Ġact": 3299,
      "▁ared": 3300,
      "▁aring": 3301,
      "▁aries": 3302,
      "▁ading": 3303,
      "Ġmy": 3304,
      "Ġmic": 3305,
      "Ġstr": 3306,
      "Ġstat": 3307,
      "▁ored": 3308,
      "▁ina": 3309,
      "▁que": 3310,
      "▁rap": 3311,
      "▁ising": 3312,
      "Ġfar": 3313,
      "Ġfri": 3314,
      "Ġfil": 3315,
      "Ġflo": 3316,
      "Ġban": 3317,
      "Ġbat": 3318,
      "Ġbet": 3319,
      "Ġbut": 3320,
      "Ġblo": 3321,
      "Ġform": 3322,
      "Ġinde": 3323,
      "Ġincl": 3324,
      "Ġconn": 3325,
      "▁alog": 3326,
      "Ġsho": 3327,
      "▁eds": 3328,
      "Ġgl": 3329,
      "Ġprof": 3330,
      "Ġprop": 3331,
      "Ġprogra": 3332,
      "Ġconside": 3333,
      "Ġwr": 3334,
      "Ġwat": 3335,
      "▁ather": 3336,
      "Ġadver": 3337,
      "▁sts": 3338,
      "Ġcontrib": 3339,
      "Ġfav": 3340,
      "Ġhor": 3341,
      "Ġhum": 3342,
      "Ġhome": 3343,
      "▁mental": 3344,
      "Ġlat": 3345,
      "Ġlou": 3346,
      "Ġdr": 3347,
      "Ġow": 3348,
      "Ġcap": 3349,
      "Ġcamp": 3350,
      "Ġoff": 3351,
      "Ġest": 3352,
      "▁ica": 3353,
      "▁ilities": 3354,
      "Ġvic": 3355,
      "Ġvir": 3356,
      "Ġview": 3357,
      "▁aster": 3358,
      "Ġcho": 3359,
      "Ġsug": 3360,
      "Ġsuper": 3361,
      "▁eld": 3362,
      "▁ams": 3363,
      "Ġtele": 3364,
      "Ġann": 3365,
      "Ġand": 3366,
      "Ġanaly": 3367,
      "Ġenc": 3368,
      "▁ains": 3369,
      "▁ips": 3370,
      "Ġunder": 3371,
      "Ġhel": 3372,
      "Ġmem": 3373,
      "Ġappe": 3374,
      "Ġphil": 3375,
      "Ġphys": 3376,
      "▁ivers": 3377,
      "Ġbook": 3378,
      "Ġopera": 3379,
      "▁issions": 3380,
      "Ġlaw": 3381,
      "Ġnoti": 3382,
      "Ġautom": 3383,
      "Ġindic": 3384,
      "▁mend": 3385,
      "▁mark": 3386,
      "Ġpromo": 3387,
      "Ġidenti": 3388,
      "Ġperson": 3389,
      "Ġemploy": 3390,
      "Ġeff": 3391,
      "Ġexperi": 3392,
      "Ġmil": 3393,
      "Ġq": 3394,
      "Ġir": 3395,
      "Ġill": 3396,
      "Ġven": 3397,
      "▁au": 3398,
      "▁az": 3399,
      "▁yed": 3400,
      "▁ik": 3401,
      "▁ira": 3402,
      "▁ier": 3403,
      "▁sw": 3404,
      "▁stim": 3405,
      "▁osed": 3406,
      "▁dge": 3407,
      "▁bor": 3408,
      "▁back": 3409,
      "▁ball": 3410,
      "▁come": 3411,
      "▁cast": 3412,
      "▁gin": 3413,
      "▁ged": 3414,
      "▁utes": 3415,
      "▁hor": 3416,
      "▁hol": 3417,
      "▁ford": 3418,
      "▁fact": 3419,
      "▁ption": 3420,
      "Ġcame": 3421,
      "Ġcro": 3422,
      "Ġsn": 3423,
      "Ġsch": 3424,
      "Ġsci": 3425,
      "▁ley": 3426,
      "Ġru": 3427,
      "Ġap": 3428,
      "Ġant": 3429,
      "Ġali": 3430,
      "Ġpan": 3431,
      "Ġpor": 3432,
      "▁ades": 3433,
      "Ġtro": 3434,
      "Ġtit": 3435,
      "Ġtrib": 3436,
      "Ġms": 3437,
      "Ġmad": 3438,
      "Ġmor": 3439,
      "Ġmid": 3440,
      "▁set": 3441,
      "Ġsto": 3442,
      "Ġstand": 3443,
      "Ġstri": 3444,
      "▁ining": 3445,
      "▁ination": 3446,
      "Ġque": 3447,
      "▁ism": 3448,
      "▁ament": 3449,
      "Ġfire": 3450,
      "Ġfran": 3451,
      "Ġread": 3452,
      "Ġrela": 3453,
      "Ġredu": 3454,
      "Ġbase": 3455,
      "Ġbul": 3456,
      "Ġconte": 3457,
      "Ġmanu": 3458,
      "▁ately": 3459,
      "▁ident": 3460,
      "Ġgover": 3461,
      "Ġpay": 3462,
      "▁rations": 3463,
      "Ġwo": 3464,
      "▁iting": 3465,
      "▁itation": 3466,
      "Ġadj": 3467,
      "Ġadap": 3468,
      "Ġadmin": 3469,
      "▁sting": 3470,
      "Ġcalcul": 3471,
      "▁ury": 3472,
      "Ġhy": 3473,
      "Ġhon": 3474,
      "Ġhard": 3475,
      "Ġhop": 3476,
      "Ġhos": 3477,
      "Ġcent": 3478,
      "Ġlin": 3479,
      "Ġdan": 3480,
      "Ġdown": 3481,
      "▁ows": 3482,
      "Ġcas": 3483,
      "Ġdest": 3484,
      "Ġep": 3485,
      "Ġent": 3486,
      "Ġeval": 3487,
      "Ġevery": 3488,
      "Ġnat": 3489,
      "Ġnet": 3490,
      "Ġnav": 3491,
      "▁illa": 3492,
      "▁une": 3493,
      "▁unic": 3494,
      "▁unds": 3495,
      "▁ssing": 3496,
      "▁cts": 3497,
      "▁ount": 3498,
      "▁outh": 3499,
      "Ġju": 3500,
      "Ġjack": 3501,
      "Ġexec": 3502,
      "Ġexcl": 3503,
      "Ġcharg": 3504,
      "▁ell": 3505,
      "Ġken": 3506,
      "▁ush": 3507,
      "▁lace": 3508,
      "Ġcook": 3509,
      "Ġsele": 3510,
      "▁ids": 3511,
      "Ġanti": 3512,
      "Ġanno": 3513,
      "Ġenter": 3514,
      "Ġthre": 3515,
      "Ġcompe": 3516,
      "Ġcomple": 3517,
      "▁load": 3518,
      "Ġher": 3519,
      "Ġexpl": 3520,
      "Ġmeas": 3521,
      "▁spect": 3522,
      "Ġsche": 3523,
      "Ġpart": 3524,
      "Ġlook": 3525,
      "Ġrob": 3526,
      "▁ives": 3527,
      "▁ibility": 3528,
      "Ġtrack": 3529,
      "▁ills": 3530,
      "▁ently": 3531,
      "Ġgenera": 3532,
      "Ġjourn": 3533,
      "Ġcommit": 3534,
      "Ġbroad": 3535,
      "▁itions": 3536,
      "▁ression": 3537,
      "Ġconfig": 3538,
      "Ġhapp": 3539,
      "Ġcharac": 3540,
      "Ġspecial": 3541,
      "Ġincre": 3542,
      "▁part": 3543,
      "Ġdesign": 3544,
      "Ġrespon": 3545,
      "Ġdistrib": 3546,
      "Ġremo": 3547,
      "Ġinvestig": 3548,
      "Ġconcer": 3549,
      "Ġintrodu": 3550,
      "Ġdiffer": 3551,
      "Ġprovide": 3552,
      "Ġparticip": 3553,
      "Ġrepresent": 3554,
      "Ġprogram": 3555,
      "3963": 3556,
      "Ġly": 3557,
      "Ġic": 3558,
      "▁ek": 3559,
      "▁ati": 3560,
      "▁ass": 3561,
      "▁atic": 3562,
      "▁yer": 3563,
      "▁ipp": 3564,
      "▁name": 3565,
      "▁of": 3566,
      "▁oci": 3567,
      "▁mon": 3568,
      "▁mic": 3569,
      "▁mber": 3570,
      "▁ta": 3571,
      "▁tors": 3572,
      "▁do": 3573,
      "▁ba": 3574,
      "▁ban": 3575,
      "▁ker": 3576,
      "▁kes": 3577,
      "▁ga": 3578,
      "▁go": 3579,
      "▁ging": 3580,
      "▁ua": 3581,
      "▁uc": 3582,
      "▁unt": 3583,
      "▁ham": 3584,
      "▁hib": 3585,
      "▁fa": 3586,
      "▁por": 3587,
      "▁pre": 3588,
      "Ġcr": 3589,
      "Ġcand": 3590,
      "Ġcru": 3591,
      "Ġsit": 3592,
      "Ġsun": 3593,
      "Ġran": 3594,
      "Ġrom": 3595,
      "Ġrun": 3596,
      "Ġrich": 3597,
      "Ġach": 3598,
      "▁ara": 3599,
      "▁ark": 3600,
      "▁arch": 3601,
      "▁arian": 3602,
      "▁cess": 3603,
      "Ġps": 3604,
      "Ġpick": 3605,
      "Ġpop": 3606,
      "Ġpot": 3607,
      "Ġtreat": 3608,
      "Ġtur": 3609,
      "Ġtyp": 3610,
      "Ġmen": 3611,
      "Ġmiss": 3612,
      "Ġmix": 3613,
      "▁onst": 3614,
      "▁onic": 3615,
      "▁sequ": 3616,
      "Ġstick": 3617,
      "Ġstruct": 3618,
      "▁ories": 3619,
      "▁inary": 3620,
      "▁ints": 3621,
      "▁rage": 3622,
      "Ġquali": 3623,
      "Ġlen": 3624,
      "Ġles": 3625,
      "▁oms": 3626,
      "▁omp": 3627,
      "▁ands": 3628,
      "▁anding": 3629,
      "Ġfu": 3630,
      "Ġfund": 3631,
      "Ġfree": 3632,
      "▁tise": 3633,
      "Ġrele": 3634,
      "Ġreal": 3635,
      "Ġreview": 3636,
      "Ġthere": 3637,
      "Ġbor": 3638,
      "Ġber": 3639,
      "Ġbed": 3640,
      "Ġbur": 3641,
      "Ġbir": 3642,
      "▁dent": 3643,
      "Ġtow": 3644,
      "Ġtool": 3645,
      "▁round": 3646,
      "Ġindi": 3647,
      "Ġindu": 3648,
      "Ġiniti": 3649,
      "Ġconver": 3650,
      "Ġconven": 3651,
      "Ġatten": 3652,
      "Ġswit": 3653,
      "Ġshop": 3654,
      "Ġgar": 3655,
      "Ġgraph": 3656,
      "Ġgrow": 3657,
      "▁body": 3658,
      "Ġpas": 3659,
      "Ġconsult": 3660,
      "Ġwhe": 3661,
      "Ġwide": 3662,
      "Ġwall": 3663,
      "▁ators": 3664,
      "▁ull": 3665,
      "Ġadd": 3666,
      "Ġaddi": 3667,
      "Ġcontain": 3668,
      "▁alth": 3669,
      "Ġcele": 3670,
      "Ġlight": 3671,
      "Ġdom": 3672,
      "Ġover": 3673,
      "▁utions": 3674,
      "Ġdel": 3675,
      "Ġden": 3676,
      "Ġdeb": 3677,
      "Ġdete": 3678,
      "Ġdeter": 3679,
      "Ġdeli": 3680,
      "Ġdecl": 3681,
      "Ġeg": 3682,
      "Ġeu": 3683,
      "Ġesse": 3684,
      "▁ends": 3685,
      "▁ency": 3686,
      "Ġnor": 3687,
      "Ġname": 3688,
      "Ġnort": 3689,
      "▁ili": 3690,
      "Ġvac": 3691,
      "▁ctors": 3692,
      "▁tery": 3693,
      "▁tern": 3694,
      "▁chan": 3695,
      "0436": 3696,
      "Ġchamp": 3697,
      "▁aging": 3698,
      "Ġsum": 3699,
      "Ġsuff": 3700,
      "▁usion": 3701,
      "▁ables": 3702,
      "▁cies": 3703,
      "▁iry": 3704,
      "Ġcour": 3705,
      "Ġcoord": 3706,
      "▁lied": 3707,
      "Ġend": 3708,
      "Ġenh": 3709,
      "Ġthumb": 3710,
      "Ġpresent": 3711,
      "Ġart": 3712,
      "Ġarg": 3713,
      "Ġarri": 3714,
      "▁ape": 3715,
      "Ġallow": 3716,
      "Ġuni": 3717,
      "▁aches": 3718,
      "Ġbeh": 3719,
      "▁aking": 3720,
      "▁akes": 3721,
      "Ġscan": 3722,
      "Ġapplic": 3723,
      "Ġuti": 3724,
      "Ġphar": 3725,
      "Ġopp": 3726,
      "▁ents": 3727,
      "▁ously": 3728,
      "▁iled": 3729,
      "Ġfeat": 3730,
      "▁lling": 3731,
      "▁ney": 3732,
      "Ġimpro": 3733,
      "Ġrecom": 3734,
      "Ġrefle": 3735,
      "Ġbuil": 3736,
      "Ġcheck": 3737,
      "Ġtransl": 3738,
      "▁scrip": 3739,
      "Ġflor": 3740,
      "Ġblog": 3741,
      "Ġjoh": 3742,
      "Ġassoci": 3743,
      "Ġbrow": 3744,
      "Ġdocu": 3745,
      "▁ological": 3746,
      "Ġauthor": 3747,
      "Ġmedic": 3748,
      "Ġdisco": 3749,
      "Ġinstit": 3750,
      "▁vision": 3751,
      "Ġaccess": 3752,
      "Ġoccu": 3753,
      "Ġcoup": 3754,
      "Ġcount": 3755,
      "Ġpublic": 3756,
      "▁ressed": 3757,
      "Ġdraw": 3758,
      "Ġkey": 3759,
      "Ġorganiz": 3760,
      "Ġclean": 3761,
      "Ġchrist": 3762,
      "Ġhung": 3763,
      "Ġtechn": 3764,
      "▁self": 3765,
      "Ġinvol": 3766,
      "Ġsimp": 3767,
      "Ġpower": 3768,
      "Ġcontinu": 3769,
      "Ġhouse": 3770,
      "Ġmanufact": 3771,
      "Ġgovern": 3772,
      "Ġevalu": 3773,
      "Ġannoun": 3774,
      "Ġachie": 3775,
      "1241": 3776,
      "1484": 3777,
      "2086": 3778,
      "3946": 3779,
      "4259": 3780,
      "0937": 3781,
      "Ġfoot": 3782,
      "0106": 3783,
      "0965": 3784,
      "1903": 3785,
      "2182": 3786,
      "3388": 3787,
      "4584": 3788,
      "6301": 3789,
      "2078": 3790,
      "2050": 3791,
      "2619": 3792,
      "3823": 3793,
      "5045": 3794,
      "Ġom": 3795,
      "Ġot": 3796,
      "Ġid": 3797,
      "Ġiss": 3798,
      "▁ee": 3799,
      "▁ection": 3800,
      "▁af": 3801,
      "▁ave": 3802,
      "▁air": 3803,
      "▁lines": 3804,
      "▁yers": 3805,
      "▁ij": 3806,
      "▁ials": 3807,
      "▁non": 3808,
      "▁nes": 3809,
      "▁nel": 3810,
      "▁ster": 3811,
      "▁mc": 3812,
      "▁mal": 3813,
      "▁mission": 3814,
      "▁where": 3815,
      "▁br": 3816,
      "▁bi": 3817,
      "▁bit": 3818,
      "▁ked": 3819,
      "▁ca": 3820,
      "▁cus": 3821,
      "▁cles": 3822,
      "▁gs": 3823,
      "▁gress": 3824,
      "▁uted": 3825,
      "▁umes": 3826,
      "▁xim": 3827,
      "▁xual": 3828,
      "▁zy": 3829,
      "▁zen": 3830,
      "Ġcy": 3831,
      "Ġcu": 3832,
      "Ġcard": 3833,
      "Ġcance": 3834,
      "Ġcreat": 3835,
      "Ġciv": 3836,
      "Ġcult": 3837,
      "Ġsle": 3838,
      "Ġsand": 3839,
      "Ġsil": 3840,
      "Ġsys": 3841,
      "Ġsens": 3842,
      "Ġscen": 3843,
      "▁lement": 3844,
      "Ġride": 3845,
      "Ġrol": 3846,
      "Ġrap": 3847,
      "Ġrang": 3848,
      "Ġaw": 3849,
      "Ġame": 3850,
      "Ġare": 3851,
      "Ġaust": 3852,
      "▁lying": 3853,
      "▁art": 3854,
      "▁arly": 3855,
      "▁tee": 3856,
      "▁tel": 3857,
      "▁temp": 3858,
      "▁tens": 3859,
      "▁tered": 3860,
      "▁anti": 3861,
      "▁ania": 3862,
      "▁ancy": 3863,
      "▁cer": 3864,
      "Ġpd": 3865,
      "Ġpu": 3866,
      "Ġpal": 3867,
      "Ġpic": 3868,
      "Ġtom": 3869,
      "Ġtal": 3870,
      "Ġtun": 3871,
      "Ġtim": 3872,
      "Ġmal": 3873,
      "Ġmac": 3874,
      "Ġmys": 3875,
      "Ġmess": 3876,
      "▁cket": 3877,
      "▁onom": 3878,
      "▁vered": 3879,
      "Ġstate": 3880,
      "▁igin": 3881,
      "▁igation": 3882,
      "▁hel": 3883,
      "▁orted": 3884,
      "▁ind": 3885,
      "▁inted": 3886,
      "▁medi": 3887,
      "▁mens": 3888,
      "▁ras": 3889,
      "▁rab": 3890,
      "Ġlet": 3891,
      "Ġlear": 3892,
      "Ġlead": 3893,
      "Ġmodi": 3894,
      "Ġmotor": 3895,
      "Ġmount": 3896,
      "▁ased": 3897,
      "▁ision": 3898,
      "▁istic": 3899,
      "▁oming": 3900,
      "Ġfig": 3901,
      "Ġfit": 3902,
      "Ġfat": 3903,
      "Ġfix": 3904,
      "▁time": 3905,
      "▁tific": 3906,
      "Ġreb": 3907,
      "Ġreve": 3908,
      "Ġrese": 3909,
      "Ġreli": 3910,
      "Ġrecip": 3911,
      "Ġreason": 3912,
      "Ġbal": 3913,
      "Ġbus": 3914,
      "Ġbab": 3915,
      "Ġbla": 3916,
      "Ġbac": 3917,
      "Ġbath": 3918,
      "▁des": 3919,
      "▁roll": 3920,
      "▁ering": 3921,
      "▁istan": 3922,
      "▁ren": 3923,
      "▁rew": 3924,
      "Ġinj": 3925,
      "Ġinsp": 3926,
      "Ġinten": 3927,
      "Ġinno": 3928,
      "Ġinform": 3929,
      "Ġcondi": 3930,
      "Ġconcl": 3931,
      "▁ntal": 3932,
      "▁wards": 3933,
      "Ġattemp": 3934,
      "▁oting": 3935,
      "▁idence": 3936,
      "▁identi": 3937,
      "Ġgi": 3938,
      "Ġgame": 3939,
      "Ġglo": 3940,
      "Ġprot": 3941,
      "Ġproper": 3942,
      "Ġproject": 3943,
      "▁box": 3944,
      "Ġconstit": 3945,
      "▁isted": 3946,
      "Ġwon": 3947,
      "Ġwed": 3948,
      "Ġwit": 3949,
      "Ġwri": 3950,
      "Ġwil": 3951,
      "Ġwho": 3952,
      "▁ital": 3953,
      "▁ires": 3954,
      "▁ato": 3955,
      "▁ulation": 3956,
      "▁ulations": 3957,
      "▁ington": 3958,
      "Ġreturn": 3959,
      "▁rie": 3960,
      "▁rid": 3961,
      "▁ried": 3962,
      "Ġcontract": 3963,
      "Ġfam": 3964,
      "Ġfail": 3965,
      "Ġcare": 3966,
      "Ġspir": 3967,
      "Ġspons": 3968,
      "Ġhist": 3969,
      "▁mentary": 3970,
      "▁alty": 3971,
      "Ġlad": 3972,
      "Ġlist": 3973,
      "Ġlay": 3974,
      "Ġdig": 3975,
      "Ġdro": 3976,
      "Ġdat": 3977,
      "Ġdol": 3978,
      "Ġdou": 3979,
      "Ġdam": 3980,
      "▁owled": 3981,
      "▁arge": 3982,
      "Ġoffi": 3983,
      "Ġoffer": 3984,
      "▁iving": 3985,
      "Ġdev": 3986,
      "Ġdela": 3987,
      "Ġdevi": 3988,
      "Ġdescrib": 3989,
      "Ġeli": 3990,
      "Ġeth": 3991,
      "Ġestim": 3992,
      "▁ically": 3993,
      "▁ening": 3994,
      "Ġnut": 3995,
      "▁old": 3996,
      "▁olution": 3997,
      "▁unk": 3998,
      "▁unch": 3999,
      "Ġvoc": 4000,
      "▁cting": 4001,
      "▁ety": 4002,
      "▁ette": 4003,
      "▁eting": 4004,
      "Ġjer": 4005,
      "Ġjul": 4006,
      "Ġjud": 4007,
      "Ġexten": 4008,
      "Ġexhib": 4009,
      "▁ask": 4010,
      "▁asc": 4011,
      "▁asing": 4012,
      "▁asion": 4013,
      "0414": 4014,
      "Ġchan": 4015,
      "Ġchang": 4016,
      "Ġchalle": 4017,
      "Ġchild": 4018,
      "▁ags": 4019,
      "Ġsucce": 4020,
      "▁utor": 4021,
      "▁cia": 4022,
      "▁irm": 4023,
      "Ġcost": 4024,
      "Ġsepar": 4025,
      "Ġcomb": 4026,
      "▁lies": 4027,
      "▁osh": 4028,
      "▁osure": 4029,
      "▁osition": 4030,
      "▁ums": 4031,
      "Ġanim": 4032,
      "Ġansw": 4033,
      "Ġenti": 4034,
      "Ġthrow": 4035,
      "▁antly": 4036,
      "Ġcompar": 4037,
      "▁ained": 4038,
      "Ġprem": 4039,
      "Ġprefer": 4040,
      "▁tives": 4041,
      "▁loc": 4042,
      "Ġarm": 4043,
      "Ġtrad": 4044,
      "▁gest": 4045,
      "Ġalter": 4046,
      "▁acy": 4047,
      "Ġbegin": 4048,
      "Ġdiscu": 4049,
      "Ġexpla": 4050,
      "Ġlite": 4051,
      "Ġlimit": 4052,
      "Ġacqu": 4053,
      "Ġaccu": 4054,
      "Ġactiv": 4055,
      "Ġpoly": 4056,
      "Ġposs": 4057,
      "Ġmean": 4058,
      "Ġmechan": 4059,
      "▁oke": 4060,
      "Ġappar": 4061,
      "Ġpartic": 4062,
      "Ġyou": 4063,
      "▁ublic": 4064,
      "Ġreprodu": 4065,
      "Ġbox": 4066,
      "Ġtrave": 4067,
      "▁illing": 4068,
      "Ġoptim": 4069,
      "Ġperform": 4070,
      "▁ects": 4071,
      "Ġweek": 4072,
      "▁ship": 4073,
      "▁fications": 4074,
      "Ġmail": 4075,
      "Ġmass": 4076,
      "Ġsubst": 4077,
      "Ġbrit": 4078,
      "▁new": 4079,
      "▁serve": 4080,
      "Ġspeak": 4081,
      "Ġimport": 4082,
      "Ġclin": 4083,
      "Ġrecor": 4084,
      "Ġrecog": 4085,
      "Ġbud": 4086,
      "▁mination": 4087,
      "Ġguide": 4088,
      "▁ensive": 4089,
      "Ġsurv": 4090,
      "Ġblack": 4091,
      "▁ession": 4092,
      "Ġeduc": 4093,
      "Ġcoll": 4094,
      "Ġassign": 4095,
      "Ġregard": 4096,
      "Ġfind": 4097,
      "Ġveget": 4098,
      "Ġabs": 4099,
      "Ġaccomp": 4100,
      "Ġsymp": 4101,
      "Ġinstall": 4102,
      "Ġpriv": 4103,
      "Ġterror": 4104,
      "▁range": 4105,
      "Ġinfl": 4106,
      "▁ocra": 4107,
      "▁mitted": 4108,
      "Ġdemonst": 4109,
      "Ġdemocra": 4110,
      "Ġupd": 4111,
      "▁ought": 4112,
      "Ġimm": 4113,
      "▁ught": 4114,
      "Ġaffili": 4115,
      "Ġtreas": 4116,
      "Ġfunction": 4117,
      "Ġengine": 4118,
      "Ġchris": 4119,
      "Ġsecre": 4120,
      "▁ography": 4121,
      "▁ographic": 4122,
      "Ġpracti": 4123,
      "Ġbreak": 4124,
      "Ġstudi": 4125,
      "Ġstreng": 4126,
      "Ġfrequ": 4127,
      "Ġfollow": 4128,
      "Ġdispla": 4129,
      "Ġcopy": 4130,
      "Ġmaintain": 4131,
      "Ġeconom": 4132,
      "Ġjew": 4133,
      "Ġital": 4134,
      "▁work": 4135,
      "Ġcustom": 4136,
      "Ġsatis": 4137,
      "Ġpurch": 4138,
      "Ġtax": 4139,
      "Ġarchite": 4140,
      "▁servation": 4141,
      "Ġoccur": 4142,
      "Ġgradu": 4143,
      "Ġconnect": 4144,
      "Ġadvertise": 4145,
      "Ġhuman": 4146,
      "Ġestab": 4147,
      "Ġencou": 4148,
      "Ġhelp": 4149,
      "Ġschol": 4150,
      "Ġadjust": 4151,
      "Ġadminist": 4152,
      "Ġjournal": 4153,
      "Ġeuro": 4154,
      "Ġcoordin": 4155,
      "Ġenhance": 4156,
      "Ġoccup": 4157,
      "Ġameric": 4158,
      "Ġchalleng": 4159,
      "0264": 4160,
      "1396": 4161,
      "1747": 4162,
      "1589": 4163,
      "1572": 4164,
      "1606": 4165,
      "2271": 4166,
      "2983": 4167,
      "3142": 4168,
      "3404": 4169,
      "4590": 4170,
      "4606": 4171,
      "4997": 4172,
      "5135": 4173,
      "5175": 4174,
      "6197": 4175,
      "6965": 4176,
      "8604": 4177,
      "9235": 4178,
      "9495": 4179,
      "1041": 4180,
      "1676": 4181,
      "1729": 4182,
      "1921": 4183,
      "2027": 4184,
      "2270": 4185,
      "2339": 4186,
      "2811": 4187,
      "3211": 4188,
      "3334": 4189,
      "3499": 4190,
      "3526": 4191,
      "3632": 4192,
      "3736": 4193,
      "4276": 4194,
      "4610": 4195,
      "4835": 4196,
      "5027": 4197,
      "5170": 4198,
      "5411": 4199,
      "5918": 4200,
      "8082": 4201,
      "8954": 4202,
      "0089": 4203,
      "0835": 4204,
      "0873": 4205,
      "0424": 4206,
      "0944": 4207,
      "0728": 4208,
      "0296": 4209,
      "0196": 4210,
      "0385": 4211,
      "0545": 4212,
      "0763": 4213,
      "0996": 4214,
      "0892": 4215,
      "0963": 4216,
      "1595": 4217,
      "1502": 4218,
      "1222": 4219,
      "1551": 4220,
      "1993": 4221,
      "1901": 4222,
      "1447": 4223,
      "1990": 4224,
      "1894": 4225,
      "1868": 4226,
      "2501": 4227,
      "2306": 4228,
      "2361": 4229,
      "2789": 4230,
      "2706": 4231,
      "2775": 4232,
      "2443": 4233,
      "2691": 4234,
      "3135": 4235,
      "3796": 4236,
      "3289": 4237,
      "3112": 4238,
      "3771": 4239,
      "3993": 4240,
      "3492": 4241,
      "3806": 4242,
      "3841": 4243,
      "4565": 4244,
      "4190": 4245,
      "4567": 4246,
      "4155": 4247,
      "4365": 4248,
      "4903": 4249,
      "4808": 4250,
      "4887": 4251,
      "5568": 4252,
      "5172": 4253,
      "5203": 4254,
      "5551": 4255,
      "5377": 4256,
      "5446": 4257,
      "6283": 4258,
      "8168": 4259,
      "8449": 4260,
      "8465": 4261,
      "9111": 4262,
      "1042": 4263,
      "1274": 4264,
      "1416": 4265,
      "1451": 4266,
      "1471": 4267,
      "1431": 4268,
      "1520": 4269,
      "1625": 4270,
      "1711": 4271,
      "1816": 4272,
      "1956": 4273,
      "1954": 4274,
      "2099": 4275,
      "2174": 4276,
      "2358": 4277,
      "2318": 4278,
      "2321": 4279,
      "2479": 4280,
      "2410": 4281,
      "2427": 4282,
      "2521": 4283,
      "2671": 4284,
      "2877": 4285,
      "2899": 4286,
      "2832": 4287,
      "2846": 4288,
      "2918": 4289,
      "3019": 4290,
      "3016": 4291,
      "3088": 4292,
      "3316": 4293,
      "3317": 4294,
      "3353": 4295,
      "3479": 4296,
      "3611": 4297,
      "3719": 4298,
      "3718": 4299,
      "3846": 4300,
      "3975": 4301,
      "4072": 4302,
      "4009": 4303,
      "4041": 4304,
[...]
